<unk>	0
<s>	0
</s>	0
.	-2.35625
을	-3.78974
를	-4.07808
도	-4.08389
가	-4.12785
▁너무	-4.59868
▁내가	-4.74312
▁것	-4.74537
▁	-4.77233
▁나	-4.78262
는	-4.80533
▁같아	-4.9154
서	-4.92175
고	-4.93665
▁내	-5.01402
▁안	-5.12407
은	-5.14577
▁수	-5.41839
이	-5.50986
▁더	-5.52029
의	-5.55545
게	-5.56846
?	-5.58806
▁잘	-5.62892
▁해	-5.63928
▁게	-5.64775
▁친구	-5.66186
만	-5.70773
▁할	-5.77331
▁못	-5.78473
에	-5.82468
▁나는	-5.88254
▁정말	-5.89503
▁하고	-5.9081
지	-5.9501
▁많이	-5.95416
로	-6.02791
▁거야	-6.05749
▁다	-6.05814
▁싶어	-6.06269
▁그	-6.07706
▁거	-6.09639
▁없어	-6.12115
어	-6.12422
▁있는	-6.13443
▁모르겠어	-6.16265
▁봐	-6.18715
▁어떻게	-6.20615
▁한	-6.22929
▁때문에	-6.23199
▁있어	-6.23646
▁응	-6.25537
▁하는	-6.28314
▁들어	-6.30711
▁않아	-6.31327
▁좀	-6.31534
으로	-6.31549
▁열심히	-6.35214
▁오늘	-6.35592
▁요즘	-6.36851
▁다른	-6.38251
▁이	-6.38458
하고	-6.38701
▁우리	-6.39057
▁이제	-6.3916
▁난	-6.40079
나	-6.41689
▁왜	-6.42636
▁해서	-6.42892
▁아내	-6.43384
한	-6.44176
▁나도	-6.45203
▁일을	-6.45843
▁해야	-6.48837
▁힘들어	-6.50186
▁나이	-6.52771
▁좋은	-6.56438
네	-6.57283
▁때	-6.57695
야	-6.57931
▁걸	-6.58643
는데	-6.59146
히	-6.62696
라도	-6.63696
▁일	-6.64662
▁하는데	-6.6493
▁슬퍼	-6.66139
!	-6.69243
▁할지	-6.69407
▁자꾸	-6.70403
▁앞으로	-6.71549
▁혼자	-6.7199
▁같아서	-6.72186
▁날	-6.72206
해서	-6.72358
▁했는데	-6.73968
▁일이	-6.73995
▁계속	-6.74389
▁화가	-6.76226
▁같이	-6.76435
▁엄마	-6.76442
▁이렇게	-6.7687
▁지금	-6.77423
▁마음이	-6.78022
야겠어	-6.79184
▁말을	-6.80335
▁있는데	-6.80601
▁사람	-6.84257
면	-6.85037
▁아무	-6.85577
▁아직	-6.86264
▁돼	-6.8815
▁돈을	-6.88757
▁그냥	-6.89904
▁해야겠어	-6.90697
▁이런	-6.92346
▁친구들	-6.92386
▁없는	-6.92575
▁다시	-6.93291
▁했어	-6.95134
▁그런	-6.95491
▁건	-6.96659
▁이야기	-6.97433
▁남편이	-6.97574
▁회사	-6.97644
▁없어서	-6.98216
▁대화	-6.98559
던	-6.99016
▁기분이	-6.99049
▁돈	-6.99633
▁마음	-7.00693
▁줄	-7.01014
▁사람이	-7.01193
▁결혼	-7.02355
▁그래서	-7.05252
▁나만	-7.08196
▁좋아	-7.08221
▁얼마	-7.08296
▁하지	-7.09413
▁좋겠어	-7.09783
▁건강	-7.11379
▁싶은데	-7.12137
▁나한테	-7.12386
▁것이	-7.13539
▁것도	-7.139
▁그래도	-7.14602
▁맞아	-7.14614
▁하나	-7.15073
까지	-7.15131
▁준비	-7.15154
▁먼저	-7.1525
▁돈이	-7.1534
▁얘기	-7.17076
▁걱정이야	-7.17301
▁친구들이	-7.18157
▁보니	-7.18905
해야겠어	-7.18958
▁불안해	-7.20417
▁남편	-7.21309
▁시간	-7.21723
▁없고	-7.22132
▁부모님	-7.22436
▁운동	-7.22445
▁직장	-7.229
▁집에	-7.23129
▁일단	-7.23207
▁속상해	-7.23246
▁항상	-7.23252
▁있어서	-7.23429
▁아빠	-7.25045
▁몸이	-7.25195
할	-7.26309
▁싫어	-7.26389
▁보고	-7.26738
▁조금	-7.26889
▁나에게	-7.27111
▁생각이	-7.27882
▁이번에	-7.27973
▁가서	-7.28083
하게	-7.2842
▁않고	-7.28475
했어	-7.29469
며	-7.31885
과	-7.31938
▁이번	-7.3306
▁자신이	-7.33432
▁같은	-7.33812
▁스트레스	-7.34965
▁회사에서	-7.3629
▁될	-7.36555
▁말	-7.36667
▁갑자기	-7.367
▁하면	-7.36766
인데	-7.38289
▁부모님이	-7.38329
▁없이	-7.39105
▁번	-7.39752
▁텐데	-7.40689
▁위해	-7.41505
▁부모님께	-7.4167
▁전에	-7.42537
▁그렇게	-7.4254
▁살	-7.43183
▁매일	-7.43777
▁싶은	-7.43854
▁사실	-7.43855
▁또	-7.43921
▁함께	-7.45128
▁집	-7.4515
▁친구에게	-7.4527
▁있을	-7.45282
▁아들이	-7.45356
거든	-7.45433
인	-7.4617
▁몸	-7.46939
▁대해	-7.47221
▁생각	-7.47393
▁취업	-7.47482
부터	-7.488
▁보면	-7.49296
▁않아서	-7.50038
▁모두	-7.50557
▁먹고	-7.50618
▁업무	-7.51034
▁사람들이	-7.52641
▁다들	-7.52661
▁빨리	-7.52741
▁학교	-7.53064
▁짜증	-7.53344
▁병원에	-7.53465
래	-7.53525
▁술	-7.53565
▁자주	-7.53575
데	-7.53687
▁공부를	-7.53783
▁큰	-7.53922
▁되는	-7.54547
지만	-7.54978
라고	-7.54994
▁봐야겠어	-7.55372
▁해봐야겠어	-7.55424
▁신경	-7.56159
▁친구들과	-7.56331
▁수가	-7.56991
▁아무것도	-7.5849
▁참	-7.58551
▁고민	-7.58579
▁걸까	-7.58935
▁점점	-7.59187
▁아무래도	-7.5929
▁뭐	-7.59444
▁좋을	-7.60439
▁말이야	-7.61662
▁자기	-7.61946
니까	-7.62417
▁공부	-7.62604
▁매	-7.63481
했는데	-7.63617
▁새로	-7.64316
▁어제	-7.64532
▁노후	-7.6566
겠어	-7.66375
▁좋지	-7.66459
▁아이	-7.66636
▁자식들	-7.68536
▁진짜	-7.68855
▁꼭	-7.68967
▁하지만	-7.69435
▁된	-7.70132
▁기뻐	-7.70211
운	-7.70667
▁사는	-7.70671
▁제대	-7.7089
다고	-7.70955
▁여자	-7.71653
▁생각해	-7.71878
▁딸이	-7.72033
▁성적이	-7.72627
▁있을까	-7.73105
▁치료	-7.7322
▁많은	-7.73296
▁나와	-7.73438
▁이제는	-7.73596
▁무슨	-7.73683
▁도움을	-7.73937
▁내일	-7.73952
▁중이야	-7.74025
처럼	-7.74062
▁뭘	-7.74092
▁상담	-7.74773
▁그동안	-7.74786
▁우울해	-7.75139
▁친구와	-7.75456
▁아들	-7.75491
▁시험	-7.75957
랑	-7.76218
▁서로	-7.76264
▁죄책감이	-7.76471
▁연락	-7.76856
▁기분	-7.77428
▁친한	-7.7754
▁없는데	-7.77745
▁싶지	-7.77986
▁화	-7.77992
▁때마다	-7.79259
▁걱정이	-7.79274
▁전화	-7.79913
에게	-7.80008
▁그런데	-7.80182
▁되고	-7.80525
으면	-7.81328
▁많아	-7.81695
▁할까	-7.82775
▁가족	-7.82785
▁건지	-7.83013
하는	-7.83291
▁시간이	-7.8358
▁여행	-7.84259
▁년	-7.84982
▁회사에	-7.85095
▁두려워	-7.85258
▁좋아하는	-7.85349
엔	-7.8574
▁모든	-7.85968
▁남자	-7.86185
▁잘못	-7.86338
▁남편과	-7.86491
▁대학	-7.86581
▁몰라	-7.86764
▁은퇴	-7.86845
▁눈물이	-7.87475
▁생각을	-7.87497
▁한번	-7.87842
와	-7.87878
더니	-7.88129
▁아내와	-7.88402
이나	-7.89271
▁볼	-7.89358
▁그래	-7.8982
▁당황스러워	-7.90019
▁집에서	-7.90489
▁어떤	-7.90671
▁걱정돼	-7.91138
▁받아	-7.91564
▁상사	-7.9178
▁자식들이	-7.92223
▁몇	-7.92493
▁주변	-7.93052
▁이젠	-7.93098
▁가고	-7.93295
▁기분이야	-7.93475
진	-7.93704
▁실수	-7.93812
▁하면서	-7.93933
▁사과	-7.93954
▁느껴져	-7.93989
대	-7.94015
▁오래	-7.94074
▁아주	-7.941
▁건강이	-7.94331
▁나랑	-7.94633
▁미안해	-7.94806
▁아픈	-7.94893
▁전	-7.94953
▁결과	-7.95105
▁있지	-7.95137
▁하니	-7.9522
다	-7.95486
▁고민이야	-7.95498
▁스스로	-7.95616
▁학교에서	-7.9568
▁사	-7.95888
▁사람들	-7.95938
▁괴로워	-7.96096
▁지	-7.96613
▁남자친구	-7.96673
▁받고	-7.96893
▁갈	-7.9729
질	-7.98059
▁않는	-7.98161
▁들어서	-7.98648
▁없으니	-7.99318
▁받았어	-7.9997
▁것을	-8.00018
니	-8.00276
▁약	-8.00366
▁나서	-8.00416
▁가장	-8.01025
봐야겠어	-8.01052
▁병원	-8.01255
▁이상	-8.0155
▁남	-8.01715
▁관계	-8.02079
▁상황이	-8.02079
▁가족들	-8.02081
▁걱정	-8.02285
▁못해서	-8.02359
▁의사	-8.02402
▁어려워	-8.02562
▁진로	-8.02668
▁인생	-8.02851
▁오	-8.03546
▁근데	-8.03739
▁아내에게	-8.03759
▁우선	-8.03851
었어	-8.04045
▁있을지	-8.04792
▁나보다	-8.04861
▁모습	-8.05303
했던	-8.05343
▁되었어	-8.05424
▁자식들에게	-8.05555
▁자신	-8.05771
▁됐어	-8.06141
▁만나서	-8.06814
▁아파	-8.07032
▁외로워	-8.07428
▁친구들에게	-8.07453
▁아니	-8.0752
▁한심해	-8.07918
▁같은데	-8.08214
▁성적	-8.08667
면서	-8.08815
▁대한	-8.09058
▁지금은	-8.09572
▁일자리	-8.10363
▁말도	-8.1053
▁직장에서	-8.11009
▁코로나	-8.11118
▁다음	-8.11357
▁알고	-8.11489
▁후	-8.11629
▁방법	-8.11763
▁벌써	-8.118
하지	-8.11837
▁이유	-8.12159
▁데	-8.12607
▁솔직하	-8.12674
까	-8.12868
▁생활	-8.12999
▁와서	-8.13013
▁후회돼	-8.13186
▁친구랑	-8.13261
록	-8.1369
▁진지하	-8.13827
▁힘든	-8.1393
▁못한	-8.14527
▁반	-8.15275
▁살고	-8.15318
▁있으면	-8.15325
▁않은	-8.15442
▁애들	-8.15582
▁아닌데	-8.15869
▁하네	-8.16164
에서	-8.16357
▁받는	-8.16382
▁제일	-8.16396
▁있는지	-8.16559
▁친구한테	-8.16767
▁상처	-8.16782
▁딸	-8.16827
▁그렇지	-8.16955
▁아파서	-8.17119
▁말해	-8.17486
▁늘	-8.17821
▁말고	-8.17978
▁돼서	-8.18088
▁선생님께	-8.18771
▁못하고	-8.18823
▁말이	-8.1889
▁믿	-8.18929
▁관리	-8.19306
▁않을	-8.19372
▁많아서	-8.19705
▁가	-8.19923
이야	-8.1999
▁노력	-8.20059
하면서	-8.20156
▁무서워	-8.20505
▁연애	-8.20523
▁문제	-8.20537
▁하게	-8.20595
▁보여	-8.21279
▁아이들	-8.21441
▁없을	-8.21569
▁연락이	-8.21842
▁평생	-8.22272
▁억울해	-8.22724
▁벌	-8.23093
▁되어	-8.23195
▁눈치	-8.23574
▁가지고	-8.23713
▁있으니	-8.23783
리	-8.24022
해	-8.24118
▁맞는	-8.24446
▁보는	-8.24496
▁힘이	-8.246
▁애들이	-8.25153
▁이해	-8.25356
긴	-8.25378
▁있었는데	-8.25606
▁면접	-8.25697
▁수도	-8.25734
졌어	-8.26068
▁처음	-8.26152
▁힘들	-8.26328
▁당장	-8.26493
▁별로	-8.26558
▁음식	-8.26611
▁가족들에게	-8.26808
▁그럴	-8.26844
보다	-8.27113
▁곧	-8.27168
▁혼란스러워	-8.27253
▁살아야	-8.27275
▁부모님과	-8.27532
▁아닌	-8.27808
▁있다고	-8.27925
▁다행이야	-8.28567
▁하니까	-8.28593
▁원하는	-8.28678
▁가지	-8.29123
번	-8.29131
▁쉽지	-8.29182
▁문제가	-8.29219
▁두	-8.29224
▁선물	-8.29252
▁들	-8.29274
▁때는	-8.29408
▁없네	-8.29409
▁힘들고	-8.29706
▁좋아서	-8.29833
▁못해	-8.29847
▁괜	-8.29982
▁수술	-8.30015
▁가는	-8.30309
더라고	-8.3037
▁언니	-8.30373
친구가	-8.3039
▁있었어	-8.30482
▁되지	-8.30483
▁하기	-8.30551
▁요새	-8.30806
▁크게	-8.3086
도록	-8.31268
▁사이	-8.31285
▁사람들과	-8.31746
▁하려고	-8.31752
▁못했어	-8.32291
▁막	-8.32301
▁들고	-8.32606
▁일에	-8.32618
▁마음에	-8.33036
▁한다고	-8.33502
▁여자친구	-8.33575
▁밥	-8.33999
▁세상	-8.34337
▁엄마한테	-8.34915
▁거라고	-8.35521
▁사고	-8.35548
▁동안	-8.35665
▁소리	-8.3571
▁알았는데	-8.35717
▁장애	-8.35733
▁도움이	-8.35911
▁가족들이	-8.36
▁건데	-8.36415
▁못하는	-8.36711
▁되면	-8.36749
▁찾아봐야겠어	-8.37035
▁없다고	-8.37645
▁상황을	-8.37851
▁다리	-8.38012
▁받을	-8.38016
▁들었어	-8.38172
▁어쩔	-8.38325
▁꾸준히	-8.38358
▁말하고	-8.38417
▁만나	-8.38708
▁내게	-8.3881
▁경제적으로	-8.38868
▁않을까	-8.38968
▁남편에게	-8.39153
▁병원비	-8.39489
▁자식	-8.39886
▁달라고	-8.40869
하면	-8.41261
▁용돈	-8.41383
▁직접	-8.41734
▁생각이야	-8.42012
▁느낌이야	-8.42093
▁물어봐야겠어	-8.42267
▁삶	-8.42658
▁언제	-8.42916
▁어떡하지	-8.42946
▁하루	-8.43167
▁있고	-8.43353
▁위해서	-8.43764
▁병	-8.44035
▁김	-8.44089
▁노후준비	-8.44228
▁사람들에게	-8.44434
▁온	-8.44438
▁있게	-8.44448
▁달	-8.44472
▁아는	-8.45088
▁맛있는	-8.45128
▁후에	-8.45302
▁결국	-8.45461
▁적이	-8.45922
▁머리	-8.46072
대로	-8.46411
한테	-8.46422
▁느껴	-8.4646
▁아이가	-8.46494
▁듣고	-8.46626
▁선생님이	-8.46898
▁생각했는데	-8.47102
▁가기	-8.47258
하는데	-8.47796
▁오랜만	-8.47927
▁나가	-8.48271
▁드	-8.48619
▁대해서	-8.48771
▁되네	-8.49039
▁해야지	-8.49269
▁지금까지	-8.49375
된	-8.49817
▁평소에	-8.50139
▁막막해	-8.50203
▁감정	-8.50379
▁그리고	-8.50394
▁같고	-8.50573
▁있다는	-8.50635
▁거지	-8.50637
▁주는	-8.50638
▁예전	-8.50673
우	-8.51203
▁약속	-8.51753
▁잘못한	-8.51762
▁알아봐야겠어	-8.51997
▁잠	-8.52512
▁될까	-8.5317
▁그런지	-8.5377
▁편	-8.54004
▁진심	-8.54107
▁않았어	-8.54237
▁예전에	-8.54506
▁조언	-8.55236
▁주변에	-8.55406
▁났어	-8.55481
▁아니라	-8.55669
▁얼굴	-8.55987
▁죽고	-8.56042
▁관심	-8.56089
▁동생이	-8.56223
▁학교에	-8.5629
▁가게	-8.56389
▁여러	-8.56647
▁가족들과	-8.57068
▁답답해	-8.57128
▁말라고	-8.5721
기도	-8.57285
디어	-8.57395
▁오해	-8.57412
▁되어서	-8.57467
▁담배	-8.5749
▁게임	-8.57613
상	-8.57628
▁계획	-8.57712
▁전혀	-8.58033
▁생겼어	-8.5861
▁대학에	-8.58819
▁짜증이	-8.58842
▁왕따	-8.58856
▁후회가	-8.58967
▁생각하면	-8.59067
▁미래	-8.59075
▁퇴직	-8.59301
어서	-8.59409
▁프로젝트	-8.60612
▁아니야	-8.60742
▁그만	-8.60745
▁보기	-8.60915
▁불편해	-8.61304
▁아버지	-8.61401
▁가끔	-8.61413
▁않게	-8.61633
▁곳이	-8.61666
▁밖에	-8.61865
▁방법이	-8.61892
▁하는지	-8.6214
▁친구들이랑	-8.62167
▁손	-8.62266
▁미리	-8.62281
▁짜증나	-8.62324
▁취업이	-8.62564
▁옆에	-8.62694
▁정도	-8.62905
▁나이에	-8.63444
▁엄청	-8.63449
었는데	-8.63643
▁알게	-8.63972
▁솔직히	-8.63985
수	-8.64026
▁몰	-8.64046
▁꿈	-8.64156
▁어머니	-8.64171
▁있도록	-8.64214
▁보려고	-8.64426
▁뭐야	-8.64577
▁앞에서	-8.64708
▁되니	-8.64795
▁혼자서	-8.64842
▁요즘은	-8.64873
▁슬프고	-8.64896
▁병원에서	-8.64909
▁사람들을	-8.65009
기	-8.65261
밖에	-8.65316
▁치매	-8.6557
▁곳	-8.65974
▁생각하고	-8.66048
▁아	-8.6615
▁학원	-8.66285
다가	-8.66352
▁나중에	-8.66435
▁보	-8.66642
적인	-8.66669
▁다니는	-8.66705
▁우울증	-8.66815
▁여유	-8.66838
▁않네	-8.66844
▁일찍	-8.66844
▁주고	-8.66876
▁받아서	-8.6692
▁사람들은	-8.66933
▁점수	-8.66944
▁행동	-8.66966
▁병이	-8.6698
▁본	-8.67067
▁느낌이	-8.67403
▁초조해	-8.67532
▁보내	-8.67731
▁동료	-8.68238
▁이혼	-8.68356
▁작은	-8.68623
▁남들	-8.68635
▁젊은	-8.68651
▁차	-8.68783
▁열등감	-8.68996
▁최대한	-8.69252
▁고마워	-8.69253
▁대	-8.69528
▁왔어	-8.69741
▁거짓말	-8.6975
▁간	-8.70008
▁주지	-8.70067
▁맨날	-8.70168
들이	-8.70194
▁더욱	-8.70195
▁관심이	-8.70362
▁혹시	-8.70479
들을	-8.7067
▁어디	-8.70975
▁이럴	-8.71054
▁글쎄	-8.71094
▁못할	-8.71342
▁다니고	-8.7147
▁많은데	-8.7155
▁때가	-8.71581
▁선생님	-8.717
▁눈물	-8.71721
▁애	-8.71839
▁살아	-8.72134
▁목표	-8.72342
일	-8.72717
▁주	-8.72855
▁잘하는	-8.73064
▁지원	-8.73341
▁지금부터	-8.73367
라는	-8.73597
▁아이들이	-8.73749
▁그걸	-8.73835
▁누가	-8.73924
▁만큼	-8.73941
▁갔는데	-8.73956
▁생활비	-8.74025
▁당뇨	-8.74177
▁어려운	-8.74191
▁중요한	-8.74197
▁말씀	-8.74291
▁흥미	-8.74564
▁자리	-8.74594
하며	-8.74825
▁만나는	-8.74826
▁그때	-8.74881
▁떨어졌어	-8.75244
▁싶어서	-8.75258
▁같지	-8.75293
땐	-8.75532
▁허리	-8.75865
▁덜	-8.76014
▁만날	-8.76191
▁바로	-8.76488
▁직업	-8.76587
▁챙겨	-8.76667
달라고	-8.76974
▁힘들게	-8.77495
▁모르는	-8.77557
▁취직	-8.77845
▁나니	-8.77958
▁따돌림을	-8.78016
▁건강검진	-8.78129
▁집중	-8.78238
▁받았는데	-8.78243
▁수밖에	-8.78332
▁정	-8.78493
▁아르바이트	-8.78549
▁힘들어서	-8.78566
▁커	-8.78711
러	-8.78749
▁회사가	-8.78795
▁적	-8.7883
▁나쁜	-8.79202
▁승진	-8.79417
라	-8.79635
▁때부터	-8.79691
거나	-8.80219
▁암	-8.80298
▁생각만	-8.80493
▁이미	-8.80535
▁가족이	-8.80601
▁상태	-8.80633
▁지금이라	-8.80659
▁없지	-8.80674
▁질투	-8.80762
▁생각하니	-8.80791
▁부끄러워	-8.80868
▁것만	-8.80937
▁중에	-8.80971
단	-8.80972
▁속상하	-8.8123
▁있지만	-8.81299
버렸어	-8.81453
▁얘기해	-8.81464
▁삼	-8.81693
해봐야겠어	-8.81956
▁그러지	-8.81966
▁나와서	-8.82002
▁집안일	-8.82038
▁하셔	-8.82092
▁드네	-8.82113
▁했던	-8.82284
▁아들에게	-8.82364
▁취미	-8.82393
▁찾아가	-8.82431
▁하다	-8.82845
▁동생	-8.82978
▁주말에	-8.83054
▁하겠어	-8.83114
▁필요	-8.83224
▁무시하는	-8.83416
▁투자	-8.83623
▁무엇을	-8.83769
▁후회	-8.83979
▁만나고	-8.84053
▁알	-8.84147
▁일하는	-8.84341
▁아니고	-8.84441
▁외롭고	-8.84625
▁행복해	-8.84712
▁만들어	-8.84959
▁건강에	-8.85261
▁과	-8.85326
▁없었어	-8.8545
▁것에	-8.85549
▁옆집	-8.85666
▁산책	-8.85687
▁고민이	-8.85753
▁늦게	-8.85762
▁미안하고	-8.8582
▁그것	-8.85838
▁뭔가	-8.85866
▁재산	-8.86057
▁서러워	-8.86485
▁출산	-8.86584
▁싸웠어	-8.86643
▁일할	-8.86649
▁먹는	-8.86671
한다고	-8.86811
▁다음에	-8.86817
▁힘드네	-8.86846
▁어릴	-8.86924
▁노력해	-8.86989
▁젊었을	-8.87584
셔서	-8.88
▁용기	-8.88034
▁하더라고	-8.88039
▁며칠	-8.88394
▁힘든데	-8.88422
▁갖고	-8.88436
▁직장에	-8.88476
▁명	-8.88752
▁볼까	-8.89061
동안	-8.8914
마다	-8.89159
잖아	-8.8932
른	-8.89406
▁몰랐어	-8.89468
▁통해	-8.89631
▁최근에	-8.89649
▁부부	-8.89673
▁그럼	-8.89794
▁척	-8.89825
▁친구들한테	-8.89976
▁당하고	-8.90346
▁바람	-8.90377
▁의견	-8.90398
▁조금씩	-8.90582
▁누구	-8.90586
▁왔는데	-8.90692
▁피해	-8.9071
▁기회	-8.90817
▁먹을	-8.91182
▁생각도	-8.91244
▁미안한	-8.91252
▁쓰고	-8.91278
▁씨	-8.91398
▁나네	-8.91454
▁생겨서	-8.91612
었던	-8.91741
▁나왔어	-8.91881
▁얼	-8.92087
▁인사	-8.92147
▁봤는데	-8.92334
▁원	-8.92352
▁실망스러워	-8.92479
▁원래	-8.92497
▁이대로	-8.92505
▁그러면	-8.92542
▁이혼을	-8.92566
▁대신	-8.92593
▁어쩌지	-8.92622
▁화나	-8.9267
▁받은	-8.928
▁완전	-8.92829
▁애가	-8.92843
▁딸에게	-8.92922
▁좋게	-8.9295
▁인해	-8.9333
▁폭력	-8.9342
▁나고	-8.93429
▁노력해야겠어	-8.93491
겠지	-8.93752
▁발표	-8.93789
▁둘	-8.93876
▁긍정적	-8.9402
들은	-8.94304
▁전부	-8.94501
▁나보고	-8.9453
▁떨어져서	-8.94536
▁했더니	-8.94583
▁가면	-8.95218
▁십	-8.95221
자	-8.95532
▁생겨	-8.95667
▁어느	-8.95882
▁죽겠어	-8.95998
▁일만	-8.96023
▁선배	-8.96046
▁당하는	-8.96119
▁열	-8.96557
▁문제로	-8.96923
▁생각에	-8.97023
▁엄마랑	-8.97092
▁부모	-8.97175
▁그만두고	-8.97184
▁때까지	-8.97266
▁밥을	-8.97362
▁시간에	-8.97493
▁부서	-8.97514
▁되는데	-8.97542
▁된다고	-8.97587
▁귀찮아	-8.97709
▁인생이	-8.97988
▁따돌림	-8.97992
▁동네	-8.98085
적으로	-8.9825
▁생활이	-8.98513
▁눈	-8.98656
▁할머니	-8.98662
▁세상에	-8.988
▁하며	-8.99214
▁해보려고	-8.99525
▁살기	-8.99658
▁않은데	-8.9973
▁고생	-8.99742
▁오랫	-9.00017
▁역시	-9.00021
▁이번에도	-9.00218
▁쓸	-9.004
▁누나	-9.00412
▁미안하다고	-9.00509
▁필요한	-9.00644
느라	-9.00703
▁새	-9.00899
▁말하는	-9.01174
자고	-9.01304
▁스트레스받아	-9.01409
▁준	-9.01423
▁말할	-9.01451
인지	-9.01739
▁와	-9.01751
곤	-9.02508
▁배	-9.02526
▁당황스럽	-9.02565
▁울고	-9.02689
▁않으면	-9.0269
▁최선을	-9.02764
▁기대	-9.02774
▁없다는	-9.02875
▁나아질	-9.03065
▁이유로	-9.0312
▁갱년기	-9.03144
▁써	-9.03198
▁능력	-9.03463
▁대학교	-9.03492
▁했지만	-9.03675
▁않도록	-9.03815
▁모아둔	-9.03819
▁따로	-9.03908
▁싶었는데	-9.03923
▁교육	-9.03961
다는	-9.04202
▁한다는	-9.04307
▁못하겠어	-9.04318
▁아프고	-9.04369
▁결혼하고	-9.04376
심하게	-9.04405
▁야근	-9.04725
▁삶이	-9.04924
▁이야기해	-9.05058
▁며느리	-9.05069
▁하던	-9.05246
▁재정	-9.05538
줘서	-9.05698
▁자신감	-9.05948
히려	-9.06007
▁생긴	-9.06101
▁월급	-9.06104
▁거라	-9.06229
▁저축	-9.06405
▁산	-9.06406
▁정신	-9.06492
▁위한	-9.06631
겠다고	-9.06745
▁받지	-9.068
▁자격증	-9.06839
▁따라	-9.07102
▁받아야	-9.07132
▁놀러	-9.07135
▁덕분	-9.07212
▁가야	-9.07229
▁책	-9.0724
▁쉽게	-9.07366
거야	-9.07433
▁길	-9.07643
▁않았는데	-9.07804
▁자식들한테	-9.07849
▁조심스러워	-9.07863
▁하라고	-9.08117
▁차라리	-9.08211
▁슬프네	-9.08245
▁사람과	-9.08393
▁중	-9.08513
▁식사	-9.08589
▁지내고	-9.08704
▁모르게	-9.08714
▁분명	-9.09178
▁심한	-9.09182
려고	-9.092
▁올해	-9.09331
▁욕을	-9.0956
▁편하게	-9.09724
줬으면	-9.09779
▁주식	-9.09937
▁싸워	-9.10066
▁부모님께서	-9.10072
길	-9.10241
▁괴롭히는	-9.10443
▁좋을까	-9.10452
▁자	-9.10457
▁능력이	-9.10476
▁희망이	-9.10615
▁검사	-9.10706
▁오지	-9.10772
▁속	-9.10971
▁되	-9.10992
▁잘할	-9.10993
▁잘하고	-9.11098
▁해보고	-9.11219
▁소득이	-9.11283
▁오빠	-9.11654
▁시켜	-9.11762
▁싶다고	-9.11894
▁불안하고	-9.12009
▁생각하는	-9.12169
▁물건	-9.1236
▁오는	-9.1243
▁전화해서	-9.12479
▁돈은	-9.1248
▁바빠서	-9.12615
▁검진	-9.12643
▁관련	-9.12705
▁두고	-9.12817
▁먹으면	-9.12915
▁좋은데	-9.13047
▁한데	-9.13083
▁뭐라고	-9.13192
다니	-9.13252
▁우울증이	-9.13327
▁등	-9.13342
▁분위기	-9.13751
▁벌어	-9.13918
▁성격이	-9.13944
▁늙어서	-9.14013
▁세	-9.1408
▁몸에	-9.14116
▁결정	-9.14236
▁모임	-9.1424
▁아닐까	-9.14242
▁평소	-9.1428
▁그랬어	-9.14391
▁학교폭력	-9.14625
▁대로	-9.14723
▁집안	-9.14789
▁만나기	-9.14928
▁걸어	-9.15026
▁다닐	-9.15162
이라	-9.154
▁저녁	-9.15467
드려야겠어	-9.15857
가서	-9.15886
▁속이	-9.15941
▁지긋지긋해	-9.16176
▁될지	-9.16231
▁싫고	-9.16586
▁올	-9.16903
였어	-9.1691
▁가진	-9.16911
▁쓰지	-9.16995
▁곳에	-9.17048
▁어려워서	-9.17323
▁남편이랑	-9.17589
걸	-9.17626
라서	-9.17626
▁다행히	-9.17633
▁잔소리	-9.17647
▁가야겠어	-9.17665
▁하다가	-9.1776
▁소식	-9.18181
▁공부에	-9.18311
▁일하고	-9.18366
▁손자	-9.18376
▁떨어져	-9.18433
▁감정이	-9.18486
▁박	-9.18495
▁싶	-9.18517
▁고등학교	-9.1857
▁살았는데	-9.18703
▁사기	-9.18827
▁갔어	-9.19035
▁받아야겠어	-9.19106
▁도대체	-9.19123
▁무척	-9.19126
▁와야겠어	-9.1929
▁등산	-9.19384
런	-9.19729
▁아내랑	-9.19767
줄	-9.19842
선	-9.19881
하니까	-9.20085
▁그런가	-9.20281
▁다녀	-9.20295
▁부러워	-9.2031
▁오면	-9.20476
▁엄마에게	-9.20558
이랑	-9.206
▁당분간	-9.20638
▁경제적	-9.20664
▁누군가	-9.2068
든	-9.20798
▁미워	-9.20806
▁어	-9.20825
▁싸웠	-9.20829
▁진단	-9.20898
▁도움	-9.20907
▁집이	-9.21031
▁정도로	-9.21055
▁성격	-9.21068
할까	-9.21069
보다는	-9.21078
▁이러다	-9.2111
▁됐는데	-9.2126
냐고	-9.21409
▁찾아	-9.21505
▁이직	-9.21598
▁보니까	-9.21621
▁갔다	-9.21628
▁건강하게	-9.21796
▁위로	-9.21925
▁좋을지	-9.21958
▁나에	-9.22041
▁아들과	-9.22465
군	-9.22497
▁친하게	-9.22783
▁긴장	-9.22783
▁제	-9.2285
▁빼고	-9.22882
▁모임에	-9.22919
▁되니까	-9.22921
▁버렸어	-9.23101
▁알아	-9.23151
▁일로	-9.23186
▁아마	-9.23218
▁모습이	-9.23301
▁있나	-9.23321
하려고	-9.23374
▁아픈데	-9.23414
▁걔	-9.2371
▁없으니까	-9.23844
▁슬픈	-9.23891
▁힘	-9.23944
▁드니	-9.24006
▁이제부터	-9.24174
▁죽을	-9.24348
▁돈으로	-9.2438
▁시선	-9.24396
▁보험	-9.24417
▁건강한	-9.24491
▁먹	-9.24545
▁부족한	-9.24563
▁합격	-9.24742
▁교통사고	-9.24794
▁걸린	-9.24933
▁절대	-9.24962
▁내서	-9.24966
▁대출	-9.25017
▁알아보고	-9.25044
▁부탁	-9.25082
▁편지	-9.2528
▁하루하루	-9.25326
▁저	-9.25354
▁있거든	-9.25364
▁모르고	-9.25442
▁맘	-9.25642
▁형편이	-9.2567
▁드는	-9.25828
▁큰일이야	-9.25906
▁쓰는	-9.25959
▁이사	-9.25975
▁상사에게	-9.26027
▁대화가	-9.26102
▁못하게	-9.26159
▁주위	-9.26229
▁사람에게	-9.26406
▁바보	-9.26455
▁옷을	-9.26467
▁남자친구와	-9.26532
▁생각보다	-9.26554
▁심해져서	-9.26561
▁감사해	-9.26704
신	-9.2693
▁노래	-9.26932
▁아기	-9.26982
▁노인	-9.27146
▁슬프다	-9.27332
▁뭐라	-9.27358
없이	-9.27423
▁남편도	-9.27427
▁많고	-9.27483
▁봐야	-9.27502
는지	-9.27639
▁말해야	-9.27723
▁쉬고	-9.27799
▁주변에서	-9.27947
껏	-9.28019
▁의미	-9.28023
▁버려진	-9.28041
▁임신	-9.28164
▁직원이	-9.28195
▁형	-9.28337
▁가정	-9.28502
▁봤어	-9.28841
▁병에	-9.2889
▁좋다고	-9.28898
▁직원	-9.28948
스러워	-9.29075
▁해볼까	-9.29121
▁찾아서	-9.29157
▁참고	-9.2948
▁어렸을	-9.29504
▁친	-9.29758
▁상의	-9.29786
▁생각해서	-9.29936
▁불쌍해	-9.30264
▁넘	-9.30319
▁치료비	-9.30576
▁먹어	-9.30592
▁스트레스야	-9.3062
▁믿을	-9.30839
조차	-9.30967
만큼	-9.30987
▁최근	-9.31024
▁연습	-9.31101
▁남의	-9.3114
▁별	-9.31143
▁싶고	-9.31169
▁없으면	-9.31279
▁어쩌	-9.31294
▁너무나	-9.31362
▁실망했어	-9.31424
▁되었는데	-9.31496
▁수업	-9.31559
▁보여서	-9.318
▁할머니가	-9.3184
들	-9.31868
하라고	-9.31879
▁도와줄	-9.31915
▁젊을	-9.31917
져	-9.31975
▁당했어	-9.3213
▁마음도	-9.32143
▁불러	-9.32147
▁말씀드리	-9.32247
돼서	-9.32323
▁죄책감	-9.32352
▁모아	-9.32392
▁활동	-9.32446
▁고립된	-9.32513
▁말해봐야겠어	-9.32725
▁나빠	-9.3277
▁일부러	-9.3309
▁괴롭힘	-9.33111
▁알아서	-9.3329
▁팀	-9.33315
간	-9.33603
▁있으니까	-9.33771
▁중인데	-9.33808
▁아침	-9.33908
져서	-9.34316
▁언제까지	-9.34441
▁얘기해봐야겠어	-9.34441
▁정리	-9.34647
▁상황에	-9.34886
▁입사	-9.34999
▁신고	-9.35032
▁좋고	-9.35171
▁좋아져	-9.35215
▁하	-9.35403
▁성가셔	-9.35422
▁있겠어	-9.35471
피	-9.35474
▁하더라	-9.35495
같이	-9.35507
▁아이들에게	-9.35571
려면	-9.35705
▁아내한테	-9.35801
▁건가	-9.35974
▁아빠한테	-9.36182
▁했거든	-9.36193
▁직원들	-9.3626
▁않으니	-9.36284
요	-9.36397
▁무시해	-9.3654
▁생일	-9.36835
▁보면서	-9.37032
▁형이	-9.37081
▁천	-9.37155
▁아니라고	-9.37172
▁당황스러웠어	-9.37217
▁오랜	-9.37252
▁칭찬	-9.37285
▁대인관계	-9.37467
▁취업에	-9.37516
▁써서	-9.37573
▁했지	-9.3776
▁가까운	-9.37809
▁가만히	-9.37813
▁나면	-9.37897
▁냈어	-9.37978
▁것처럼	-9.38011
▁모르겠네	-9.38427
▁사랑	-9.38542
▁조금이라	-9.38741
▁실패한	-9.38847
기가	-9.39045
▁싶었	-9.39167
연	-9.39535
▁곁에	-9.39636
▁좋겠는데	-9.39648
▁살지	-9.39703
▁자식이	-9.39729
▁기억	-9.39744
▁어린	-9.39786
▁나오지	-9.39831
▁봐야지	-9.39865
▁말은	-9.3987
▁싫어하는	-9.40045
▁퇴직하고	-9.40094
▁해주고	-9.40252
▁절망적이야	-9.40269
▁날이	-9.40291
▁여기저기	-9.40354
▁병문안	-9.40421
▁탓	-9.40586
란	-9.40643
▁어찌	-9.40682
▁듣지	-9.4069
▁싶지만	-9.40731
▁불행한	-9.40901
▁풀어야겠어	-9.40918
▁줘서	-9.40955
▁말에	-9.40966
▁솔직	-9.41082
▁싫다	-9.4111
▁들지	-9.41141
▁퇴사	-9.41191
▁생각하지	-9.41192
▁있겠지	-9.41199
▁만난	-9.41304
씬	-9.41338
▁떠나	-9.41446
▁충격이	-9.41447
훨	-9.415
▁지낼	-9.41522
▁무리	-9.41539
▁쓰여	-9.4165
작	-9.41845
▁영양제	-9.41979
▁엄마와	-9.4198
했다고	-9.42016
▁부족해서	-9.42051
▁그러니까	-9.42163
천	-9.42418
▁배우	-9.42489
▁자금	-9.42567
▁상처받았어	-9.42795
거	-9.42905
▁남자친구랑	-9.42932
▁잠깐	-9.43061
▁재미	-9.43085
▁살이	-9.43162
▁출근	-9.43223
▁저녁에	-9.43246
▁점	-9.43272
▁어려울	-9.43368
▁자존감	-9.43398
▁독립	-9.43414
▁있던	-9.4345
▁퇴근	-9.43455
▁짐	-9.4356
▁다니면서	-9.43587
▁마음대로	-9.43652
하던	-9.43705
▁생각할	-9.43782
▁사정	-9.44163
▁소문	-9.44442
▁사소	-9.4455
▁빚	-9.44579
▁무조건	-9.44685
기로	-9.44713
▁비	-9.44751
▁졸업	-9.4478
▁털어놓	-9.44855
하여	-9.44903
▁해줄	-9.44904
▁면접에서	-9.45024
▁사진	-9.45076
▁지내는	-9.45218
▁보지	-9.45321
▁당혹스러워	-9.45334
▁자신감이	-9.45464
▁남편한테	-9.45529
▁물어보고	-9.45552
봐	-9.4568
▁혼자만	-9.45699
▁벌고	-9.45778
했으면	-9.45803
▁분	-9.45921
▁같기	-9.46026
▁힘들다	-9.46117
▁쓸모없는	-9.46181
▁경찰에	-9.46199
▁사정이	-9.46202
▁지내	-9.46245
예	-9.46304
▁개	-9.46309
▁말하기	-9.46339
▁신나	-9.46429
▁아직은	-9.46502
▁후배	-9.46564
▁첫	-9.4661
▁생계	-9.46662
▁보러	-9.46702
▁퇴직금	-9.46812
온	-9.46834
했더니	-9.46895
▁가족에게	-9.46916
▁상	-9.4698
▁기	-9.47112
해야	-9.47355
▁차이	-9.47386
▁처리	-9.47472
▁서운해	-9.47561
▁아니면	-9.47682
▁발	-9.47721
▁심해서	-9.47955
▁회의	-9.48001
▁이상한	-9.481
▁행복하게	-9.48335
▁사업	-9.4834
▁맞지	-9.48377
▁결혼할	-9.48469
▁그만두	-9.4849
▁다가가	-9.48619
▁특별	-9.48646
저	-9.48658
▁말씀드려야겠어	-9.48781
▁처지	-9.488
▁눈이	-9.48836
▁벌어야	-9.48895
▁말하면	-9.48946
▁경제	-9.48951
씩	-9.48983
▁빠져	-9.4899
여서	-9.49118
▁지쳐	-9.49153
하네	-9.49156
▁방	-9.4925
시	-9.49274
▁학원에	-9.49313
▁상대	-9.49392
▁동기	-9.49505
▁나왔는데	-9.49547
▁한두	-9.5002
▁딸과	-9.50263
▁부모님에게	-9.50429
기만	-9.50455
▁것보다	-9.50504
▁반대	-9.5091
▁얘기하고	-9.51186
어차	-9.51256
▁영화	-9.51312
▁정신이	-9.51323
▁나름	-9.51357
▁적극적으로	-9.51388
▁핸드폰	-9.5152
▁그렇다고	-9.51523
▁자녀	-9.51528
해도	-9.51644
▁아니지만	-9.51704
▁부담	-9.5171
▁아침에	-9.51749
▁나눠	-9.51789
▁연락도	-9.5188
▁걸려서	-9.52039
▁잠시	-9.52091
▁이후로	-9.52175
▁말만	-9.52209
▁보내고	-9.52283
▁앞	-9.52306
▁물어봐	-9.52341
▁충격	-9.52479
▁삼십	-9.52614
▁남지	-9.52627
▁암에	-9.52689
▁영어	-9.52691
▁현재	-9.52716
▁사업이	-9.52728
▁순간	-9.52744
▁놀랐어	-9.52802
▁본인	-9.52902
▁연금	-9.52925
▁음악	-9.52936
▁힘들다고	-9.5299
▁같다고	-9.52992
▁살아가야	-9.5305
▁죽는	-9.53144
건	-9.53174
▁믿어	-9.53395
▁만나면	-9.53413
▁성과	-9.5348
▁비슷한	-9.53503
▁잘못된	-9.53574
▁싸우고	-9.53694
▁못난	-9.53717
▁자고	-9.53742
▁신세	-9.53743
하기	-9.53928
▁보낼	-9.54024
▁했다고	-9.54041
론	-9.5413
▁없을까	-9.54164
▁당해	-9.54213
▁탓이야	-9.54242
▁퇴직을	-9.54255
▁편이	-9.54327
▁통	-9.54339
▁은퇴하고	-9.54404
▁상처가	-9.54541
▁아닌가	-9.54636
▁나갈	-9.54716
▁필요해	-9.54802
▁안쓰러워	-9.549
▁없지만	-9.54924
▁없	-9.54957
▁결혼식	-9.54962
▁배운	-9.54972
▁휴가	-9.54985
▁창피해	-9.55068
보고	-9.55106
▁청소	-9.55131
▁보게	-9.55193
으니	-9.55215
▁짐이	-9.55235
▁수입이	-9.55265
▁있었	-9.5531
▁무시	-9.55353
▁선택	-9.55389
▁불편한	-9.55452
▁뿐이야	-9.55506
▁문자	-9.55521
▁진로에	-9.55582
▁커피	-9.55636
▁달라	-9.55703
었으면	-9.55731
▁옷	-9.55753
▁하자고	-9.55754
▁현실	-9.55783
▁찾아야겠어	-9.55796
▁필요할	-9.55817
▁편해	-9.55837
▁어렵고	-9.55838
▁아닌지	-9.55847
▁괴롭혀	-9.56006
▁풀	-9.56188
▁겨우	-9.56374
▁우울하고	-9.56427
▁태도	-9.56487
▁사실이	-9.56498
▁먹어서	-9.56556
▁동기가	-9.56567
▁적금	-9.56606
▁월급이	-9.56617
▁여기	-9.56673
▁아빠랑	-9.56758
▁있어야	-9.56958
이라고	-9.57001
당해서	-9.57016
▁회식	-9.57057
▁안타까워	-9.57072
▁이러다가	-9.57088
▁입원	-9.57132
▁정신적으로	-9.57142
▁모르겠고	-9.57157
▁효과	-9.57215
▁자랑	-9.57363
▁고백	-9.57363
▁행복한	-9.57408
하기로	-9.57427
▁순	-9.57436
▁시작해	-9.57463
▁사랑하는	-9.57563
▁때문인	-9.576
▁수학	-9.57615
▁노인정	-9.57639
▁무섭	-9.57644
▁보다	-9.57657
▁건강관리를	-9.57676
▁와이프	-9.57785
▁마누라	-9.57807
▁당한	-9.57813
▁낼	-9.58018
▁고맙다고	-9.58053
더라	-9.58184
▁욕	-9.58287
▁전환	-9.58324
▁심해	-9.58366
▁늙	-9.58475
▁종일	-9.58689
▁표현	-9.58762
▁컴퓨터	-9.58809
▁불행해	-9.58851
▁싫어서	-9.58869
▁그대로	-9.58896
▁가는데	-9.58908
▁가족과	-9.58936
▁비해	-9.59371
▁알았어	-9.59451
▁느끼는	-9.59561
▁얘기해야겠어	-9.59623
▁년이	-9.5969
▁죄송해	-9.59741
▁팔	-9.59917
▁금방	-9.59997
▁당황했어	-9.60091
▁취급	-9.60149
▁좋겠다	-9.60158
▁줄은	-9.60193
▁선생님과	-9.60207
▁문	-9.60308
▁실	-9.60347
▁보이고	-9.6043
▁뒤에서	-9.60464
했거든	-9.60499
▁싶다	-9.60508
▁바람에	-9.60632
▁비교	-9.60679
에는	-9.60757
▁한마디	-9.60809
였는데	-9.60818
▁커서	-9.60848
▁세상이	-9.60902
줘야겠어	-9.60903
▁언젠가	-9.61122
▁대체	-9.61262
▁곳으로	-9.61283
▁사과하	-9.6151
▁설명	-9.61535
▁마지막	-9.61639
▁공무원	-9.61648
▁버는	-9.61803
▁포기하고	-9.61999
▁찾고	-9.6204
▁나올	-9.62201
▁말하지	-9.62337
▁가족들한테	-9.62448
▁말씀드려	-9.6245
▁알지	-9.62455
▁요리	-9.62484
▁가치	-9.62527
▁나온	-9.62558
▁가자	-9.62721
▁전부터	-9.62784
▁자식들과	-9.62804
▁그랬	-9.62894
▁일주일	-9.62916
▁회사는	-9.62922
▁따돌리는	-9.62979
이라는	-9.63017
▁많지	-9.63111
▁타	-9.6315
▁조용	-9.63163
▁수술비	-9.63166
▁이야기하고	-9.63286
▁그러는지	-9.63358
▁기운	-9.63362
▁거절	-9.63566
▁놀고	-9.63627
다면	-9.63684
▁부분	-9.6376
▁입고	-9.63793
▁탓인	-9.63822
▁멀리	-9.63854
▁눈치가	-9.63855
▁끝나	-9.63895
▁비싼	-9.6392
▁줘	-9.64053
▁살아서	-9.64128
▁생각나	-9.64179
▁사업을	-9.64183
▁떨어지고	-9.64204
▁준비한	-9.64314
▁해준	-9.64414
▁그러다	-9.64485
▁영	-9.64486
▁억울하	-9.64504
▁그렇지만	-9.64526
▁꽤	-9.6468
▁앓고	-9.6468
▁만족스러워	-9.64683
▁결혼은	-9.64701
▁좋았어	-9.64729
▁일어나	-9.64746
▁같네	-9.64765
▁싶기도	-9.64791
▁저번에	-9.64966
▁둘이	-9.64987
더군	-9.64994
▁뒤	-9.65
▁짓	-9.65009
▁강아지	-9.6518
▁희망	-9.65232
▁충분히	-9.65485
▁학업	-9.6549
▁다니던	-9.65495
▁답답하고	-9.65584
▁쉬는	-9.65614
▁아들한테	-9.65616
▁식단	-9.65777
▁헤어지	-9.65877
▁느끼고	-9.6596
▁허탈해	-9.65987
▁살아갈	-9.66128
▁은근	-9.66275
▁걱정스러워	-9.66325
▁배신감이	-9.66338
▁결혼한	-9.66339
▁손해	-9.66348
▁놓은	-9.66781
▁수다	-9.66787
지도	-9.66816
▁좋아해	-9.66879
▁옆	-9.66887
▁거리	-9.66892
▁특히	-9.67085
하러	-9.67089
▁숙제	-9.6713
▁고혈압	-9.67201
▁있었던	-9.67208
▁피하는	-9.67376
▁줘야겠어	-9.67409
▁잔소리를	-9.67434
▁밖에서	-9.67448
▁봐서	-9.67457
▁연봉	-9.67497
▁곳에서	-9.67509
▁정보	-9.67575
▁하셨어	-9.67643
▁사이에서	-9.67675
▁들면서	-9.6775
▁않지만	-9.67963
▁애들한테	-9.67992
▁여자친구와	-9.68029
▁당당하	-9.68041
▁받아봐야겠어	-9.68125
▁그저	-9.68175
▁만한	-9.68437
▁반에서	-9.68458
▁적어	-9.68492
▁이십	-9.68504
▁노력할	-9.68605
▁사람이야	-9.68715
▁똑같은	-9.68768
▁시험에	-9.68777
▁어디서	-9.68898
▁분이	-9.68903
▁가슴이	-9.68917
▁부족해	-9.69009
▁들으니	-9.69029
▁싫	-9.69138
▁경우	-9.6916
▁쓰	-9.69165
▁해결	-9.69184
▁사는데	-9.69185
▁해봐야	-9.69317
▁서류	-9.69329
▁한잔	-9.69332
▁적은	-9.69341
▁신체	-9.69358
▁앞에	-9.69403
▁일이야	-9.69457
▁우울한	-9.69522
▁뭔지	-9.69539
겐	-9.69539
▁시작했어	-9.69618
▁년째	-9.69656
▁가려고	-9.6992
▁싫은	-9.69924
▁화해	-9.6994
▁당연	-9.70052
▁일이라	-9.70102
▁이력서	-9.70133
으니까	-9.70185
▁각자	-9.70376
▁않았으면	-9.70394
▁않았을	-9.704
▁나눠봐야겠	-9.70422
▁괜찮은	-9.70438
▁받	-9.70594
▁엄청나	-9.70867
▁그녀	-9.71015
▁확실히	-9.71218
▁배신당한	-9.71225
해야지	-9.71312
했지만	-9.71422
▁그렇고	-9.71426
▁자신에게	-9.71482
었거든	-9.71487
▁처음에	-9.7159
▁배워	-9.71653
▁구	-9.71763
▁같다는	-9.71813
▁대답	-9.72061
▁죽었어	-9.72123
▁아플	-9.72128
▁바쁘다	-9.72128
▁무언가	-9.72147
▁데이트	-9.72276
▁믿음	-9.7228
▁질환	-9.72371
야지	-9.72374
▁피곤해	-9.72388
▁무릎이	-9.72428
▁줬어	-9.7266
▁끝	-9.7273
▁달에	-9.7283
▁과제	-9.72833
▁심정	-9.72839
▁똑같이	-9.72955
▁장사	-9.72961
▁잃었어	-9.72964
▁입	-9.73004
▁그러는	-9.7303
▁다녀왔	-9.73058
▁동료들이	-9.7322
▁잠이	-9.7324
▁싶네	-9.73244
▁주위에	-9.73349
▁모은	-9.73494
▁자체	-9.73511
▁괴롭히	-9.73607
▁노후에	-9.73904
▁써야	-9.73907
▁상황에서	-9.73977
▁책임	-9.74096
▁조심스럽	-9.74213
▁생길	-9.74238
▁모른	-9.74412
▁외롭	-9.74542
▁찾을	-9.74625
▁받게	-9.74633
▁부정적인	-9.74654
▁다니	-9.74682
▁죽음	-9.74687
▁떠났어	-9.74695
▁걸려	-9.74696
▁문제에	-9.74723
▁들었는데	-9.74764
▁도와주지	-9.74789
▁손주	-9.74861
▁통보	-9.74895
▁없게	-9.74951
▁사서	-9.74983
▁바꿔	-9.75001
▁노년에	-9.75007
▁의욕이	-9.75058
▁진정	-9.75074
▁수치	-9.75078
▁보이지	-9.75369
▁시어머니	-9.7552
▁걷기	-9.75523
▁통해서	-9.75555
▁불안한	-9.75583
▁시험에서	-9.75654
▁주에	-9.75672
▁구역질이	-9.75699
▁남아	-9.75704
▁못하니	-9.75707
▁의지	-9.75801
▁뒤로	-9.75831
▁밤에	-9.75857
▁있다	-9.75868
▁편안해	-9.75922
▁전공	-9.76097
▁먹지	-9.76109
구나	-9.76178
▁알면서	-9.76181
▁좋아질	-9.76187
▁놓고	-9.76244
될	-9.76309
▁배신감	-9.76353
▁싫은데	-9.76467
▁없었는데	-9.76481
▁말로	-9.76506
▁그나마	-9.76508
것	-9.76573
▁애인	-9.76642
▁마시고	-9.76812
▁이상하게	-9.76838
▁없나	-9.76847
▁대하는	-9.76865
▁없다	-9.76904
▁현실이	-9.76928
▁소득	-9.76931
▁용서	-9.77121
▁해고	-9.77201
▁신입	-9.77354
▁잘해	-9.77373
▁싸우는	-9.77434
▁싫다고	-9.77456
▁않으려고	-9.77462
기를	-9.77469
▁다니는데	-9.77646
▁공부하는	-9.77686
▁판정	-9.77702
하느라	-9.77775
▁고마운	-9.77903
난	-9.77927
▁친구인데	-9.7794
▁나오는	-9.7798
▁걱정도	-9.78063
린	-9.78064
▁지난	-9.78146
▁되도록	-9.78271
▁준비해야	-9.78368
▁죄	-9.78373
▁갈수	-9.78392
▁분명히	-9.78468
▁얘기할	-9.78536
▁체력이	-9.78562
▁받으면	-9.78616
▁뒷바라지	-9.78768
▁모양이	-9.78848
▁지나	-9.78896
▁마시면	-9.78945
▁속상한	-9.78964
▁부담이	-9.79014
▁화가나	-9.79081
▁혐오스러워	-9.79113
▁진작	-9.79116
▁의심스러워	-9.7912
▁어렵게	-9.79264
▁노력해야지	-9.79281
▁힘들었어	-9.79308
▁모아놓	-9.79387
▁직원들이	-9.79443
▁명이	-9.79497
엄마가	-9.79606
▁험담을	-9.79614
▁혼났	-9.79621
▁다투	-9.79823
▁적응	-9.79842
▁실패	-9.7993
▁물론	-9.79974
▁싫어져	-9.8006
▁울었	-9.80203
▁높	-9.80299
▁모	-9.80317
▁행복	-9.80318
▁타고	-9.80346
▁연락해서	-9.80358
▁자녀들	-9.80372
▁앞두	-9.80379
▁낮	-9.80478
▁겁이	-9.80785
▁무릎	-9.80822
니깐	-9.80857
▁굉장	-9.80955
▁어이가	-9.81049
▁동료들	-9.81059
▁사람들한테	-9.81128
▁업무에	-9.81129
▁그건	-9.8134
▁노년	-9.81353
▁존재	-9.81413
▁습관	-9.81569
▁주면	-9.817
▁공부할	-9.81749
지네	-9.81762
▁구할	-9.81884
▁그러네	-9.81972
▁소개팅	-9.81985
▁딱히	-9.81994
▁기억이	-9.81995
▁수능	-9.82028
▁눈에	-9.82059
▁마음으로	-9.8206
▁줄이고	-9.82087
정도야	-9.82094
▁키워	-9.82106
▁들어갈	-9.82115
▁빌려	-9.82146
▁긴장돼	-9.82164
▁시기	-9.8218
▁시	-9.82298
▁나가고	-9.82359
▁환멸	-9.82442
▁질환이	-9.82449
치	-9.82533
친	-9.82563
▁방법인	-9.82634
▁홀로	-9.8267
▁그러게	-9.82781
▁경험	-9.82806
▁과외	-9.82846
▁미치겠어	-9.8287
▁낸	-9.82916
▁추억	-9.82964
▁하러	-9.8297
▁슬펐	-9.83011
▁외출	-9.8303
▁걱정되고	-9.83056
▁아파트	-9.83102
하자고	-9.83115
▁아프니	-9.83139
▁질문	-9.83317
▁삶에	-9.83362
▁기다려	-9.8346
하거나	-9.83543
▁지인	-9.83582
▁육아	-9.836
지는	-9.83781
▁받으	-9.83817
▁이혼하고	-9.83908
▁젊어서	-9.83934
▁어떻게든	-9.84014
▁감사한	-9.84031
▁옛날	-9.84049
할거야	-9.84106
을까	-9.8424
▁외식	-9.84256
▁마무리	-9.84327
▁하려	-9.84421
하더라고	-9.84442
▁성공	-9.84528
▁슬	-9.84569
마저	-9.84579
▁다녀야	-9.8458
▁냄새	-9.84591
▁힘들었는데	-9.84863
▁테니	-9.84875
▁드니까	-9.84989
▁일들	-9.85085
▁점이	-9.8509
▁들을	-9.85101
▁힘을	-9.85115
▁나가는	-9.85119
일까	-9.85153
▁부분이	-9.85155
▁내고	-9.85161
▁내용	-9.85204
▁높은	-9.85315
▁배신	-9.85366
내	-9.85372
▁퇴원	-9.85514
▁간섭	-9.85563
▁안돼	-9.85575
▁서럽	-9.85582
▁다르게	-9.85804
▁집으로	-9.85807
▁노인이	-9.85825
▁터놓	-9.85884
▁걱정했는데	-9.86024
▁채	-9.86179
▁인생에	-9.86302
▁마	-9.86408
▁인터넷	-9.8641
▁문제야	-9.86421
▁맞	-9.86424
▁건강관리	-9.86522
▁일등	-9.86659
▁꺼내	-9.86667
▁점심	-9.8671
▁즐겁게	-9.86731
▁딸아이	-9.86749
▁소홀	-9.8677
▁걸렸어	-9.86866
▁그래야	-9.86866
부로	-9.8693
▁구역질	-9.87018
▁가난한	-9.87058
▁힘들지	-9.87308
▁공부해서	-9.87315
▁시키는	-9.87378
▁감사	-9.87459
▁이해해	-9.87581
▁비싸	-9.87647
▁대학교에	-9.8766
▁핑계	-9.87663
▁왠지	-9.87688
▁원망스러워	-9.87692
▁남았는데	-9.87751
▁가입	-9.87773
▁하느라	-9.87778
▁좌절감	-9.87924
▁많다고	-9.87932
▁밤	-9.88086
▁바라는	-9.88172
▁회복	-9.88222
▁공부하고	-9.88413
▁말았어	-9.88518
자마	-9.88554
▁억울한	-9.8883
▁되겠어	-9.88832
▁걱정이네	-9.88959
▁만나지	-9.89157
▁얻어	-9.89164
▁무시하고	-9.8921
▁통화	-9.89232
셨어	-9.89256
▁일해서	-9.89344
▁직장이	-9.89392
▁사회	-9.89412
▁갖	-9.89452
▁돌봐야	-9.89531
▁팀장님이	-9.89531
▁신체장애	-9.89698
▁잘해서	-9.89735
▁헤어지자고	-9.89775
버려서	-9.8981
이었는데	-9.90033
▁생기면	-9.9005
▁했나	-9.90058
▁아이들과	-9.90075
▁믿지	-9.90178
▁있다면	-9.90213
▁애인이	-9.90264
▁손에	-9.90304
▁좋다는	-9.90359
▁기분전환	-9.90378
▁노인정에	-9.90428
▁잔	-9.90537
▁간호	-9.90555
▁놀	-9.90676
▁함	-9.90707
▁따뜻	-9.90708
▁달라서	-9.90717
▁한숨	-9.9072
▁충격적이야	-9.90761
▁가져	-9.90773
▁없거든	-9.90806
▁손녀	-9.90975
▁집중하기	-9.91104
▁요양원에	-9.912
▁마음이야	-9.91245
▁벌어서	-9.9129
▁곳을	-9.91401
▁미안해서	-9.91528
▁난다	-9.91565
▁찾는	-9.91767
▁나름대로	-9.91783
▁말아	-9.91791
라면	-9.91807
▁적성에	-9.9184
▁구해야겠어	-9.91936
이건	-9.91938
녕	-9.9205
▁내일부터	-9.92237
▁그리	-9.92328
하도록	-9.92345
▁선	-9.92363
▁보이는	-9.92422
▁동호회	-9.92534
▁잃	-9.9254
▁쓸모	-9.92626
▁이것	-9.92799
▁해봐야지	-9.92824
▁오십	-9.92873
원하던	-9.92932
▁아프지	-9.93069
▁비참해	-9.93085
려서	-9.93141
▁잘못이야	-9.93157
▁아프다고	-9.93233
▁생활에	-9.9332
▁새엄마	-9.93504
▁듣기	-9.93657
▁뭐든	-9.93683
▁끝나고	-9.93726
▁들어가는	-9.9381
▁저렇게	-9.93844
▁온종일	-9.93848
▁유학	-9.93864
▁티	-9.93895
▁해줘	-9.93937
▁백	-9.93981
▁끝까지	-9.94022
▁작년에	-9.94044
▁하다니	-9.94052
▁생기	-9.94078
▁느낌	-9.94127
▁가족들이랑	-9.94129
▁말했어	-9.94136
▁낳고	-9.94304
▁사람한테	-9.9432
▁신경이	-9.94337
▁결혼해서	-9.94411
▁있	-9.94415
▁떨어진	-9.94454
▁데리	-9.94484
하니	-9.94509
▁회의감	-9.94522
준	-9.94666
▁시작	-9.94676
▁봤	-9.9468
▁항암치료	-9.94892
▁약간	-9.9497
▁이걸	-9.95045
▁미래에	-9.95136
▁신청	-9.95192
▁폐	-9.95212
▁귀	-9.95364
▁먹여	-9.95478
됐어	-9.95507
▁후로	-9.95547
했는지	-9.95605
▁인간관계	-9.95635
▁병간호	-9.9567
▁근무	-9.95865
▁유산	-9.95893
▁철저	-9.95984
▁실망	-9.95987
▁미안하네	-9.96013
▁쉬운	-9.96037
둔	-9.96052
▁또래	-9.96056
▁돈만	-9.96058
▁몰랐는데	-9.96061
▁갔더니	-9.96157
▁일했는데	-9.96234
▁무	-9.96271
▁자료	-9.9634
▁사귀는	-9.96343
▁다니기	-9.96372
▁마치	-9.96419
▁부	-9.96452
▁간다고	-9.96471
▁만들	-9.96496
▁세워	-9.96583
▁떨어지는	-9.96655
▁어려움이	-9.96657
▁일인데	-9.96693
▁드리고	-9.96711
▁알면	-9.96732
▁해주는	-9.96732
▁들면	-9.96946
▁조만간	-9.9707
▁월세	-9.9707
▁급여	-9.97073
▁생기는	-9.97155
▁어려움	-9.9718
커	-9.97201
▁계약	-9.97208
▁말이지	-9.9721
▁꿈이	-9.97212
▁선생님에게	-9.97244
▁모아서	-9.97302
▁동창	-9.97302
▁다쳐서	-9.97372
▁키우	-9.97386
▁맞춰	-9.97473
▁진지	-9.97542
▁그러고	-9.97557
▁인정	-9.97588
▁길이	-9.97648
▁한심하게	-9.97716
▁키	-9.97764
까봐	-9.97784
▁예쁜	-9.97804
▁저번	-9.97825
▁되겠지	-9.97896
▁하거든	-9.97946
▁했는지	-9.98045
▁했었는데	-9.9806
▁책임감	-9.98073
▁늦은	-9.98169
▁성적표	-9.98192
주셔서	-9.98214
▁생겼는데	-9.98219
▁개인	-9.98285
▁할아버지	-9.98296
▁남들보다	-9.98353
▁먹어야겠어	-9.9846
▁다음부터	-9.98532
▁아프면	-9.98574
버린	-9.98638
▁버리고	-9.98668
▁잡아	-9.98688
▁굳	-9.98765
▁부장님이	-9.98831
▁부끄러웠	-9.99131
▁나지	-9.99169
▁못했는데	-9.99205
▁살면서	-9.99273
▁맡은	-9.9928
▁이것저것	-9.9928
▁여전	-9.99281
▁외로운	-9.99283
▁무엇보다	-9.99298
▁거래	-9.99312
▁시선이	-9.99343
▁바라	-9.99369
▁만났는데	-9.99384
▁떠나고	-9.99399
▁두렵고	-9.99454
▁부하	-9.99517
▁악의적	-9.99538
▁대화로	-9.99583
▁남자친구에게	-9.99586
▁가난해서	-9.9961
▁듣는	-9.99692
▁괴롭	-9.99841
▁모여	-9.99845
▁준비하는	-9.99851
▁끼	-9.99869
길래	-9.99893
▁아빠에게	-9.9993
▁의심	-10.0001
▁따	-10.0017
▁살다	-10.0029
▁축하	-10.0029
▁달리	-10.003
슬	-10.003
▁적어서	-10.0031
▁몹	-10.004
▁모르겠지만	-10.0043
했었는데	-10.0044
▁쓸쓸해	-10.0047
▁때문이야	-10.0047
▁신이	-10.0051
▁환자	-10.0054
▁가져야겠어	-10.0056
▁해야겠지	-10.0059
볼까	-10.0064
▁찾아보고	-10.0068
▁들어온	-10.0068
▁복지	-10.0073
▁해결해	-10.0074
▁사람인	-10.0074
▁가난	-10.008
▁조절	-10.0085
▁기쁘	-10.0116
▁이럴까	-10.0119
▁확인	-10.012
▁깊	-10.0124
▁노인들	-10.0131
▁했으면	-10.0134
▁느껴져서	-10.0136
▁살아야지	-10.0138
▁먹어야	-10.015
▁못했던	-10.0153
▁좋네	-10.0167
▁주려고	-10.0178
▁심해지	-10.0185
▁되나	-10.0186
▁아이에게	-10.0201
뿐이야	-10.0201
▁생각해보니	-10.0202
▁느끼	-10.021
▁누워	-10.0223
▁암이	-10.0224
▁진행	-10.0224
▁직업이	-10.023
▁이름	-10.0234
▁고생만	-10.0242
본	-10.0251
▁주말	-10.0251
▁방에	-10.0258
▁떠난	-10.0274
▁소통	-10.0275
▁못할까	-10.0286
▁자식에게	-10.0291
▁재미있	-10.0294
▁한심하고	-10.0294
▁팀장님	-10.0296
▁일한	-10.0299
▁사회생활	-10.0302
▁아니니까	-10.0305
▁보고서	-10.0311
▁듣	-10.0311
▁행동이	-10.0311
▁생각하는데	-10.0317
울	-10.0322
▁지원해	-10.033
꺼야	-10.0331
▁해보는	-10.0332
▁실천	-10.0338
▁한대	-10.035
▁공부는	-10.0357
▁무기력해	-10.0365
▁전까지	-10.0383
▁차근차근	-10.0385
▁기쁜	-10.0385
▁치매에	-10.0389
▁금연	-10.0398
▁대화할	-10.0415
▁육십	-10.0422
▁말지	-10.0426
▁부동산	-10.0428
▁있더라고	-10.0429
▁아껴	-10.0432
▁혼	-10.0441
▁의욕	-10.0447
▁다가오	-10.0451
▁지내던	-10.0452
▁얻	-10.0454
▁살면	-10.0458
▁말했는데	-10.0459
▁찾	-10.0479
▁폐암	-10.0485
▁해달라고	-10.0485
▁손주들	-10.0491
▁받기	-10.0492
▁심장	-10.0494
▁최종	-10.0502
▁심지어	-10.0503
▁종종	-10.0503
▁확신	-10.0503
▁부쩍	-10.0503
▁있긴	-10.0507
▁딸한테	-10.0517
▁바빠	-10.0524
▁있네	-10.0525
▁되게	-10.0529
▁같으니	-10.0537
▁만에	-10.0542
주고	-10.0547
▁여	-10.0548
▁대비	-10.0559
▁시험이	-10.0573
▁살았	-10.0574
▁변화	-10.058
▁자책하	-10.0585
▁차분	-10.0594
▁과거	-10.0604
▁우연	-10.0623
▁어떨까	-10.0624
▁남들이	-10.0627
▁불안해서	-10.0628
▁없대	-10.0628
▁번씩	-10.0633
▁여자친구에게	-10.0644
▁양심	-10.0647
아	-10.0657
▁경력	-10.0671
▁올라서	-10.0672
▁느긋하	-10.0681
▁들은	-10.0683
▁아빠와	-10.0685
▁잊고	-10.0688
▁일상생활	-10.0702
▁친해지	-10.0713
▁죄송하다	-10.073
▁역할	-10.074
▁지경이야	-10.0745
▁후회되네	-10.0745
▁날짜	-10.0747
▁헤어졌어	-10.0748
▁자녀들에게	-10.0748
▁만성	-10.0752
▁신뢰	-10.0759
▁남자친구한테	-10.0759
▁일하다	-10.076
▁싸우게	-10.0763
▁식으로	-10.077
▁평가	-10.0771
▁퇴근하고	-10.0776
▁꼴	-10.0782
▁생각했던	-10.0788
▁완치	-10.0791
▁배려	-10.0793
▁생각한	-10.0799
▁사회에서	-10.0801
▁질투나	-10.0804
▁시도	-10.0805
▁마비	-10.0811
▁비용	-10.0814
▁낮은	-10.0819
▁나가지	-10.0823
▁따돌리	-10.0828
▁잘못이	-10.0851
▁진솔	-10.0864
▁나빠져	-10.0867
▁많았는데	-10.0872
아야겠어	-10.0873
▁피	-10.0873
▁의견이	-10.0874
▁앞날	-10.0875
▁취업할	-10.0877
▁진학	-10.088
▁여자친구랑	-10.0887
▁성적으로	-10.0889
▁정신질환	-10.0892
▁혼자인	-10.0893
▁사이에	-10.0899
▁그럴까	-10.0899
▁갈등이	-10.0905
▁거로	-10.0913
▁뻔	-10.0918
▁비관적이	-10.0922
▁오고	-10.0934
▁키우고	-10.0944
▁높아	-10.0958
▁죽	-10.0959
▁도와줘	-10.096
봤자	-10.0961
▁다이어트	-10.0965
▁중학교	-10.0969
주	-10.0973
▁풀고	-10.0985
▁나니까	-10.0988
▁마비된	-10.099
▁없는지	-10.0995
▁괜찮다고	-10.0999
▁지켜	-10.1005
▁관절염	-10.1009
▁그랬는데	-10.1014
▁하루에	-10.1018
▁우	-10.102
▁실적	-10.102
▁물어보는	-10.1036
▁싶을	-10.1038
▁모임에서	-10.1038
▁친구였는데	-10.104
▁죽은	-10.1048
▁늙은	-10.1051
더라도	-10.1075
▁딱	-10.1081
▁맞고	-10.1081
▁달래	-10.1081
▁나가기	-10.1096
▁매사	-10.1096
더	-10.1099
▁넣어	-10.11
▁단	-10.1104
하다가	-10.1106
▁외로움	-10.1107
▁자녀들이	-10.1108
▁기뻤	-10.1111
▁아이디어	-10.1113
▁나누고	-10.1113
▁떨려	-10.1113
▁어깨	-10.1113
▁한심한	-10.1113
▁증오스러워	-10.1113
▁따돌려	-10.1113
▁먹으러	-10.1114
▁푹	-10.1115
▁그러니	-10.1116
▁경기	-10.1119
▁않으니까	-10.1119
▁한참	-10.1121
▁안심이	-10.1121
▁환멸이	-10.1123
▁요구	-10.1128
▁이혼하자고	-10.1131
▁감기	-10.1134
▁알았	-10.1135
▁되기	-10.1135
▁이거	-10.1136
▁외모	-10.1139
▁고생하는	-10.114
▁시작해야겠어	-10.1142
▁큰일	-10.1154
▁끊고	-10.1157
▁불만이	-10.1159
▁기간	-10.116
▁걸로	-10.1163
▁구하기	-10.117
▁나누어	-10.1176
▁맞아서	-10.1182
▁끝내	-10.1182
▁정년퇴직	-10.1185
▁전학을	-10.1191
▁혼나	-10.1196
▁못하니까	-10.1198
▁서글퍼	-10.1198
▁답	-10.1205
▁좋았을	-10.1205
▁해주지	-10.1205
▁가질	-10.1208
▁하소연	-10.1213
▁부담스러워	-10.1223
▁잊	-10.1235
▁소용이	-10.124
▁망쳤	-10.1241
▁말다툼	-10.1244
▁선생님한테	-10.1248
▁후회되고	-10.1253
▁막막하고	-10.1254
▁내년에	-10.1261
▁사랑한다고	-10.1267
▁대기업에	-10.127
▁유지하	-10.1274
▁낮아서	-10.1279
아서	-10.128
▁주셨어	-10.1281
▁술만	-10.1283
▁대화해	-10.1285
▁이혼하	-10.1286
▁재혼	-10.1289
▁깨	-10.1295
▁개월	-10.1296
▁좋다	-10.1301
▁싸운	-10.1323
▁노인정에서	-10.1332
▁선생님께서	-10.1336
▁의지하	-10.1339
▁준비해	-10.1339
▁사장이	-10.1364
▁마스크	-10.1368
▁분노	-10.1368
▁없잖아	-10.137
▁있대	-10.1375
▁된다는	-10.1379
▁어쩌겠어	-10.138
▁말씀드릴	-10.1385
▁했고	-10.141
▁아끼	-10.1411
▁물	-10.1418
되면	-10.1443
실	-10.1446
▁들으면	-10.1458
▁팀원들	-10.1467
▁돌보	-10.147
▁일하기	-10.1476
▁안좋아	-10.1485
▁살아가는	-10.1488
하지만	-10.1496
컷	-10.1497
▁즐거운	-10.1497
▁속마음	-10.1498
▁휴식	-10.1498
▁대놓고	-10.1499
▁탈모	-10.1499
▁죽으면	-10.1503
▁축구	-10.1504
▁어렵네	-10.1505
▁고독하	-10.1517
▁게임만	-10.1523
▁생기지	-10.1535
보니	-10.1536
▁있기	-10.1547
▁얼굴이	-10.1549
▁인간	-10.1556
▁섭섭해	-10.1562
▁사람들이랑	-10.1568
▁시절	-10.1568
▁이혼한	-10.1571
▁아들이랑	-10.1572
▁최	-10.1575
▁때만	-10.1579
▁고민돼	-10.158
▁아니라서	-10.1584
▁상황	-10.1586
▁둔	-10.1598
▁감	-10.1601
▁예상	-10.1622
▁책임져야	-10.1624
▁해볼	-10.1626
▁해결할	-10.1627
▁챙겨주	-10.1628
▁지겨워	-10.1629
▁태어난	-10.1629
▁공황장애	-10.1629
▁억지로	-10.163
▁하나둘	-10.1632
▁아프니까	-10.1636
▁불안	-10.1639
▁동료들과	-10.164
▁바	-10.1644
▁아니었는데	-10.1646
▁필요한데	-10.1647
▁사장님이	-10.165
해달라고	-10.1658
▁생각하니까	-10.1659
▁돌보는	-10.168
▁않는데	-10.1682
▁들어가서	-10.1686
▁하잖아	-10.1693
▁학대	-10.1694
▁거라는	-10.17
▁비밀	-10.1704
▁증거	-10.1713
해보고	-10.1728
▁얘기하는	-10.1732
▁성적에	-10.1741
▁잘난	-10.1742
▁늙어	-10.1747
▁부모님한테	-10.1759
▁쉴	-10.1759
▁반찬	-10.1764
▁팀장님께	-10.1765
▁채용	-10.1767
▁불안하네	-10.1767
▁시작했는데	-10.1771
▁자세히	-10.1775
▁적게	-10.1784
▁딸이랑	-10.1819
▁갔	-10.182
▁운전	-10.1827
▁재수	-10.1835
▁거면	-10.184
▁어렵다	-10.1847
▁자존심	-10.1852
▁뒤에	-10.1862
▁없겠지	-10.1867
▁받으면서	-10.1874
▁쉬	-10.1878
▁어째	-10.1884
렸어	-10.1884
▁배우자	-10.1894
▁않기	-10.1897
▁그랬을까	-10.1899
▁명예퇴직	-10.19
▁참여	-10.1905
▁급하게	-10.1906
▁없어져	-10.191
▁차려	-10.1931
▁하더니	-10.1933
▁벗어나고	-10.1935
▁먹기	-10.1935
▁벌이	-10.1957
▁반성하	-10.1963
▁벗	-10.1963
▁잡고	-10.1967
▁잘하지	-10.197
▁돌아오	-10.1971
▁힘들어하는	-10.1975
▁전문가	-10.1983
▁좋	-10.1983
▁놀라	-10.1984
▁올려	-10.1984
▁잃고	-10.199
▁하라는	-10.199
▁들어가	-10.1993
▁방에서	-10.1996
▁소중한	-10.201
▁있었을	-10.2014
▁죽어	-10.2033
▁겪고	-10.2034
▁담임	-10.2035
▁재활	-10.2035
▁무엇인지	-10.2036
▁지금보다	-10.2038
▁꽃	-10.2038
▁좋았는데	-10.204
▁걱정되네	-10.2042
▁싶다는	-10.2044
▁위	-10.2047
▁괴롭혔	-10.2047
▁먹었는데	-10.2048
▁알리	-10.2065
▁돌보지	-10.2066
▁기다리는	-10.2067
▁든	-10.2082
▁친구들하고	-10.2085
▁먹는데	-10.2092
▁미루	-10.2093
▁반에	-10.21
▁인정하	-10.2103
▁좋아지고	-10.2106
칠	-10.2109
▁하늘	-10.2116
▁치료에	-10.2122
▁돌려	-10.2124
▁치고	-10.2124
▁먹으니	-10.2133
▁나까지	-10.214
▁사수	-10.2141
▁키울	-10.2144
▁정해	-10.2148
▁꾸준	-10.2152
▁위로해	-10.2153
▁자세	-10.2153
▁도와	-10.216
▁스터디	-10.2162
▁인	-10.2165
▁준비할	-10.2168
▁디스크	-10.2174
▁학대받는	-10.2179
▁합격했어	-10.2195
▁찾아봐야지	-10.2195
▁전학	-10.2198
▁증상이	-10.2202
▁집중할	-10.2203
▁싫어해	-10.2208
▁다녀야겠어	-10.2211
▁상사와	-10.2211
▁글	-10.2214
차	-10.2215
▁도와주고	-10.2219
▁여유롭	-10.222
▁취미생활	-10.2227
▁모자라	-10.223
▁장	-10.2239
하거든	-10.2241
▁자리에서	-10.2244
▁괜찮아	-10.2246
▁말한	-10.225
▁찍	-10.2256
▁혼날	-10.226
▁책임지	-10.2267
▁거동	-10.2271
▁못하면	-10.2294
▁좋아해서	-10.2315
▁그랬는지	-10.2316
▁간단한	-10.2317
▁해결책	-10.2318
▁한편으로	-10.2323
▁실망이야	-10.2325
▁살아왔는데	-10.2327
던데	-10.2329
▁명절에	-10.2347
▁치	-10.2348
▁체력	-10.2358
▁편이야	-10.2359
▁마을	-10.2363
▁수입	-10.2372
▁듯	-10.2375
▁키운	-10.2408
기에	-10.2413
▁취업하기	-10.2417
▁제안	-10.2418
▁나한테는	-10.2419
▁걱정은	-10.2421
▁풀릴	-10.2424
▁정도는	-10.2426
▁좋겠지	-10.2431
▁끝이	-10.2452
▁밖으로	-10.2457
▁입장	-10.2458
▁자전거	-10.2458
▁금일	-10.2459
▁적당히	-10.246
줬어	-10.2461
▁미칠	-10.2462
▁유일	-10.2462
▁지키지	-10.2465
▁해줘야겠어	-10.2477
▁해낼	-10.2478
▁본인이	-10.248
▁나오면	-10.2482
▁남겨	-10.2489
▁사장님	-10.2501
▁사람인데	-10.2507
하다	-10.2517
▁다친	-10.252
▁우울증에	-10.252
▁자기들	-10.2524
▁친척들	-10.2524
▁초기	-10.2529
▁나오고	-10.2529
▁괴롭힌	-10.2532
▁한동안	-10.2535
▁프로그램	-10.2542
▁구해봐야겠	-10.2546
▁동아리	-10.2547
▁만들고	-10.2551
▁부모님이랑	-10.2553
▁하긴	-10.2558
▁알려	-10.2565
▁가벼	-10.2569
▁되는지	-10.2579
▁된다	-10.2582
▁지시	-10.2588
▁상해	-10.2591
가봐야겠어	-10.2591
▁좋겠다고	-10.2593
▁지금처럼	-10.2597
▁가볍	-10.2602
▁보통	-10.2605
▁같았어	-10.2611
▁동료들에게	-10.2612
▁사람이라	-10.2623
▁상사한테	-10.2625
▁어려운데	-10.2627
▁안부	-10.2635
▁아냐	-10.2636
▁기다리고	-10.2637
▁도와주는	-10.2642
▁싸움	-10.2645
▁가정에	-10.2646
▁건강해	-10.2649
▁만났	-10.2661
▁혼란스럽	-10.2668
▁가방	-10.2685
▁기쁘고	-10.2694
▁좋아진	-10.2699
▁희생	-10.2701
▁아는데	-10.2713
봐야지	-10.2723
하셨어	-10.2726
▁어떡해	-10.2731
▁피부	-10.2733
▁쓴	-10.2736
▁여기서	-10.2741
▁고마움	-10.2749
▁만약	-10.2749
▁비관적인	-10.275
▁업무량	-10.275
▁외롭다	-10.2755
▁뿌듯해	-10.2755
▁크	-10.2761
▁요청해야겠어	-10.2762
▁중독	-10.2764
▁그거	-10.2769
▁낳아	-10.2771
▁편안하게	-10.2772
▁잘해주지	-10.2775
▁때려	-10.2783
▁입사한	-10.2789
▁성실	-10.2789
▁노력했는데	-10.279
▁부장님	-10.28
▁괜찮을	-10.2803
▁지나치	-10.281
▁노후자금	-10.2818
하긴	-10.2821
▁노력하는	-10.2831
▁바쁜	-10.284
▁직무	-10.284
▁도박	-10.284
▁진료	-10.2842
▁어디에	-10.2846
▁권유	-10.2846
▁결혼식에	-10.2851
▁당할	-10.2852
▁않았	-10.2853
▁생기고	-10.2855
▁장학금	-10.2857
▁번이	-10.2867
▁세상에서	-10.2876
▁고기	-10.2895
▁재테크	-10.2898
▁낫겠어	-10.2899
▁망했어	-10.2903
▁불편하	-10.2903
되고	-10.2908
▁있냐고	-10.2917
▁만드는	-10.2919
▁지출	-10.2922
▁노는	-10.2924
▁만났어	-10.2924
▁받아주	-10.2927
▁땅	-10.2927
▁귀찮고	-10.2929
▁거울	-10.2932
▁먹었어	-10.2937
▁나아지지	-10.2938
▁그림	-10.2939
▁쉬면	-10.294
▁목소리	-10.2942
▁화장실	-10.2942
▁거겠지	-10.2952
아온	-10.2956
았으면	-10.2957
▁학업에	-10.2966
▁당할까	-10.2968
▁상태야	-10.2968
▁차리	-10.2972
▁모의고사	-10.2983
▁은행	-10.2988
▁유지	-10.2991
▁쪽	-10.2999
▁이상이	-10.2999
▁하겠다고	-10.301
셔	-10.3011
▁사람으로	-10.3012
놓고	-10.3019
▁친척	-10.3036
▁따끔	-10.304
▁명절	-10.3042
▁단순	-10.3044
▁새아빠	-10.3046
▁허락	-10.3046
▁걷는	-10.3049
▁지각	-10.305
▁않나	-10.305
▁잔뜩	-10.305
▁불만스러워	-10.3051
▁사라졌	-10.3051
▁무서운	-10.3052
▁매출	-10.3052
▁도와달라고	-10.3055
▁같	-10.3059
▁입시	-10.3063
▁바쁘게	-10.3065
▁없어졌어	-10.3066
▁들어주지	-10.3069
▁생	-10.3072
▁심정이	-10.3073
▁기계	-10.3073
▁외톨이	-10.3074
▁다녀왔는데	-10.3075
▁살아가	-10.3075
▁어려워져서	-10.3076
려니	-10.308
▁궁금해	-10.3081
▁요청	-10.3087
▁계셔	-10.3092
▁믿었	-10.3094
▁했다는	-10.3099
▁한다니	-10.3102
▁사용	-10.3107
▁털어놓을	-10.3111
▁어쩌다	-10.3117
▁물어볼	-10.3118
기는	-10.3123
▁말아야	-10.3129
▁위암	-10.3147
▁나더라고	-10.3148
▁사십	-10.3151
▁사랑하지	-10.3153
▁데도	-10.3154
▁줄여	-10.3164
▁성	-10.3174
▁됐	-10.3184
▁허무해	-10.3186
▁분야	-10.3193
▁겸	-10.3194
▁산책이	-10.3194
좋아졌어	-10.3194
▁다닌	-10.3199
▁온몸	-10.3204
▁부럽	-10.3204
▁대충	-10.3205
▁면목	-10.3205
▁이별	-10.3208
▁답답한	-10.3212
▁않았던	-10.3213
▁건강하지	-10.3217
▁남았어	-10.3218
▁간암	-10.3219
▁귀찮게	-10.3221
▁멀어지는	-10.3229
▁보이	-10.3231
▁동기들	-10.3248
▁없더라고	-10.3252
▁간호사	-10.3254
▁대화하는	-10.3255
▁들어보고	-10.3256
▁좌절	-10.3261
▁합격할	-10.3263
무지	-10.3268
▁했을	-10.3268
▁쌓아	-10.3273
▁그랬나	-10.3276
▁담당	-10.3281
▁미안하지	-10.3286
이면	-10.3289
▁경험이	-10.329
▁물어	-10.3293
▁대리	-10.3303
▁허탈하	-10.3308
▁취소	-10.331
▁웃	-10.3318
구	-10.3318
▁상의해	-10.3338
▁지장	-10.3338
▁사귄	-10.334
▁찾기	-10.3345
▁한쪽	-10.335
▁해줘야	-10.3352
▁설득해	-10.3356
▁잘한	-10.3358
▁정신과	-10.3358
▁깜짝	-10.336
▁다양한	-10.336
▁조별	-10.336
▁사회에	-10.3363
▁아까	-10.3366
▁좋으니	-10.3367
▁맞았어	-10.3367
▁믿기지	-10.3369
▁공부만	-10.3373
▁지병	-10.3374
▁동생에게	-10.3381
▁않다고	-10.3397
▁전하고	-10.3398
▁끊어	-10.34
▁그만큼	-10.3425
▁드릴	-10.3434
구먼	-10.3437
▁살림	-10.3442
▁응원	-10.3443
▁부장님께	-10.3448
▁살다가	-10.3455
나봐	-10.3458
▁추천	-10.3465
▁은퇴할	-10.3466
볼래	-10.3469
▁식구들	-10.347
▁푼	-10.3471
▁반응이	-10.3478
▁것들이	-10.3479
때	-10.3485
▁아팠	-10.3488
▁세대	-10.3494
▁남을	-10.3501
▁한결	-10.3506
▁이야기해서	-10.3519
▁반대하셔	-10.3519
▁있잖아	-10.3521
▁가족끼리	-10.3522
▁급한	-10.3527
▁편안한	-10.3527
▁만든	-10.3528
▁아프네	-10.3529
▁발령	-10.353
갔어	-10.3533
▁희생하	-10.3533
▁집사람이	-10.3534
▁챙기지	-10.3541
▁해버렸어	-10.3555
▁마련	-10.3556
▁중간에	-10.3577
▁세월이	-10.3582
▁참을	-10.3588
▁우울하다	-10.3589
▁구해야	-10.3592
▁초라하	-10.3604
▁장난	-10.3618
▁상상	-10.363
▁지적	-10.3632
▁가해자	-10.3633
▁무엇	-10.3636
할지	-10.364
▁고집	-10.3643
▁낳	-10.3644
▁텔레비전	-10.3645
▁공부해야겠어	-10.3647
▁결혼하는	-10.3651
▁기술	-10.3656
▁놀아	-10.3669
▁상실	-10.3681
▁좋지만	-10.3681
먹으면서	-10.3683
▁면담	-10.3683
▁찾아보려고	-10.3689
▁비통해	-10.3691
▁의지할	-10.3693
▁이리	-10.3697
▁어떡하	-10.37
들에게	-10.3707
▁사귀어	-10.3708
▁찾아오지	-10.3709
▁되더라고	-10.3721
▁포기	-10.373
▁손이	-10.373
▁된다면	-10.3741
▁알아보	-10.3745
▁놀려	-10.3745
▁사귀고	-10.3745
▁친절하	-10.3748
▁프러포즈	-10.3749
▁관계에	-10.3758
▁취업해서	-10.3758
▁듯이	-10.3771
▁진급	-10.3774
▁관해	-10.3775
▁받아들이	-10.378
▁좋아지	-10.3786
▁이후	-10.3786
▁보태	-10.3791
받았어	-10.3797
▁보험금	-10.3802
▁좋아하는데	-10.3805
▁보는데	-10.3809
▁등록금	-10.3816
▁잘못인	-10.3823
▁지갑	-10.3824
▁오늘부터	-10.3828
▁시도해	-10.3841
▁다퉜어	-10.3844
▁외에	-10.3844
▁정확히	-10.3844
▁절망스러워	-10.3844
▁출장	-10.3845
▁배울	-10.3846
▁숨기	-10.3847
▁불	-10.3847
▁막막하네	-10.3848
▁겁나	-10.3849
▁서운한	-10.385
▁다해	-10.3853
▁느꼈어	-10.3854
▁고맙	-10.3856
▁갈까	-10.3856
▁빌려달라고	-10.3857
▁언니한테	-10.3861
▁맞나	-10.3861
▁동료에게	-10.3867
▁통장	-10.3874
▁노력해봐야겠어	-10.3874
▁아니었어	-10.3881
▁휠체어	-10.3882
▁얘기하면	-10.3884
▁어찌해야	-10.3894
▁그만뒀	-10.39
▁이전에	-10.3904
▁실력	-10.3904
▁해야겠다	-10.3914
▁내일이	-10.3933
▁요즈음	-10.3934
▁주의	-10.3935
발	-10.3937
하다고	-10.3939
▁올리	-10.394
▁팀원	-10.3946
▁상대방	-10.3955
▁별거	-10.3955
▁큰돈	-10.3958
▁계획이	-10.3963
▁의식하	-10.3964
▁사별	-10.3975
▁운동이	-10.3983
▁일해	-10.3987
▁번에	-10.3988
비	-10.3993
중에	-10.4001
▁여태	-10.4002
▁났	-10.4003
▁영상	-10.4004
▁빠르	-10.4005
▁소개	-10.4006
▁벗어날	-10.4011
▁뜻대로	-10.4013
▁헤어진	-10.4013
▁나눌	-10.4014
▁대출금	-10.4018
▁착한	-10.402
▁오르지	-10.4021
▁손주들이	-10.4024
▁듯해	-10.4024
▁걸렸는데	-10.4025
▁충격받았	-10.403
▁불만이야	-10.4031
▁모르겠다	-10.4033
▁연봉이	-10.4035
▁상황이라	-10.4037
▁지치고	-10.4039
▁바뀌	-10.4051
▁손자들	-10.4056
이란	-10.4058
다네	-10.4073
▁해결해야	-10.4074
▁성공할	-10.4079
▁혈압	-10.4079
▁동	-10.4088
▁찾지	-10.4092
봤는데	-10.4094
▁부끄럽	-10.4098
▁쓰게	-10.4099
▁작성	-10.4108
▁다녔	-10.411
▁살았어	-10.411
▁실적이	-10.4113
▁줄이야	-10.4115
하겠다고	-10.4123
▁심부름	-10.4125
▁경쟁	-10.4133
▁준비했는데	-10.4138
▁그러	-10.4138
▁찾아야	-10.4141
▁일인	-10.4141
▁걸리	-10.4141
▁있다가	-10.4142
▁예약	-10.4145
▁학과	-10.4146
▁중요하	-10.416
겠지만	-10.4162
▁집사람	-10.4164
▁넘어가	-10.4165
▁괜찮아질	-10.4171
▁아닐	-10.4177
▁갑작스럽	-10.418
▁견딜	-10.418
▁낫지	-10.418
▁샀는데	-10.418
▁멋진	-10.418
▁방금	-10.4181
▁알바	-10.4182
야겠다	-10.4191
▁가도	-10.4196
▁하나씩	-10.42
▁당연하지	-10.4201
▁받았	-10.4203
▁알아봐야	-10.4207
해줘야겠어	-10.4213
▁공부해	-10.4217
▁마시	-10.4219
▁살아왔	-10.423
▁애들도	-10.4231
▁만들어야겠어	-10.4235
▁싶었어	-10.4248
드시	-10.4249
▁모습에	-10.4258
▁공부했는데	-10.426
▁일인지	-10.4262
▁멀어지	-10.4262
▁단체	-10.4271
▁짜	-10.4277
▁시작한	-10.4278
▁소	-10.4279
▁아프다	-10.4294
▁전달	-10.4296
▁간섭이	-10.4298
▁화장실에	-10.4304
▁모르니	-10.4305
▁아기가	-10.431
▁뉴스	-10.4319
▁얘기만	-10.4324
▁탓이지	-10.4325
▁보내는	-10.433
▁내야	-10.4341
▁말해주	-10.4343
▁번째	-10.4347
▁아쉬워	-10.4352
▁재정적으로	-10.4358
▁먹자고	-10.4363
▁좋아지는	-10.4365
▁마감	-10.4367
▁떠나서	-10.4371
▁성인이	-10.4375
▁예정이	-10.438
▁숨이	-10.438
▁데다	-10.4382
▁입학	-10.4385
▁없어지고	-10.4385
▁거니까	-10.4387
▁승진이	-10.439
▁일해야	-10.4394
▁기억력	-10.4406
갈	-10.4409
▁그만둬야	-10.4418
▁해외여행	-10.4419
다니까	-10.4419
▁부끄럽고	-10.4427
▁부양	-10.4434
▁편한	-10.4441
▁마음만	-10.4445
▁귀가	-10.4447
▁맞는지	-10.445
만한	-10.4452
▁자리에	-10.4452
▁담	-10.4464
▁있었지	-10.4466
▁밀려	-10.447
▁별로야	-10.447
▁규칙적	-10.4475
▁쇼핑	-10.4478
▁사춘기	-10.4486
▁공부하기	-10.449
이었어	-10.4494
▁주사	-10.4495
▁심해졌	-10.451
▁결혼하면	-10.4516
▁버린	-10.4518
▁대접	-10.4519
▁줘야	-10.4523
▁결혼이	-10.4527
▁두려움	-10.4528
▁썼어	-10.4528
▁자괴감	-10.4528
▁집주인	-10.4528
▁쓰러져	-10.4529
▁볼래	-10.453
▁군데	-10.4531
▁비관적으로	-10.4531
▁날씨	-10.4531
▁지쳤어	-10.4534
심	-10.4534
▁좋아하지	-10.4535
▁일들이	-10.4547
▁년간	-10.455
▁요즘에	-10.4555
▁받으려고	-10.4556
▁입원해	-10.4566
▁찾아봐야	-10.4567
▁이러지	-10.4567
▁냈	-10.4572
▁들어간	-10.4573
▁맡기	-10.4579
▁어쩌나	-10.4581
▁미안하기	-10.4586
라니	-10.4589
▁모시	-10.4591
▁들어와서	-10.4593
▁취직이	-10.4597
▁한다는데	-10.4598
▁주식이	-10.4602
▁이래	-10.4614
관리를	-10.4626
▁앞이	-10.4627
▁부인	-10.4628
▁꿈에	-10.4631
▁도전	-10.4634
▁아직까지	-10.4639
▁강의	-10.4641
▁고통	-10.4644
▁되서	-10.4652
▁영감	-10.4654
더라면	-10.4655
▁느껴지	-10.4658
▁내지	-10.466
▁의문이	-10.4664
▁이렇게까지	-10.4665
▁최고	-10.4668
▁게임에	-10.4674
▁요즘에는	-10.4675
▁않겠지	-10.4676
▁하나하나	-10.4678
▁다니지	-10.468
▁보내야	-10.469
▁그만둘	-10.4704
▁워낙	-10.4706
▁진실	-10.4707
▁뼈	-10.4707
▁센터에	-10.4708
▁사장님께	-10.4708
▁쭉	-10.4711
▁부끄러워서	-10.4712
▁늦어	-10.4717
▁시험공부	-10.4718
▁뒤처지는	-10.4718
▁나오	-10.4719
▁있었거든	-10.4722
▁슬프기	-10.4733
▁구하는	-10.4735
▁어울리지	-10.4736
▁챙겨줘	-10.4739
▁언니에게	-10.4743
▁보람	-10.4744
▁지냈	-10.4745
▁복잡해	-10.4748
▁중이라	-10.4751
▁반응	-10.4755
▁준다고	-10.4758
▁무기력해져	-10.4759
▁들려	-10.4782
▁예뻐	-10.4786
▁즐거워	-10.4787
▁지인이	-10.4787
▁하려니	-10.4789
▁맞벌이	-10.4791
▁해본	-10.4796
줬는데	-10.4801
▁노년이	-10.4806
▁줬는데	-10.4808
▁거냐고	-10.481
▁떨어지	-10.4811
▁중간고사	-10.4812
▁세월	-10.4818
▁근처	-10.4822
릴	-10.4823
▁재밌	-10.4841
▁챙겨야	-10.4844
▁팀장	-10.4853
▁친구들보다	-10.4854
▁노력한	-10.4854
▁안하고	-10.4858
냥	-10.4864
▁약이	-10.4867
▁녀석이	-10.4869
▁보았	-10.4872
▁가수	-10.4874
▁있다니	-10.4879
왔어	-10.4887
▁아무렇지	-10.4888
▁죄송스러워	-10.4889
▁자기들끼리	-10.4891
▁부정적으로	-10.4891
▁우울하네	-10.4891
▁올랐어	-10.4893
▁올라	-10.4897
▁노트	-10.4898
보려고	-10.4899
▁고민해	-10.4901
▁소외	-10.4906
▁노인네	-10.4907
▁지낸	-10.491
▁때렸어	-10.4917
▁팀장이	-10.4921
하시는	-10.4935
▁속에서	-10.4938
▁많아져서	-10.4944
▁하시는데	-10.4944
▁걱정하는	-10.4949
▁것이라고	-10.495
▁안되는	-10.4964
▁길에	-10.4965
▁느껴지고	-10.4965
▁답이	-10.497
▁살았나	-10.4975
▁건강하다	-10.4979
▁사귈	-10.498
▁스트레스받	-10.4982
▁인기	-10.4987
▁쳐다보는	-10.4994
▁정성	-10.4995
여	-10.5006
▁내려가	-10.5007
▁이러는	-10.5007
▁정이	-10.5017
▁덕	-10.5018
▁되지만	-10.5018
▁만나게	-10.502
▁미술	-10.5022
▁것들	-10.5023
▁보너스	-10.503
▁처음이라	-10.5031
▁카페	-10.5032
▁떨어질	-10.5039
▁초등학교	-10.5042
▁사귀	-10.5042
▁생각하면서	-10.5046
이라니	-10.5047
▁주위에서	-10.505
▁어울리	-10.5053
▁설	-10.5061
▁낙담	-10.5063
▁부끄러운	-10.5067
▁갚을	-10.507
▁사회적	-10.5072
▁취업하고	-10.5073
▁무사	-10.5074
▁기대돼	-10.5074
▁않겠어	-10.5075
▁새롭	-10.5075
▁요양원	-10.5076
▁식당	-10.5076
▁돌아가신	-10.5076
▁조심	-10.5076
▁모를	-10.5076
▁걱정하지	-10.5078
▁부서에	-10.5078
▁키웠는데	-10.508
▁쓰면	-10.508
▁여태까지	-10.5082
보는	-10.5084
▁만성질환이	-10.5088
▁휴대폰	-10.5091
▁자연스럽	-10.5095
▁하시는	-10.5095
▁예의	-10.5097
▁생각했어	-10.5105
▁말아야지	-10.5109
▁식구	-10.5111
▁없던	-10.5128
▁차별	-10.5137
▁줄어	-10.5139
▁아이와	-10.5139
▁신뢰가	-10.5141
▁자연	-10.5147
▁싸울	-10.5156
▁갈등	-10.5158
▁살게	-10.5161
▁잃어버렸	-10.5161
▁못하는데	-10.5165
▁나갔어	-10.5172
▁학교생활	-10.5173
자니	-10.5178
▁욕심	-10.5187
▁친구라고	-10.519
▁한심하다	-10.5194
▁전문	-10.5198
께	-10.5199
▁급	-10.5203
▁연	-10.5208
▁지병이	-10.521
▁속상해서	-10.5214
▁대학원	-10.5217
▁구해	-10.5219
▁의지가	-10.522
▁초조하	-10.5229
▁재	-10.5236
▁당	-10.5239
▁혈압이	-10.5244
▁물어봐야	-10.5255
▁부탁해	-10.5256
▁밤새	-10.5257
▁사람이랑	-10.5257
▁찾아오는	-10.5261
▁걷지	-10.5262
부턴	-10.5262
▁무료	-10.5262
▁학비	-10.5262
▁말실수	-10.5262
▁몸으로	-10.5265
▁모르겠는데	-10.5267
▁변호사	-10.5267
▁꼼꼼	-10.5268
▁지내야	-10.5269
▁부장	-10.5269
▁아우	-10.5276
▁대부분	-10.5278
▁가보	-10.5278
▁놀기만	-10.528
▁설득	-10.5283
할래	-10.5283
▁우리가	-10.5284
▁앉아	-10.5285
▁괴롭네	-10.5286
해봐야지	-10.5286
▁알려주	-10.5287
▁풀려	-10.5299
▁대화하고	-10.53
▁별것	-10.5301
▁몰랐	-10.5306
▁친구보다	-10.5311
▁백수	-10.5312
▁카페에	-10.5312
▁의사에게	-10.5314
▁이전	-10.5314
▁이러고	-10.5325
▁피하고	-10.5327
▁가까이	-10.5337
▁판단	-10.5343
▁테스트	-10.5345
▁속상	-10.5349
▁건강할	-10.535
끼리	-10.5357
▁남는	-10.5358
셨는데	-10.5361
▁아프기	-10.5362
▁장점	-10.5364
▁형편	-10.5366
▁부자	-10.5376
▁받으니	-10.5385
▁고생한	-10.539
▁가져가	-10.539
▁그리워	-10.5398
▁지지	-10.5398
▁미	-10.5401
▁모임이	-10.5403
▁장애인	-10.5403
▁하기도	-10.5405
일은	-10.542
▁놀리	-10.5423
▁노력해야	-10.5428
▁키우는	-10.5429
든지	-10.543
▁체육	-10.5432
▁집안이	-10.5434
▁소비	-10.5439
▁과장	-10.5445
▁다퉈	-10.5454
▁골프	-10.5454
▁도통	-10.5455
▁잤	-10.5456
▁서러운데	-10.5456
▁가책	-10.5456
▁망쳐	-10.5458
보	-10.5463
▁않으셔	-10.5465
▁않겠다고	-10.5475
▁떨어지면	-10.5476
▁보여줘야겠	-10.5478
▁주식에	-10.5478
▁행복할	-10.548
▁사랑해	-10.5483
▁보여주고	-10.5484
▁고장	-10.5484
▁폭행	-10.5485
▁고독해	-10.5485
▁있다네	-10.5487
▁못한다고	-10.5488
▁소개해	-10.5491
▁동생이랑	-10.5491
▁이후에	-10.5499
▁스펙	-10.551
▁좋아할	-10.5511
▁했으니	-10.5518
▁부족하	-10.5519
▁병으로	-10.5523
▁챙기는	-10.5525
▁독립하고	-10.5532
▁관절염이	-10.5533
▁실패했	-10.5534
▁때문인지	-10.5536
▁말기	-10.5558
▁구해서	-10.556
▁영업	-10.5562
▁가라고	-10.5565
▁사업에	-10.5566
▁화만	-10.5566
▁위해서라도	-10.5567
▁후회하고	-10.557
▁매달	-10.5572
▁이야기하는	-10.5581
▁팀원들이	-10.5587
▁학기	-10.5594
▁조건	-10.5596
▁믿는	-10.5601
▁나가면	-10.561
▁공부해야	-10.5612
▁짝	-10.5613
▁의도	-10.5615
▁이겨낼	-10.5615
▁처방	-10.5616
▁그래야겠어	-10.5618
▁주기	-10.5631
▁서운하	-10.5635
▁압박	-10.5644
▁권고사직	-10.5648
▁걱정돼서	-10.5649
▁무얼	-10.5651
▁둘째	-10.5651
▁정신장애	-10.5651
▁계단	-10.5651
▁하필	-10.5652
▁당황스러운	-10.5652
▁나갔는데	-10.5654
▁안정적인	-10.5655
▁견디기	-10.5657
▁이성	-10.5665
▁불편한데	-10.5666
▁부당	-10.5666
▁속상하다	-10.567
▁선배에게	-10.5672
▁심각한	-10.5674
▁먹으려고	-10.5674
▁일구	-10.5675
▁얘기도	-10.5691
▁집값	-10.5692
▁마련해	-10.5694
▁남들과	-10.5696
▁해야할지	-10.5698
▁비용이	-10.5706
▁뻔했	-10.5713
▁졸업하고	-10.5718
▁설레	-10.5721
어야겠어	-10.573
소문이	-10.5741
▁취업한	-10.5747
드리고	-10.5748
▁법	-10.5762
놓은	-10.5764
▁죽음이	-10.5769
▁사람이라고	-10.5773
▁질	-10.5782
▁확실하	-10.5785
▁걸릴	-10.5792
▁당뇨병	-10.5794
▁펀드	-10.5797
▁멀어진	-10.5803
▁다행이지	-10.5809
▁진	-10.5809
▁너	-10.5819
▁들기	-10.5824
▁카드	-10.5828
▁벌기	-10.5831
▁불만	-10.5836
▁주제	-10.5837
▁맡아	-10.5839
▁여행이라	-10.5843
리고	-10.5846
▁고혈압이	-10.5846
▁발견	-10.5846
쩍	-10.585
▁이만저만	-10.5851
▁버거워	-10.5851
▁기미	-10.5851
▁보여줄	-10.5851
▁흥분돼	-10.5853
▁바쁜데	-10.5858
▁맘대로	-10.5859
▁센터	-10.5861
▁포기하지	-10.5865
▁가장으로서	-10.5867
▁돌아가셨어	-10.5869
느니	-10.5871
하겠어	-10.5873
▁방문	-10.5874
▁지난번에	-10.5876
▁혼자야	-10.5877
▁가져야	-10.5878
▁통증이	-10.5879
▁토	-10.5882
▁말하려고	-10.5884
▁않더라고	-10.5887
▁약속했는데	-10.5889
보면	-10.5892
▁언제쯤	-10.5896
▁면접에	-10.5897
▁거기	-10.591
▁거래처	-10.5925
▁해봤는데	-10.5927
▁대가	-10.5932
▁해놓고	-10.5936
▁바람이	-10.5937
날	-10.5945
▁살려고	-10.5945
▁잡혀	-10.5949
▁않는다고	-10.595
▁영감이	-10.5956
▁죽기	-10.5959
▁보상	-10.5959
▁관절	-10.5961
▁대인관계에	-10.5965
▁나아지	-10.5965
▁아니라는	-10.5973
▁있더라	-10.5976
▁말까	-10.5977
▁친하다	-10.5978
▁빼	-10.5982
▁갚아	-10.5983
▁막내	-10.5987
▁하여	-10.5993
하기도	-10.5994
▁한잔하면	-10.5994
▁천식이	-10.5998
▁보답	-10.5999
해보려고	-10.6
▁문제인	-10.6013
▁해외	-10.6019
▁이겨내	-10.6021
▁탈락	-10.6029
▁도전해	-10.6032
▁주어	-10.6033
▁화내	-10.6034
▁없어져서	-10.6041
▁들어가고	-10.6042
▁두려운	-10.6049
▁대인	-10.605
▁느낄	-10.6051
▁많으니	-10.6052
▁갚지	-10.6055
▁소일거리	-10.6055
▁재능	-10.6058
▁소화	-10.6058
▁생각하게	-10.606
▁팀원들에게	-10.6062
▁없다니	-10.6063
▁않았지만	-10.6066
▁알아보려고	-10.6069
▁다행이	-10.607
이니	-10.6071
▁이야기할	-10.6075
▁성공했어	-10.6075
▁많았어	-10.6076
싶어	-10.6076
▁고맙지	-10.6077
▁당황	-10.6078
▁가려	-10.6078
▁냈는데	-10.6087
▁받아보	-10.6092
▁부장이	-10.6093
▁재취업	-10.6096
▁별일	-10.6098
인가	-10.6102
▁싶은지	-10.6105
▁들어주고	-10.611
나마	-10.6111
▁봐야겠다	-10.6116
▁챙기고	-10.6119
▁하던데	-10.6119
▁초라해	-10.613
▁먹으	-10.6131
▁거기에	-10.6135
▁전체	-10.6139
▁것부터	-10.6142
▁낳을	-10.6142
▁이상해	-10.6147
▁큰소리	-10.6147
▁버릇	-10.6151
▁했을까	-10.6153
▁공	-10.616
때문에	-10.6167
▁잃어	-10.6167
▁시골에	-10.6169
▁있을지도	-10.617
▁친정	-10.619
▁드는데	-10.6192
▁시댁	-10.6195
▁상태로	-10.6199
▁헛	-10.6203
▁먹었	-10.6215
▁요양	-10.6223
▁받을까	-10.6226
▁원서	-10.6226
▁여성	-10.6229
▁놀림	-10.6229
▁들어야겠어	-10.6231
▁한계	-10.624
▁좋아하고	-10.6255
▁붙을	-10.6263
▁의사소통	-10.6263
▁설거지	-10.6263
▁틀린	-10.6264
▁시비	-10.6264
▁술에	-10.6264
▁불쌍한	-10.6268
▁전교	-10.6268
▁치밀어	-10.6269
▁빌려줬는데	-10.627
▁우는	-10.627
▁테니까	-10.6271
▁않았을까	-10.6271
▁투병	-10.6272
▁넉넉하지	-10.6273
▁없겠어	-10.6279
▁알려야겠어	-10.6281
▁친해질	-10.6281
▁담아	-10.6284
▁씨에게	-10.6286
▁잘해야	-10.6289
▁장례식에	-10.6291
▁사장	-10.6293
▁약한	-10.63
▁쪽으로	-10.6307
▁음식이	-10.6309
▁고등학교에	-10.6317
▁다툼이	-10.6318
질까	-10.6319
▁정년	-10.632
▁잘해주고	-10.6326
▁대화해봐야겠어	-10.6326
▁공기	-10.6327
▁시절에	-10.6341
▁만성질환	-10.6344
▁자살	-10.635
▁잡	-10.6352
▁짝이	-10.636
▁불합격	-10.6361
짝	-10.6376
▁아끼는	-10.6378
굴	-10.638
▁힘들겠지	-10.6408
▁일하는데	-10.6408
로부터	-10.6411
▁소식이	-10.642
성	-10.6427
▁설명해	-10.6428
▁보람이	-10.6431
▁지르	-10.6439
▁안정	-10.6443
▁일상	-10.6447
▁반성	-10.6448
▁맛이	-10.6453
있어	-10.6461
▁환경	-10.6461
▁하든	-10.6462
▁회사로	-10.6466
▁예방	-10.6467
▁끊	-10.6473
▁보증	-10.6475
▁다퉜는데	-10.6476
▁매일매일	-10.6476
▁메시지	-10.6476
▁않거든	-10.6476
▁공부한	-10.6476
▁제약	-10.6476
▁만남	-10.6477
▁답답하네	-10.6481
▁지난주에	-10.6482
▁갈지	-10.6482
▁슬프지	-10.6488
▁괜찮은데	-10.649
▁사회적으로	-10.6499
▁어떡해야	-10.6503
▁났는데	-10.6505
▁버려서	-10.6506
▁이러는지	-10.6507
▁이해하지	-10.6509
▁당하는데	-10.6517
▁노력하는데	-10.6519
▁슬퍼져	-10.6524
▁되면서	-10.6525
▁친구라	-10.6526
▁효도	-10.6526
▁전보다	-10.6527
▁편인데	-10.6528
▁편할	-10.6531
▁들더라고	-10.6531
▁편이라	-10.6544
던지	-10.655
▁무엇이	-10.6551
▁마셔	-10.6551
▁투자한	-10.6553
▁시작할	-10.6557
▁정리하고	-10.656
▁영향	-10.656
▁그간	-10.6563
▁포기해야	-10.6563
▁자라	-10.657
▁컸	-10.6578
▁부인이	-10.6578
▁소외감	-10.6579
▁크고	-10.6579
하잖아	-10.6585
▁실천하기	-10.6588
사건	-10.6595
▁반복	-10.6601
▁거잖아	-10.6608
▁시집	-10.6612
▁천식	-10.6612
한다는	-10.6625
▁올까	-10.6637
▁단절	-10.664
▁어디로	-10.6642
▁부업	-10.6644
▁일정	-10.6644
▁기말고사	-10.6651
▁둘이서	-10.6668
▁전화로	-10.6672
워	-10.6676
▁어울리는	-10.6679
▁죄책감도	-10.668
이라서	-10.6683
▁은퇴하면	-10.6687
하신	-10.6687
▁국어	-10.6689
▁버틸	-10.6693
▁고통스러워	-10.6694
▁기사	-10.6695
▁주면서	-10.6697
▁육	-10.6702
▁넘었는데	-10.6703
▁비난	-10.6704
▁버스	-10.6704
▁병원비로	-10.6705
▁감당	-10.6709
▁자녀들과	-10.671
▁같거든	-10.6711
▁경찰서에	-10.6712
▁누구에게	-10.6718
▁당했는데	-10.672
지니까	-10.6722
▁고교	-10.6725
▁빌려준	-10.6726
▁물어보	-10.6738
▁나더라	-10.6741
▁많았	-10.6744
▁힘드니	-10.6748
▁끊기	-10.6748
▁직업에	-10.6749
▁동호회에	-10.6754
▁접	-10.6756
▁들어야	-10.6761
▁신입이	-10.6761
▁좋아하던	-10.6763
▁거기서	-10.6765
줘야지	-10.6767
▁된대	-10.6768
려	-10.6786
▁말해볼까	-10.6787
▁유지할	-10.6796
▁명품	-10.6803
▁수시	-10.6808
김	-10.6812
▁들으면서	-10.6815
시고	-10.6817
▁파티	-10.682
▁이동	-10.6821
▁흥분	-10.6823
▁힘내	-10.6826
▁제한	-10.6827
▁가야지	-10.6838
▁의논	-10.684
▁싸	-10.6841
사	-10.6844
▁일과	-10.6844
아갈	-10.6845
▁재산이	-10.6845
돼	-10.6845
▁사는지	-10.6849
▁가슴	-10.6853
▁옛날에	-10.6854
▁쌓여	-10.6854
보자고	-10.6858
▁물어봤	-10.6859
▁늙으니	-10.686
▁벌지	-10.6865
▁확인해	-10.6871
▁드라마	-10.6877
▁돌	-10.6878
▁난리	-10.6878
▁나쁘지	-10.6879
▁학원비	-10.6885
해볼래	-10.6888
▁울	-10.689
▁이러	-10.6893
▁구박	-10.6899
▁슬프	-10.6904
▁발전	-10.6905
▁알아볼	-10.6906
▁무거워	-10.6915
▁사이좋	-10.6915
▁한심스러워	-10.6915
▁허리디스크	-10.6915
▁단호하게	-10.6916
▁세우	-10.692
▁없었던	-10.6928
▁누구보다	-10.6931
▁무기력하	-10.6934
▁알려줘	-10.694
▁책상	-10.694
▁새벽에	-10.6941
▁정하지	-10.6941
▁신중	-10.6945
▁만	-10.6949
▁불안감	-10.6951
세	-10.6953
▁좋아졌	-10.6957
▁산다고	-10.6962
▁중이	-10.6971
하려니	-10.6972
▁때리고	-10.6979
▁풀어	-10.698
한데	-10.6988
▁벅차	-10.6995
쳐서	-10.7003
▁바보인	-10.7005
▁챙겨주는	-10.7012
▁개선	-10.7013
▁변	-10.7034
▁작아	-10.7034
▁낮아	-10.7035
▁고맙다	-10.7048
▁손자들이	-10.7053
▁맞은	-10.7059
▁맡겨	-10.7071
▁친구야	-10.7073
▁창업	-10.7074
▁학점	-10.7081
▁돌아가셔	-10.7082
▁면접관	-10.7088
▁결혼생활	-10.7091
▁없었을	-10.7098
▁나이인데	-10.7099
▁날에	-10.7102
▁괴롭히고	-10.7102
▁티브이	-10.7108
▁따돌렸	-10.7118
▁과잉보호	-10.7126
▁되었	-10.7135
댈	-10.7143
▁지위	-10.7145
▁도울	-10.7146
▁필기	-10.7148
▁인제	-10.715
▁좋아하는지	-10.715
▁마디	-10.7151
▁필요하다고	-10.7154
▁받아볼까	-10.7154
▁실제로	-10.7154
▁직접적으로	-10.7156
▁동생한테	-10.7156
▁어려서	-10.7157
▁잘못이지	-10.7158
▁초조한	-10.7163
▁든든해	-10.7166
▁중에서	-10.7168
기보다는	-10.718
▁증상	-10.7183
한다면	-10.7184
▁동생과	-10.7187
▁생각해보	-10.7189
▁언니랑	-10.7189
▁사주고	-10.7192
▁준비는	-10.7196
▁온다고	-10.7197
▁따져	-10.7199
▁졸업한	-10.7199
▁뭐든지	-10.7206
▁알아주	-10.7207
▁남자와	-10.7212
▁가해자들이	-10.7217
▁자존심이	-10.722
▁괴롭히지	-10.7224
▁의심이	-10.7227
▁팀에	-10.723
▁가격	-10.7232
▁기쁘다	-10.7232
▁만나자	-10.7234
▁연락하는	-10.7248
▁아쉽	-10.7251
▁받는데	-10.7255
▁상당	-10.726
▁기부	-10.7264
▁남편하고	-10.7268
뜻	-10.7273
▁조	-10.7278
저런	-10.7281
▁말해야지	-10.7283
▁사라지	-10.7287
▁기업	-10.7299
▁당했	-10.73
▁피해자	-10.7315
▁학생	-10.7324
▁무시당하는	-10.7335
▁줄어들어	-10.7335
▁의존하	-10.7336
▁우울해져	-10.7337
▁자유롭	-10.7347
▁학력	-10.735
관한	-10.735
▁도와주	-10.7354
시면	-10.736
▁표정	-10.7362
겠다는	-10.7364
▁큰일이	-10.7364
▁싸움이	-10.7365
▁항암	-10.7375
▁주눅	-10.7375
▁펑펑	-10.7375
▁단단	-10.7378
▁결혼하기	-10.7378
▁좋겠네	-10.7381
▁쓸데없	-10.7382
▁없었거든	-10.7382
▁챙기	-10.7383
▁형한테	-10.7384
▁나가야	-10.7388
▁당뇨에	-10.7388
▁입장에서	-10.7389
▁애한테	-10.7391
▁들어왔는데	-10.7393
▁것인지	-10.7393
▁직원에게	-10.7397
▁자식한테	-10.7397
▁말씀드려야	-10.7397
▁직원들에게	-10.7397
▁보살펴	-10.7401
▁맞추	-10.7404
▁입어	-10.7415
▁걱정할	-10.7421
▁선배들	-10.7424
▁장소	-10.7424
▁걸리면	-10.7429
▁원하지	-10.7431
▁애들에게	-10.7437
▁맛있	-10.7439
▁유	-10.7443
▁질병	-10.7445
▁부르	-10.7446
▁했대	-10.7449
▁결혼까지	-10.7463
▁도리	-10.7463
▁생각하	-10.7468
▁속으로	-10.7469
▁취업은	-10.747
▁빚이	-10.7474
▁믿어주	-10.7477
이어서	-10.7479
▁정부	-10.7482
▁물어보면	-10.7489
드	-10.7492
▁우유부단	-10.7496
▁응원해	-10.7497
▁자금이	-10.7502
▁배워야	-10.7507
▁작업	-10.7518
▁사라져	-10.7525
▁슬픔	-10.7525
▁안에	-10.7531
자가	-10.7542
▁싸우	-10.7544
▁만족	-10.7546
스러운	-10.7546
▁심해져	-10.7547
▁쉬지	-10.7547
▁어머니께	-10.7551
▁합병증	-10.7559
▁올라가	-10.757
▁이야기만	-10.7575
▁물을	-10.758
▁지원한	-10.7581
▁딴	-10.7582
▁군대	-10.7582
▁행동에	-10.7588
▁움직	-10.759
▁대화에	-10.7592
▁달이	-10.7593
어야	-10.7594
▁눈앞	-10.7595
▁직장동료	-10.7601
▁나타나	-10.761
▁어딜	-10.7613
▁챙길	-10.7613
▁즐길	-10.7613
종	-10.7613
▁성가신	-10.7614
▁낫겠지	-10.7614
▁자랑스러워	-10.7616
▁불쌍하게	-10.7622
▁나라에서	-10.7625
▁애인과	-10.7632
▁앉	-10.7632
▁만성질환으로	-10.7634
▁보험이	-10.7635
▁다녔는데	-10.7637
▁들어왔어	-10.7641
▁직원들과	-10.7643
▁긴장되고	-10.7649
▁턱	-10.765
▁풀리	-10.7652
▁바쁘고	-10.7656
▁기력	-10.7658
▁인상	-10.7659
▁사람들하고	-10.7663
▁독서	-10.7666
▁많아졌어	-10.7667
▁높이	-10.7672
▁안심	-10.7672
▁틀렸	-10.7675
▁애들이랑	-10.7681
▁정기적	-10.7685
▁못나서	-10.7686
▁수술이	-10.7694
▁간식	-10.7698
▁싸우지	-10.7701
▁찾아볼	-10.7704
▁계신	-10.7704
▁해고당했	-10.7714
▁따르	-10.7718
▁준비에	-10.772
▁한다	-10.7723
▁성가시	-10.7729
▁체중	-10.7733
▁대우	-10.7738
▁싸우셔	-10.774
▁죽어서	-10.7741
▁불편하고	-10.7743
▁연락해	-10.7743
▁신뢰하	-10.776
▁이야기하면	-10.7767
▁우리집	-10.7767
▁속상했	-10.7771
▁차도	-10.7773
▁번만	-10.7775
▁뽑아	-10.7779
▁계산	-10.7781
들도	-10.7781
▁혼내	-10.7782
▁시원하	-10.7785
▁없어진	-10.7786
되는	-10.7787
▁요	-10.7804
▁참석	-10.7805
▁떠날	-10.7811
▁시력	-10.7817
▁할래	-10.7818
▁방해	-10.7821
▁들어와	-10.7824
▁강요	-10.7828
▁이자	-10.783
으로부터	-10.7833
▁이따	-10.7835
▁자는	-10.7838
▁집중도	-10.7842
▁인원	-10.7846
▁약속이	-10.785
레	-10.7852
재	-10.7853
▁기대를	-10.7856
▁맥주	-10.7857
▁읽고	-10.7857
▁재택근무	-10.7857
▁틈틈	-10.7857
▁치킨	-10.7859
▁제때	-10.7859
▁현실적으로	-10.7862
▁줄어드는	-10.7862
▁없었으면	-10.7864
▁지났는데	-10.7867
▁탈락했어	-10.7869
▁마셔야겠어	-10.7871
▁중요하다고	-10.7879
▁잦아	-10.7879
▁코	-10.7881
▁하더군	-10.7882
▁어떤지	-10.7885
▁잘해줄	-10.7889
▁중인	-10.7889
▁경제력이	-10.789
▁일하느라	-10.7893
▁금액	-10.7894
▁알아주지	-10.7895
▁가족한테	-10.7898
▁믿었는데	-10.7902
▁선물이라	-10.7904
▁심하	-10.7905
▁혜택	-10.7908
▁모르는데	-10.7909
▁뿐인데	-10.7909
▁거래처에	-10.7914
▁거기다	-10.7915
▁폐지	-10.7918
▁명상	-10.7925
▁가버렸어	-10.7927
▁잘렸어	-10.7928
▁되었지	-10.7928
▁피우는	-10.7929
되었어	-10.7934
▁녀석	-10.7934
▁학습	-10.7935
▁돌볼	-10.7935
▁과장님이	-10.7942
▁하냐고	-10.7944
▁지나면	-10.7944
▁힘으로	-10.7946
▁당혹스럽	-10.7949
▁결혼해	-10.795
▁제도	-10.7957
생활을	-10.7959
▁아니어	-10.7976
했지	-10.7979
▁전세	-10.7985
▁관절이	-10.7987
▁유방암	-10.7991
▁가정에서	-10.7993
리는	-10.7996
▁구하	-10.7996
▁인연	-10.7996
▁분명해	-10.7999
▁작년	-10.8004
▁목	-10.8006
▁없어지는	-10.8007
▁마치고	-10.8018
▁사촌	-10.802
▁들어오는	-10.8027
▁휴직	-10.803
▁찍어	-10.8042
▁이식	-10.8044
▁선택한	-10.8045
▁식	-10.8048
▁금전적	-10.8051
▁보일	-10.8053
▁염려	-10.8058
▁지인들	-10.8058
▁비참하	-10.806
▁고향	-10.8068
▁완벽	-10.8078
▁읽어	-10.8078
▁행사	-10.8079
▁사내	-10.8081
▁음	-10.8083
▁앞으	-10.8084
▁은행에	-10.8086
▁과목	-10.809
▁미뤄	-10.8092
▁했어야	-10.8093
뿐만	-10.8094
▁연애하고	-10.8094
▁일해야겠어	-10.8098
▁날이야	-10.8104
었지	-10.8106
▁나쁘게	-10.8107
▁많네	-10.8107
▁밉고	-10.8107
▁하늘나라	-10.8107
▁흘렸	-10.8107
▁담임선생님께	-10.8109
▁어색해	-10.8112
장	-10.8113
▁물어보려고	-10.8116
▁푸는	-10.8116
▁끝났어	-10.8116
▁생각으로	-10.8117
▁같다	-10.8118
▁회복하	-10.8119
▁해내	-10.8119
▁움직이지	-10.812
▁같더라고	-10.8122
▁가보려고	-10.8124
▁다치	-10.8125
▁권	-10.8126
▁죄송한	-10.8127
▁학생들	-10.8129
▁어떡하나	-10.8133
▁일상이	-10.8133
▁생일인데	-10.8134
▁얘기해보	-10.8135
▁기쁨	-10.8136
▁친구들끼리	-10.8138
▁풀리지	-10.8139
▁동료와	-10.8139
▁예민한	-10.8141
▁노력은	-10.8142
갔으면	-10.8143
▁화풀이	-10.8146
▁벗어나	-10.8147
▁처음이야	-10.8152
▁외롭지	-10.8154
▁언니와	-10.8154
▁문제인지	-10.8158
했다는	-10.816
금	-10.8162
▁생각해야지	-10.8163
▁지방	-10.8166
▁즐기고	-10.8167
▁죄송하고	-10.817
▁시골	-10.8175
▁늙은이	-10.8176
▁관련해서	-10.818
▁중년	-10.8181
▁성격이라	-10.8187
▁일하던	-10.8188
▁두렵기	-10.8191
▁지역	-10.8197
▁잃게	-10.8202
▁없더라	-10.8208
▁시작하고	-10.8209
▁자식들이랑	-10.8209
▁숨	-10.821
▁저런	-10.8218
▁가져다	-10.8219
▁길에서	-10.8223
▁가정이	-10.8225
리가	-10.8229
해주고	-10.8229
▁시간만	-10.8241
▁표정이	-10.8246
▁사무실에	-10.8254
▁한다면	-10.8258
▁대책	-10.8263
지고	-10.8264
뜩이	-10.8264
▁식습관	-10.8265
▁줄까	-10.8266
▁수준이	-10.8277
▁쉬어	-10.8277
스	-10.8285
▁먹고살기	-10.829
▁대처	-10.8297
들과	-10.8309
▁취업해야	-10.831
따라	-10.8311
▁체	-10.8313
하셔	-10.832
▁막혀	-10.8322
▁들어가면	-10.8328
▁해소	-10.8332
▁좋더라	-10.8335
▁사람인가	-10.8336
▁경비	-10.8343
▁걸렸다	-10.8347
▁운동과	-10.8352
▁돌아가셨	-10.8357
▁위에	-10.8362
▁무거운	-10.8364
▁일방적으로	-10.8364
▁유독	-10.8364
▁폭언	-10.8364
▁살갑	-10.8364
▁신입사원	-10.8366
▁비교하	-10.8366
▁나아지겠지	-10.8367
▁힘드니까	-10.8367
▁써주	-10.8368
▁생기니	-10.8369
▁비통한	-10.8372
▁증세	-10.8372
▁비교해	-10.8373
▁가볼까	-10.8376
▁툭	-10.8378
▁누구한테	-10.8378
▁극복할	-10.838
▁나빠졌어	-10.8384
▁완벽하	-10.8388
▁움직이기	-10.8392
전에	-10.8392
▁연락해봐야겠어	-10.8399
▁늘려	-10.8405
▁지도	-10.8406
▁했다	-10.8407
▁알아보는	-10.8409
▁비밀로	-10.841
▁하셨는데	-10.8413
▁고생이	-10.8416
▁엄마께	-10.8416
▁받아주지	-10.8417
▁답답하다	-10.8419
▁빠지고	-10.8421
▁두려워서	-10.8422
▁멀어져	-10.8425
▁안달이	-10.8429
▁찾아오	-10.843
▁가르쳐	-10.8433
▁초	-10.8435
▁허	-10.8445
▁추천해	-10.8447
▁시키고	-10.8448
▁엉망이	-10.8459
▁신경질	-10.846
▁장난감	-10.8469
▁건강식품	-10.8471
▁봤다	-10.8474
했다가	-10.8491
시켜	-10.8494
▁고치	-10.85
▁넘어져	-10.85
▁돌보고	-10.8507
▁보자고	-10.851
▁넘어	-10.8512
오	-10.8515
▁얻고	-10.8521
될까	-10.8523
갖	-10.8532
▁노인들이	-10.8535
▁시대	-10.8537
▁좋아지지	-10.8537
▁결혼생활이	-10.8554
다른	-10.8557
▁생일에	-10.856
▁아프	-10.8561
▁안에서	-10.8564
▁버렸	-10.8568
▁고객	-10.8568
▁여생	-10.8577
▁느긋해	-10.8578
▁왔다	-10.8583
▁놀지	-10.8585
스레	-10.8585
▁기업에	-10.859
▁프로젝트에	-10.8592
▁서서	-10.8599
▁늙어가는	-10.86
▁불편	-10.8613
▁했다가	-10.8615
▁악화	-10.8617
▁것만으로	-10.8619
▁많을	-10.8622
▁내신	-10.8622
되게	-10.8623
▁바꿀	-10.8623
▁겪는	-10.8624
▁빵	-10.8625
▁엄두	-10.8627
▁나머지	-10.8627
▁예비	-10.8627
▁나갔다	-10.8628
▁여태껏	-10.8628
▁사표	-10.8629
▁그렇긴	-10.8629
▁모르니까	-10.8635
장이	-10.8636
▁잘한다고	-10.8643
▁하겠지	-10.8644
▁예쁘	-10.8651
▁애정	-10.8652
▁버	-10.8652
▁버릴	-10.8654
▁통하는	-10.8656
▁잘못했다고	-10.8657
▁믿어주지	-10.8659
▁안타깝고	-10.866
▁보냈어	-10.8661
와서	-10.8662
▁생각하려고	-10.8674
▁적응할	-10.8678
▁계획이야	-10.868
▁기한	-10.8682
▁지지해주	-10.8682
▁찾아와서	-10.8683
▁이러면	-10.8687
▁격려	-10.8703
▁집안에	-10.8721
▁때문이	-10.8723
▁정신적	-10.8724
▁말투	-10.8724
▁뭐해	-10.8726
았어	-10.8737
▁양해	-10.8748
▁어렵	-10.8751
▁보낸	-10.8759
▁실력이	-10.877
▁해결될	-10.8776
▁후회해	-10.8779
▁핀잔	-10.8784
▁남았	-10.8793
▁없애	-10.8793
▁구매	-10.8795
▁떨어졌	-10.881
텐데	-10.881
▁할거야	-10.8816
▁경로당에	-10.8822
▁시킨	-10.8825
▁없다면	-10.8825
▁갚아야	-10.8827
▁무시하	-10.8831
▁어이없	-10.8832
▁나가야겠어	-10.8835
▁과장이	-10.8836
▁웃으면	-10.8846
▁과도	-10.8848
소	-10.8853
▁의식	-10.8853
▁임신이	-10.8855
▁다니면	-10.8863
▁물어볼까	-10.8866
▁농사	-10.8868
▁새벽	-10.8869
▁친구들처럼	-10.8872
▁갖다	-10.8872
▁먼	-10.888
▁실망이	-10.8881
▁일상생활에	-10.8887
▁데에	-10.8887
만으로	-10.8891
산	-10.8892
▁옷이	-10.8893
▁후회된다	-10.8895
▁갚고	-10.8897
▁빌린	-10.8897
▁빨래	-10.8897
▁샀어	-10.8897
▁이러니	-10.8898
▁복권	-10.89
▁무기력한	-10.8906
▁이러니까	-10.8906
▁해결하	-10.8907
것도	-10.8907
▁요양병원에	-10.8909
▁노력이	-10.891
▁일거리	-10.891
▁노력해야겠지	-10.8912
▁칠	-10.8912
▁자기소개서	-10.8913
▁받아보려고	-10.8916
▁아니겠지	-10.8916
▁전화해	-10.8917
다는데	-10.8919
▁잡히지	-10.8923
▁헤어져	-10.8924
▁돌아갈	-10.8925
▁안되네	-10.8925
▁후회하지	-10.893
▁적고	-10.8933
▁해고당	-10.8935
했대	-10.8935
▁봉사	-10.8935
▁아버지께	-10.8935
▁모으고	-10.8937
▁남들에게	-10.894
작정	-10.8943
▁모을	-10.8947
▁불평	-10.8949
▁오를	-10.895
▁버티	-10.8965
이니까	-10.8967
▁원망	-10.8967
▁등급	-10.8972
▁반장	-10.8972
▁아니더라	-10.8972
▁신고할	-10.8974
▁인간이	-10.8984
▁결혼한다고	-10.8996
▁관리에	-10.8997
▁앉아서	-10.8999
성치	-10.8999
▁위기	-10.9
▁이루	-10.9
▁다닌다	-10.9011
▁해주	-10.9012
▁됐지	-10.9016
▁있으려니	-10.9017
▁편안하	-10.9018
▁망	-10.902
▁생각해야	-10.9023
주지	-10.9026
▁부끄럽지	-10.903
▁들어가기	-10.9037
▁보험에	-10.9042
▁참겠어	-10.9043
▁나눠보	-10.9043
▁전망	-10.9046
▁굴어	-10.9046
▁모이	-10.9053
▁다니다	-10.9054
▁운동하는	-10.9055
▁일부	-10.9056
▁연금이	-10.9057
▁용돈이	-10.9066
▁버림받	-10.9069
▁중요하지	-10.907
▁탈	-10.9074
▁사귀기	-10.9077
빨리	-10.9079
▁시작하	-10.9083
▁화해하	-10.9083
▁구직	-10.9085
방	-10.9085
▁과장님	-10.9088
▁들어줄	-10.9089
했으니	-10.9089
▁수익	-10.909
하길	-10.9093
▁어울려	-10.9094
▁그랬지	-10.9095
▁얘기했는데	-10.9101
▁그걸로	-10.9105
▁모르지	-10.9106
▁일하지	-10.9119
▁나아	-10.9123
▁트집	-10.9129
▁사다	-10.913
▁영원	-10.9131
났어	-10.9131
▁자유	-10.9131
▁살까	-10.9133
▁오니	-10.9136
▁지난번	-10.9147
했었어	-10.9151
▁맞을	-10.9153
▁부지런	-10.9161
▁들키	-10.9168
수가	-10.9169
▁놀리는	-10.917
▁슬플	-10.9172
▁떨고	-10.9175
▁정확하	-10.9175
▁이룬	-10.9175
▁일어난	-10.9176
▁온전	-10.9176
▁지인들에게	-10.918
▁이룰	-10.9181
▁살던	-10.9184
▁구체적으로	-10.9185
였거든	-10.9187
▁점심시간에	-10.9187
▁정부에서	-10.9191
두고	-10.9191
▁금전적으로	-10.9196
▁누군가에게	-10.9198
▁입원했는데	-10.9202
▁많아지고	-10.9203
▁의대	-10.9207
▁과자	-10.921
▁약해	-10.9211
▁다녔어	-10.9213
▁많다	-10.9215
▁대해야	-10.9215
▁충고	-10.9219
▁노력하	-10.9221
▁반복되	-10.9221
▁당연한	-10.9222
▁민폐	-10.9222
▁분들이	-10.9222
▁바라보고	-10.9225
▁차가	-10.9225
▁생각해보면	-10.9232
▁화장	-10.9237
▁지어	-10.9242
▁앞서	-10.9243
▁먹어야지	-10.9244
▁주신	-10.9244
▁시키	-10.9245
▁생활하는	-10.9246
▁떨어	-10.9253
▁남아있는	-10.9256
되어	-10.9256
▁동창들	-10.9258
▁하기에	-10.926
▁다짐	-10.9263
▁서운하다	-10.9263
▁급해	-10.9266
▁원인	-10.9267
▁유대감이	-10.9269
▁그날	-10.9271
▁조용한	-10.9273
▁죽음에	-10.9279
▁헤어질	-10.9284
▁프로젝트에서	-10.9285
▁공원에	-10.929
▁얼굴에	-10.9295
▁웃고	-10.9302
▁보라고	-10.9302
▁일하면	-10.9304
영	-10.9307
주어야겠어	-10.9309
▁대할	-10.9318
▁그만두면	-10.9319
▁걸리고	-10.932
▁늘어나	-10.932
▁데려가	-10.9329
▁배우는	-10.9334
▁친구처럼	-10.934
▁양	-10.9342
▁집중하고	-10.9352
▁참지	-10.9353
▁무가치	-10.9356
왔는데	-10.936
▁커져	-10.9363
▁안달	-10.9364
▁신랑	-10.9364
▁아이돌	-10.9367
가봐	-10.9368
▁간병	-10.9369
▁속도	-10.9376
았는데	-10.938
▁말씀드렸	-10.9381
▁기본적	-10.9388
▁꼼짝	-10.9391
▁태어나	-10.9394
▁멈추	-10.9395
▁생각지	-10.9401
▁불편하니	-10.9416
▁그렇	-10.9424
▁경로당	-10.9429
▁어떨	-10.9431
▁입을	-10.9433
▁친구네	-10.9438
▁복습	-10.9444
▁위축되	-10.9449
▁노릇	-10.9449
▁투정	-10.9456
낼	-10.9459
▁꼬박꼬박	-10.946
▁다섯	-10.946
▁드라이브	-10.946
▁들어갔는데	-10.946
▁얘길	-10.946
쩜	-10.946
▁황혼	-10.946
▁썼는데	-10.9461
▁당혹스러웠어	-10.9462
▁실망스럽고	-10.9466
▁같긴	-10.9466
▁장기	-10.9467
▁고마웠어	-10.9468
▁주문	-10.9468
▁무가치하게	-10.9468
▁좋으니까	-10.9468
▁소용없어	-10.947
해볼까	-10.947
▁불안장애	-10.947
강하게	-10.9472
▁충분한	-10.9474
▁모른다고	-10.9477
▁성질	-10.9478
▁무엇이든	-10.9478
▁감사하다고	-10.9479
▁주민	-10.9481
▁걸어봐야겠어	-10.9481
▁대기업	-10.9482
▁개인적	-10.9483
▁부양해	-10.9486
▁들어오면	-10.9486
▁친하지	-10.9486
▁가봐야	-10.9488
년	-10.9491
▁나빠지고	-10.9495
▁아이들한테	-10.9497
▁피워서	-10.9501
▁알아주는	-10.9506
▁쓸모없	-10.9506
▁쓸쓸하고	-10.9508
▁시력이	-10.9509
▁아니니	-10.9518
▁상처받	-10.9518
▁바꾸고	-10.9519
주는	-10.9522
▁없으면서	-10.9527
▁자책	-10.9538
제	-10.9538
▁서로에	-10.9541
▁얻을	-10.9543
▁과거에	-10.9546
▁숨겨	-10.9554
▁않다	-10.9555
▁식이요법	-10.9557
▁해보	-10.9558
었지만	-10.9558
건지	-10.9559
▁기침	-10.9566
▁근처에	-10.9567
▁대학이	-10.9569
▁성공해	-10.957
▁사람들보다	-10.9571
▁사과하는	-10.9573
▁받아보고	-10.9575
▁수행	-10.9576
▁산책하면	-10.9578
적	-10.958
▁선생님들	-10.9583
▁보기에	-10.9587
▁걔들	-10.9588
청해야겠어	-10.9594
▁허탈	-10.9597
▁귀농	-10.9598
▁오래전	-10.9599
▁병은	-10.9605
▁멀어	-10.9615
▁없었	-10.9618
▁성공한	-10.9622
▁풀어야	-10.963
함	-10.9631
▁부려	-10.9633
▁밥이	-10.9646
▁살날	-10.9647
▁느낌이라	-10.9649
▁노력하면	-10.9651
▁안될	-10.9656
▁교류	-10.9659
▁보인다	-10.9668
했나	-10.9673
▁서른	-10.9675
▁어른이	-10.9675
▁지나가	-10.9676
▁붙었	-10.9677
▁뜨	-10.968
▁어렵지	-10.9683
▁시달리	-10.9693
▁제출	-10.9694
해온	-10.9699
▁수능이	-10.9716
▁팀이	-10.9724
▁정년이	-10.9726
▁사람에	-10.973
▁조카	-10.9734
▁스마트폰	-10.9735
▁패배자	-10.9737
▁나가는데	-10.9741
▁당하	-10.9741
정	-10.9742
▁변한	-10.9743
▁가게에	-10.9744
▁인스타그램	-10.9746
▁미련	-10.9746
▁잡히	-10.9747
▁일어날	-10.9752
판	-10.9752
▁아저씨	-10.9752
▁낚시	-10.9755
▁다쳤어	-10.9755
▁컨디션	-10.9755
▁무시할	-10.9755
▁빈자리	-10.9755
▁이민	-10.9755
▁회비	-10.9755
▁연차	-10.9755
▁애교	-10.9755
▁달째	-10.9756
▁무능력한	-10.9757
▁불화	-10.9757
▁돌아가시	-10.9758
▁많으니까	-10.9759
▁훌륭	-10.9762
▁같았는데	-10.9762
▁지속적	-10.9764
▁보탬이	-10.9764
▁캄캄해	-10.9764
▁일이지	-10.9767
▁운동이라	-10.9768
▁막막하다	-10.9768
▁되다니	-10.9769
▁팀원들과	-10.9771
▁하시네	-10.9771
▁사줘야겠어	-10.9773
드렸어	-10.9777
▁유명한	-10.9779
▁아니잖아	-10.978
▁이해해주지	-10.9782
▁얘기해보려고	-10.9786
▁기대했는데	-10.979
▁때문이라고	-10.9792
▁지원해주는	-10.9793
▁다녀와야겠	-10.9795
▁느끼지	-10.9796
▁기다리	-10.9802
▁알아봐야지	-10.9803
▁산에	-10.9804
▁동생들	-10.9807
▁나빠서	-10.9819
▁보였	-10.982
▁신발	-10.9821
라며	-10.9821
▁사줄	-10.9822
통	-10.9829
▁퇴근해서	-10.9831
▁전과	-10.9835
▁마시는	-10.9836
다보니	-10.9838
▁기간이	-10.9844
▁줄여야	-10.9844
▁위로해주	-10.9848
▁시부모님	-10.985
▁예	-10.9851
해줬어	-10.9865
감이	-10.9866
▁도와준	-10.9866
▁있다는데	-10.9868
▁왔	-10.9871
건데	-10.9872
▁사원	-10.9873
▁후배들	-10.9874
▁헬스장에	-10.9876
▁들었	-10.9887
▁만기	-10.9889
▁날인데	-10.9896
▁예전보다	-10.99
▁결혼식이	-10.9909
▁노화	-10.9911
▁간에	-10.9911
▁줄어들	-10.9911
▁아니지	-10.9914
▁수발	-10.9915
▁붙잡	-10.9926
▁도망가	-10.9935
▁뜻	-10.9935
참	-10.9939
▁살라고	-10.9952
▁잘하는데	-10.9953
▁거에	-10.9961
▁만들기	-10.9963
▁들어올	-10.9988
▁학벌	-10.9988
오니까	-10.9992
▁일이든	-10.9993
▁경제력	-10.9996
▁심해지는	-10.9996
▁방학	-10.9998
▁국가에	-11
▁늙으면	-11
▁외로울	-11.0002
▁요청해	-11.0005
▁다녀오	-11.0008
▁무서웠	-11.0009
▁간병인	-11.0016
▁사야	-11.0021
▁행동하는	-11.0024
었는지	-11.0025
▁든다	-11.0028
▁시작해야	-11.003
▁늦었지	-11.0032
▁멀리하는	-11.0034
▁처벌	-11.0036
▁일어나는	-11.0036
▁문제도	-11.0039
▁사지	-11.0043
▁상담해	-11.0048
▁많아져	-11.005
▁사춘기라	-11.0052
▁지켜보	-11.0052
▁시각	-11.0053
▁늦잠	-11.0058
▁늦지	-11.0058
▁많거든	-11.0058
▁밤늦게	-11.0058
▁인슐린	-11.0058
▁쳤는데	-11.0058
▁꾸중	-11.0058
▁되어주	-11.006
▁어찌할	-11.006
▁응원해주	-11.0061
▁든든한	-11.0063
▁차례	-11.0065
▁돌아왔	-11.0067
▁신	-11.0067
▁좋았던	-11.0068
▁죽었는데	-11.0069
하다니	-11.007
▁친해져	-11.0071
▁사원이	-11.0071
▁벌면	-11.0072
▁초라한	-11.0076
▁피해가	-11.0077
▁무너지는	-11.0077
▁말해보려고	-11.0078
▁나아질까	-11.0079
▁어려웠	-11.0083
▁든든하	-11.0085
▁당연하게	-11.0085
▁피곤하고	-11.0085
▁끊겼	-11.0093
▁움직이는	-11.0094
▁심해진	-11.0095
▁주니	-11.0099
야겠지	-11.01
▁담당자	-11.0102
▁말하니까	-11.0102
▁보이는데	-11.0103
▁떨리고	-11.0103
▁찾아보	-11.0103
▁재미없어	-11.0108
일이	-11.0109
▁쓰려고	-11.0112
하자니	-11.0112
시에	-11.0115
▁독	-11.012
▁아까워	-11.0122
▁감사하고	-11.0122
▁취직할	-11.0123
▁건의	-11.0123
▁하니깐	-11.0124
▁떨어질까	-11.0127
▁이야기해보	-11.0128
▁주었어	-11.013
▁줄어들고	-11.0131
▁산다는	-11.0131
▁좋겠지만	-11.0131
▁반이	-11.0133
▁채로	-11.0133
▁독립할	-11.0134
▁했었어	-11.0135
▁차분하	-11.0143
▁백만	-11.0148
▁느낀	-11.0149
▁빠지	-11.0153
▁빠듯해	-11.0153
▁즐기	-11.016
▁깊게	-11.0163
▁퇴직한	-11.0169
▁어이없어	-11.017
▁것보	-11.018
▁살려	-11.0181
▁추가	-11.0183
▁월급으로	-11.0189
▁들여	-11.0192
▁않다는	-11.0194
▁지내지	-11.0196
▁생일이라	-11.0203
후	-11.0208
▁언젠	-11.0214
▁일어났	-11.0215
▁준비하지	-11.0224
▁어떠	-11.0228
▁상대방이	-11.0238
▁이제까지	-11.024
▁돌아가	-11.024
▁후회되는	-11.0259
▁관계에서	-11.0265
▁사랑받	-11.0267
정적으로	-11.0271
▁약값	-11.0271
▁전염병	-11.0273
▁불구	-11.0274
▁보장	-11.0282
▁경쟁이	-11.0284
▁해줬어	-11.0287
▁관	-11.0289
▁선물해	-11.0293
▁부리	-11.0294
▁등급이	-11.0298
▁이용해	-11.0299
▁욕심이	-11.0299
▁다가가기	-11.03
▁호	-11.0301
보니까	-11.0306
▁끊을	-11.0316
▁가해자들	-11.0317
▁내에서	-11.0325
▁예민해	-11.0326
▁그렇겠지	-11.0334
▁끝나서	-11.0335
거같아	-11.0338
하더라	-11.0338
▁연기	-11.0343
▁비교하면	-11.0351
▁합의	-11.0352
한대	-11.0353
▁자산	-11.0353
▁수영	-11.0355
드려야지	-11.0357
▁기념	-11.0361
▁어른	-11.0363
▁변변	-11.0367
▁짜증이나	-11.0367
▁택시	-11.037
▁나빴어	-11.037
▁늦기	-11.037
▁옳은	-11.037
▁인맥	-11.037
▁피아노	-11.037
▁망설여져	-11.037
▁들켜	-11.037
▁마땅히	-11.0371
▁없으셔	-11.0372
▁옮기	-11.0372
▁꺼려져	-11.0373
▁이기적인	-11.0375
▁가능성	-11.0376
▁있었는지	-11.0376
▁까먹	-11.0377
▁방식	-11.0378
▁느껴지는	-11.0378
▁요청해봐야겠어	-11.0378
주셨으면	-11.0379
▁편안해졌어	-11.0379
▁실패하	-11.0382
▁돌아보	-11.0383
▁끔찍해	-11.0383
▁떠오르지	-11.0385
▁않았다고	-11.0387
▁우울감	-11.0388
▁집중하는	-11.039
▁노력하려고	-11.0392
당하게	-11.0393
▁하시	-11.0397
▁어린데	-11.0399
▁인정해	-11.0399
▁힘들다는	-11.04
▁커닝	-11.0402
▁나더러	-11.0405
▁받았다고	-11.0405
▁빠듯한	-11.0409
구하고	-11.0412
▁귀찮은	-11.0419
▁부분에	-11.042
▁이웃	-11.0421
라는데	-11.0422
▁이직한	-11.0423
▁배웠	-11.0423
▁문제점	-11.0424
▁술이	-11.0426
▁않겠지만	-11.0429
▁인터넷으로	-11.0429
▁드려	-11.0431
▁말았어야	-11.0435
▁그니까	-11.0435
▁입원한	-11.0438
▁승진에서	-11.0439
▁가난하	-11.044
▁회복할	-11.0441
▁말해보고	-11.0442
▁빈	-11.0443
▁울기	-11.0446
▁하실	-11.0446
▁케이크	-11.0447
▁부담감	-11.0453
▁집중해	-11.0456
음	-11.0458
▁해봐야겠다	-11.046
▁챙겨주지	-11.0464
▁스스로에게	-11.0471
▁신랑이	-11.0474
▁공감	-11.0477
▁대들	-11.048
▁실직	-11.0497
▁불편하다	-11.0505
▁잡을	-11.0505
▁털어놔야겠	-11.0509
해주지	-11.0509
▁굴	-11.051
▁물어보지	-11.0516
▁행복하	-11.0516
▁방문해	-11.0521
되지	-11.0522
▁벗이	-11.0524
▁편안	-11.0531
▁빚만	-11.0531
▁척하고	-11.0532
▁경	-11.0538
▁충격적이	-11.0539
▁비교하는	-11.0547
▁공장에	-11.0547
▁하도	-11.0548
▁들으	-11.0549
▁아프다는	-11.0559
▁인턴	-11.0564
▁생길까	-11.0573
▁다가오니	-11.0574
▁가격이	-11.0581
▁없어지니	-11.06
▁보내면	-11.0611
▁퇴직금이	-11.0613
▁겨워	-11.0616
▁황당해	-11.0619
▁주는데	-11.0621
거지	-11.0624
▁심	-11.0625
▁감동	-11.0633
으려고	-11.0633
▁축하해	-11.0634
일세	-11.0642
▁씁쓸하	-11.065
▁통증	-11.0657
▁어울릴	-11.0658
▁보약	-11.0661
▁즐겁지	-11.0662
▁돈에	-11.0667
▁퇴원하	-11.0677
▁걱정되	-11.068
임	-11.0682
▁주장	-11.0683
▁금액이	-11.0685
▁운영	-11.0685
▁뇌졸중	-11.0686
▁끝날	-11.0691
▁험담하	-11.0691
▁닮아	-11.0693
▁돕고	-11.0693
▁마침	-11.0693
▁빌릴	-11.0693
▁역겨워	-11.0693
▁꾸미	-11.0693
▁도시락	-11.0693
시름	-11.0693
▁만만치	-11.0693
▁돈벌이	-11.0693
▁부모로서	-11.0694
▁청년	-11.0695
▁거짓	-11.0696
▁여유로운	-11.0696
▁들었는지	-11.0697
▁밤마다	-11.0697
▁놓여	-11.0699
▁서비스	-11.0701
▁흘리	-11.0701
▁빼놓고	-11.0704
▁손님이	-11.0704
▁내색	-11.0704
▁바르	-11.0706
▁보냈는데	-11.0706
▁동기들과	-11.0708
▁걸렸다는	-11.0714
▁동기에게	-11.0716
▁물려주	-11.0718
▁들으려고	-11.072
▁불쾌해	-11.0721
▁식구들이	-11.0721
▁만사	-11.0721
▁나오네	-11.0722
▁생겼	-11.0722
▁감당할	-11.0723
▁끼치	-11.0724
▁사느라	-11.0724
▁될까봐	-11.0726
▁대비해	-11.0726
▁구청에	-11.0726
▁들어오지	-11.0729
▁회사생활	-11.0729
▁돈인데	-11.0733
▁수준	-11.0736
▁아버지와	-11.0737
▁잊어버리고	-11.0739
▁움직여	-11.0742
▁여쭤봐야겠	-11.0742
▁시대에	-11.0742
▁하래	-11.0742
▁벌어다	-11.0743
▁정리해고	-11.0748
▁고민해봐야겠어	-11.0748
▁결정할	-11.0758
▁지내다	-11.0759
▁옮겨	-11.0763
▁마셨	-11.0764
▁예정	-11.0764
▁한순간	-11.077
▁들어주는	-11.0774
▁도와줬	-11.0775
▁모른다는	-11.0776
▁쳐	-11.0778
▁가니	-11.0782
▁야근이	-11.079
▁복지관에	-11.079
▁알아야	-11.079
▁동창회에	-11.079
▁자식과	-11.0791
▁지원할	-11.0794
▁살아갈지	-11.0802
▁존중하	-11.0807
▁피하	-11.0814
▁신장	-11.0815
▁한심하	-11.0819
▁걱정되는	-11.0819
▁서울에	-11.0829
▁이래서	-11.083
▁말하는데	-11.0832
▁경력이	-11.0833
▁도중	-11.0833
▁꾸	-11.0848
▁해결이	-11.0863
▁존중해	-11.0865
마	-11.0869
터	-11.0872
▁첫째	-11.0872
▁때에	-11.088
▁숨기는	-11.088
▁하루라도	-11.0882
▁고생하고	-11.0883
▁그러더라	-11.0893
▁이대로라	-11.0894
▁어제까지	-11.0895
▁시작하는	-11.0895
▁죄송하	-11.0899
▁때리는	-11.0901
▁되었다	-11.0902
▁통장에	-11.0903
▁요구해	-11.0903
▁손님	-11.0908
렸는데	-11.0913
▁친정에	-11.0915
하실	-11.0927
새	-11.0928
너무	-11.0929
▁말야	-11.093
▁말래	-11.0938
▁모르겠어서	-11.0949
▁취업했어	-11.095
▁보여드리	-11.0952
▁민망해	-11.0952
▁장례식장에	-11.0954
▁지속	-11.0955
▁떠올라	-11.0956
▁갱년기라	-11.096
▁알았으	-11.0963
▁떨어지니	-11.0966
하기엔	-11.0967
▁젊은이들	-11.0969
▁손가락	-11.0977
▁비상금	-11.0978
▁끼니	-11.098
▁대응	-11.0981
▁극복하	-11.0992
▁찾아와	-11.0993
▁한탄	-11.0994
▁그들	-11.0996
이지	-11.1005
▁정시	-11.1014
▁해봐	-11.1015
▁시장에	-11.1018
년이면	-11.1019
▁도둑	-11.1022
▁출근하는	-11.1023
▁소리로	-11.1023
▁장례	-11.1025
▁똑바	-11.1026
▁밝은	-11.1026
▁뱃살	-11.1026
▁읽는	-11.1026
▁갑작스러운	-11.1026
▁바랄	-11.1026
▁활력	-11.1026
▁조그	-11.1026
▁잘해줘	-11.1027
▁만족스러운	-11.1027
▁취약해	-11.1028
겠다	-11.103
▁물려줄	-11.1033
▁길러	-11.1034
▁위주로	-11.1036
▁피운	-11.1039
▁조치	-11.1039
▁나오니	-11.1045
▁결혼기념일	-11.1046
▁지나간	-11.1048
▁동창이	-11.1049
▁피웠어	-11.105
▁터져	-11.105
▁마련할	-11.1051
▁성실하게	-11.1052
▁만들어야	-11.1053
▁어떨지	-11.1057
▁이겨	-11.1058
▁뛰어	-11.1061
▁계시	-11.1064
▁그만둔	-11.1067
▁챙겼	-11.1069
▁돌봐	-11.1069
▁퇴직하면	-11.107
▁상담센터에	-11.1071
▁피우고	-11.1072
▁지났	-11.1074
▁생겼다고	-11.1076
운이	-11.1077
▁울면	-11.1077
▁그러는데	-11.1078
화	-11.108
▁어색하	-11.108
▁바뀌어	-11.1081
▁것과	-11.1083
▁때린	-11.1083
▁은퇴한	-11.1084
▁통하지	-11.1085
▁허무하고	-11.1086
▁살자고	-11.1092
▁다음번에	-11.1094
▁감정에	-11.1094
▁비교되	-11.1094
▁조심해야	-11.1095
▁피로	-11.1095
▁취해서	-11.1101
▁가지면	-11.1102
▁도망	-11.1105
주셨어	-11.1107
▁공부하는데	-11.1117
있는	-11.112
▁창피	-11.112
실까	-11.1123
▁줄일	-11.1125
▁우리나라	-11.1127
▁비통하	-11.113
▁분담	-11.113
▁보이기	-11.1136
▁전해	-11.1138
▁마련해야	-11.1141
▁정해야	-11.1141
▁나서서	-11.1142
▁집안에서	-11.1142
▁시장	-11.1145
▁고소	-11.1149
▁상담사	-11.1154
▁알려주고	-11.1154
▁치는	-11.1165
▁되어야	-11.1166
▁얘기해야	-11.1168
▁문화	-11.1169
▁놀자	-11.1169
▁친해지기	-11.1171
▁시기에	-11.1174
▁해줘야지	-11.1184
▁지긋지긋하	-11.1189
▁척도	-11.119
▁일어나지	-11.1192
▁재촉	-11.1192
▁때로	-11.1194
할까봐	-11.1202
▁다가가야	-11.1203
▁시한부	-11.1205
▁아부	-11.1206
▁간섭해	-11.1209
▁병실에	-11.121
값	-11.1213
▁언니만	-11.1222
▁할까봐	-11.1226
청	-11.1229
▁죄책감에	-11.1231
▁회장	-11.1237
▁갖는	-11.1239
▁달라는	-11.1243
▁주동자	-11.1245
▁생각하는지	-11.1246
▁심각하	-11.1247
▁할걸	-11.1248
▁지출이	-11.125
으라고	-11.1253
▁분들	-11.1255
▁조원들	-11.1256
▁회	-11.1264
▁해볼래	-11.1269
▁타는	-11.1271
▁정상적	-11.1273
▁보내주	-11.1273
▁사주면	-11.1275
미리	-11.1277
으러	-11.128
▁많으면	-11.1288
▁업체	-11.1288
깐	-11.1292
▁다정하	-11.1294
▁열고	-11.1297
했어야	-11.1304
▁곤란해	-11.1316
▁안쓰럽	-11.1317
▁극복	-11.1324
▁자신만	-11.1336
▁해왔	-11.1337
▁힘들어져	-11.1343
▁느꼈	-11.1345
▁여자애	-11.1346
▁지내기	-11.1347
▁대상이	-11.1354
▁행복하다	-11.1361
▁끼치는	-11.1362
▁보내지	-11.1364
텐	-11.1365
▁취약한	-11.1366
▁친했	-11.1367
▁일까지	-11.137
▁누리	-11.1371
▁뒤늦게	-11.1371
▁이곳저곳	-11.1371
▁하루아침	-11.1371
▁로또	-11.1371
▁버리	-11.1371
▁쓰이네	-11.1371
▁잃어버린	-11.1372
▁생각중이야	-11.1372
▁화장품	-11.1372
▁혹	-11.1373
▁같애	-11.1376
▁해야할	-11.1377
▁기획안	-11.1377
▁마실	-11.1379
▁떠나는	-11.1381
▁상관없이	-11.1381
▁떨어지니까	-11.1384
▁행복하지	-11.1384
▁불행하게	-11.1385
▁없냐고	-11.1387
▁그런가봐	-11.1389
▁금리	-11.1391
▁웃는	-11.1393
▁알려준	-11.1395
▁섭섭	-11.1395
▁불쌍하고	-11.1396
▁주민센터에	-11.1397
▁쓰기	-11.1404
▁황혼이혼	-11.1405
▁공부하라고	-11.1413
▁물어봤어	-11.1417
▁지키고	-11.1417
▁사건	-11.1418
▁문과	-11.142
▁다가와서	-11.142
▁품	-11.1425
▁얘기하려고	-11.1428
▁아프게	-11.1432
▁심해질	-11.1436
▁아이한테	-11.1438
▁체력도	-11.1439
▁그렇다	-11.1439
▁하길래	-11.144
▁오는데	-11.1441
▁나아지는	-11.1446
▁노년기	-11.1447
▁잘하면	-11.145
▁못하면서	-11.1451
스러울	-11.1456
▁왔으면	-11.1457
▁못한다는	-11.1462
▁먹고살	-11.1469
▁요구하는	-11.1471
▁재발	-11.1471
▁고독	-11.1473
▁보이면	-11.1475
▁부하직원	-11.1477
▁넘어서	-11.1481
▁승진했어	-11.1481
▁떠	-11.1483
▁들어오	-11.1483
▁사랑하고	-11.149
▁아니었나	-11.1492
▁사나	-11.1496
▁건강해질	-11.1498
▁순서	-11.1501
▁올릴	-11.1502
해줄	-11.1506
▁이틀	-11.1511
▁동기들이	-11.1518
▁동네에	-11.1521
▁운	-11.1521
놔야겠	-11.1531
▁망치	-11.1531
직	-11.1535
▁배려하	-11.1535
▁찾아볼까	-11.1537
해봤어	-11.1538
▁생각하나	-11.1541
▁사람보다	-11.1543
▁가다가	-11.1545
▁발목	-11.155
▁이벤트	-11.155
▁속에	-11.1556
▁받아봐야	-11.156
▁방안	-11.1561
▁수술해야	-11.1564
▁미안했	-11.1566
▁병실	-11.1568
▁회복이	-11.1568
▁했	-11.1578
▁어른들	-11.1581
되어서	-11.1583
▁연락할	-11.1584
토	-11.1585
시간	-11.1587
▁목돈	-11.1593
▁직장생활을	-11.1594
▁적성	-11.1602
▁사과해야	-11.1605
▁주기적	-11.1609
▁칭찬해	-11.1612
▁지친	-11.1614
볼	-11.1615
▁사달라	-11.1616
▁필요로	-11.1616
▁취미로	-11.1617
았던	-11.1617
▁자제	-11.1617
트	-11.1621
▁조사	-11.1622
▁부도	-11.1624
▁초기라	-11.1625
▁문제지	-11.1626
▁돌봐주	-11.1627
▁먹게	-11.163
▁사람인지	-11.1631
▁반대해	-11.1633
▁한때	-11.1637
▁독립해야	-11.1643
▁제주도	-11.1643
▁위축	-11.1651
▁만나야	-11.1652
▁부담돼	-11.1658
▁해보면	-11.1667
▁허전하	-11.1681
▁운동할	-11.1683
▁수행평가	-11.1686
▁사준	-11.1691
▁힘들었을	-11.1695
▁불우	-11.1696
▁내기	-11.1698
▁광고	-11.1698
▁나간	-11.1703
▁부족	-11.1706
▁바꾸	-11.1706
▁되겠다	-11.1707
▁가능한	-11.1708
▁흡연	-11.1712
으	-11.1715
▁모자란	-11.1716
▁징계	-11.1716
▁드려야	-11.1717
▁언제든	-11.1717
▁절약	-11.1718
▁나아져	-11.1719
▁자신해	-11.172
이래	-11.1723
▁바쁠	-11.1725
들한테	-11.1726
▁중년이	-11.1728
▁토익	-11.1728
▁학자금	-11.1728
▁나누는	-11.1728
▁나쁘고	-11.1728
▁떨면	-11.1728
▁묻는	-11.1728
▁아등바등	-11.1728
▁쳤어	-11.1728
▁청첩장	-11.1728
▁개념	-11.1728
▁주식투자	-11.1728
▁여유로워	-11.1728
▁멀어질까	-11.173
▁국민연금	-11.173
▁노동력	-11.1731
▁이혼할	-11.1732
▁수학여행	-11.1732
▁연락처	-11.1733
▁키워야	-11.1733
▁화목하	-11.1733
법	-11.1734
▁생명	-11.1735
▁명예	-11.1736
▁없어졌	-11.1736
▁아프셔서	-11.1737
▁가끔씩	-11.1738
▁혼수	-11.1739
▁두렵네	-11.1739
▁돌봐줄	-11.174
▁가사	-11.1741
▁한창	-11.1742
▁인간관계에	-11.1743
▁같지만	-11.1748
▁급식	-11.1749
▁큰일이네	-11.175
▁편하지	-11.1751
받고	-11.1757
▁다행이라	-11.1758
▁보내려고	-11.1759
▁거라서	-11.1759
▁됐거든	-11.1759
▁드리려고	-11.1765
▁사과하려고	-11.1765
▁주름	-11.1769
▁자기만	-11.1771
▁관두고	-11.1771
▁물리치료	-11.1771
▁자신한테	-11.1776
▁비교하지	-11.178
▁표시	-11.1785
▁생각할까	-11.1786
▁착각	-11.1791
▁창피하고	-11.1791
▁하겠지만	-11.1794
▁단어	-11.1795
받아서	-11.1797
▁돌아오면	-11.1798
▁어리	-11.1798
▁유대감	-11.18
▁시켰어	-11.18
▁빌렸	-11.1806
▁단지	-11.1807
▁하자	-11.1811
▁감이	-11.1812
▁대화하기	-11.1818
▁듯한	-11.1818
▁청혼	-11.1819
▁사무실	-11.1819
▁퇴직했어	-11.182
▁건의해	-11.1821
▁보냈	-11.1824
▁욕하고	-11.1825
▁비슷하	-11.1831
▁도와주면	-11.1834
▁말대로	-11.1836
▁선택해야	-11.1838
▁늙었다	-11.1838
▁털어놓아	-11.1842
▁건망증이	-11.1842
▁일이라고	-11.1849
▁아줌마	-11.185
▁이모	-11.1851
▁중학생	-11.1853
▁유튜브	-11.1859
낸	-11.1861
▁사랑한다	-11.1861
▁마트에	-11.1862
▁고민이네	-11.1873
▁두는	-11.188
▁대회	-11.1884
▁백내장	-11.1885
▁차마	-11.1888
▁높여	-11.1892
▁있는걸	-11.1894
이상	-11.1899
▁아픔	-11.1901
▁당하지	-11.1901
▁다니게	-11.1901
▁운영하는	-11.1903
▁즐겨	-11.1917
▁욕하는	-11.192
▁좋았	-11.193
▁일이지만	-11.1931
▁사과할	-11.1931
▁포기했	-11.1936
▁어려우니	-11.1938
▁서글프	-11.1948
▁주시는	-11.1949
▁겪어	-11.1949
▁스펙이	-11.1952
▁누워서	-11.1952
▁약해지	-11.1958
▁돌리	-11.1959
▁않으면서	-11.1964
▁독감	-11.1966
▁넘어갔	-11.1972
▁식당에	-11.198
▁반복해	-11.1981
▁괴롭힐	-11.1984
▁집안일은	-11.1986
코	-11.199
▁바다	-11.1994
▁떠나가	-11.1994
▁쉽	-11.2008
▁생각과	-11.2008
▁감당하기	-11.201
▁찾아보는	-11.2013
▁사망	-11.2018
오래	-11.2019
▁검색	-11.2019
▁무시당하	-11.2019
▁기울여	-11.2021
▁말인데	-11.2023
▁얄미워	-11.2025
해준	-11.2026
▁걱정된다	-11.2029
▁일이니	-11.2037
▁말해볼	-11.2042
듯이	-11.2047
▁황	-11.2047
▁마다	-11.2048
▁다투는	-11.2049
▁멀어졌	-11.2051
▁꺼리	-11.2053
▁가장이	-11.2058
▁짓고	-11.206
▁있었나	-11.206
▁신혼	-11.2062
랴	-11.2064
▁않지	-11.2066
▁오래됐	-11.2067
▁내려	-11.2071
▁이용	-11.2074
▁놀기	-11.2075
▁장례식	-11.2076
▁관리해야	-11.2076
▁당당	-11.2077
▁타인	-11.2079
해야겠지	-11.2085
▁우울해지는	-11.2086
▁자격증이	-11.209
▁안절부절못하	-11.209
▁혼란스러운	-11.2092
▁해주면	-11.2092
▁해결하는	-11.2095
▁뒤집어	-11.2096
▁낯선	-11.2098
▁다쳤는데	-11.2098
▁외도	-11.2098
▁주택	-11.2098
▁퍼센트	-11.2098
▁충돌	-11.2099
▁오늘까지	-11.2099
▁쓰러진	-11.2099
▁밀린	-11.2099
▁모양일까	-11.2099
▁꿈꾸	-11.2099
▁떠넘겨	-11.2099
▁평균	-11.21
▁칠십	-11.21
▁겉으로	-11.2102
▁알코올	-11.2104
▁이것밖에	-11.2105
▁맞았는데	-11.2106
▁참았어	-11.2107
▁보려	-11.2107
▁방향으로	-11.2111
▁걔한테	-11.2114
▁못살게	-11.2114
▁울어	-11.2115
▁걱정해	-11.2115
▁앞길	-11.2116
▁경찰	-11.2117
▁인정받지	-11.212
▁생기니까	-11.212
▁상황인데	-11.2121
▁끊었어	-11.2122
▁노년기에	-11.2131
▁빠지지	-11.2132
▁원해	-11.2133
▁있던데	-11.2133
▁말했더니	-11.2137
▁안되	-11.2138
▁인터넷에	-11.2141
▁시간씩	-11.2142
▁나중	-11.2143
▁홍보	-11.2143
▁몰라주는	-11.2143
▁사러	-11.2145
▁신체적	-11.215
▁아팠어	-11.2152
▁자책감	-11.2154
▁따돌림당하는	-11.2157
▁소외되는	-11.2159
▁씨는	-11.216
▁괴롭다	-11.216
▁남이	-11.2162
▁되거든	-11.2165
▁다가가야겠어	-11.2166
▁시장이	-11.2168
버리고	-11.217
▁대장암	-11.217
▁달라지는	-11.2173
▁지내야겠어	-11.2174
▁말할까	-11.2175
▁유지해야	-11.2175
▁안쓰럽고	-11.2176
▁귀찮다	-11.2176
▁실수하지	-11.2177
▁교수님이	-11.2181
▁일에서	-11.2184
▁자퇴	-11.2185
점	-11.2186
▁먹다가	-11.2189
▁부르는	-11.2191
▁취급해	-11.2195
▁해줬는데	-11.2196
르	-11.2198
▁달라진	-11.22
▁정규직	-11.2201
▁누워있	-11.2201
▁쓰는데	-11.2208
▁취해	-11.2208
▁옆집에	-11.2209
▁파혼	-11.2212
▁재미없	-11.2212
▁사라지고	-11.2213
▁늘어서	-11.2215
▁자금으로	-11.2218
센터에	-11.2219
▁두렵지	-11.2219
▁거였는데	-11.2226
▁청할	-11.2229
▁공고	-11.2231
▁외로웠	-11.2232
▁공원	-11.2232
▁싫을	-11.2234
▁재밌는	-11.2235
▁했냐	-11.2238
▁악	-11.2242
▁맞을까	-11.2244
▁긴	-11.2245
▁학과에	-11.2248
▁체중이	-11.2252
▁태도에	-11.2253
▁건강해지	-11.2256
▁잘하는지	-11.2261
스럽게	-11.2266
▁기념일	-11.2268
체	-11.2268
▁줬	-11.2269
▁고쳐	-11.227
▁친해지는	-11.2272
▁의지하는	-11.2275
▁수업에	-11.2275
▁다가오는	-11.2278
▁말라	-11.2284
▁빠진	-11.2284
▁생각할지	-11.2285
▁하나뿐인	-11.2303
▁것조차	-11.231
▁잘해야지	-11.2313
▁걸렸	-11.2316
▁구조조정	-11.2323
▁연예인	-11.2326
▁물건이	-11.2327
▁많다는	-11.2327
▁중요해	-11.2331
▁외국	-11.2337
▁되찾	-11.2338
▁그만둬	-11.2339
▁비웃는	-11.2344
▁얘기하다	-11.2349
▁내려놓	-11.2351
오던	-11.2362
▁낮에	-11.2364
▁느려	-11.2373
▁잃지	-11.2374
▁원망스럽	-11.2379
▁걸리는	-11.2384
▁요청할	-11.2404
▁나아졌	-11.2405
▁예민하	-11.2408
▁양보	-11.241
▁훔쳐	-11.2413
듯	-11.2419
▁늘고	-11.2422
▁좋으면	-11.2424
▁곳이라	-11.2424
▁싸우셨	-11.2428
▁결혼했는데	-11.2429
▁약해져	-11.2429
▁않으려	-11.243
▁내년	-11.243
용	-11.2431
봐서	-11.2431
▁귀찮	-11.2433
▁원인이	-11.2435
▁살아있	-11.2436
▁안전하	-11.2441
▁지식	-11.2448
▁술자리	-11.2451
이지만	-11.2457
▁규칙	-11.2459
▁지원하는	-11.2464
▁잦은	-11.2465
▁결	-11.2467
▁그분	-11.2468
▁걔네들	-11.2476
▁데서	-11.2476
▁엄마아빠	-11.248
▁단둘이	-11.2483
▁룸메이트	-11.2483
▁입맛	-11.2483
▁노트북	-11.2483
▁쉬어야	-11.2483
▁멋대로	-11.2484
▁한평생	-11.2484
▁질러	-11.2484
▁소득수준	-11.2485
▁심란해	-11.2486
▁평범한	-11.2486
▁신입사원이	-11.2487
▁죄스러워	-11.2488
▁정확한	-11.2489
▁좋긴	-11.2492
▁느긋한	-11.2493
▁방귀	-11.2493
▁미안하다	-11.2494
▁지인들과	-11.2494
▁곤란한	-11.2495
▁확실한	-11.2495
▁내용이	-11.2495
▁이기	-11.2495
▁문득	-11.2497
▁불안함	-11.2497
▁사줬어	-11.2498
▁강한	-11.2498
▁당황해	-11.2499
▁간섭하셔	-11.2503
▁그렇네	-11.2503
해진	-11.2503
▁선배한테	-11.2504
▁난리야	-11.2504
▁꺼냈	-11.2506
▁참아야지	-11.2507
▁인식	-11.2507
▁지난달에	-11.2509
▁나올까	-11.2511
▁가지려고	-11.2512
▁넘었어	-11.2513
▁놔	-11.2513
▁주었는데	-11.2514
▁폭력이	-11.2518
▁해줬	-11.252
▁여자친구한테	-11.252
▁형에게	-11.2521
▁누구와	-11.2523
▁내면	-11.2526
▁들킬까	-11.2526
▁술이라	-11.2527
▁있어야지	-11.253
▁만족해	-11.2531
▁빠지게	-11.2533
▁챙기면	-11.2538
▁끊지	-11.2541
▁가볼	-11.2545
▁성가시게	-11.2545
▁큰아들이	-11.2547
하시는데	-11.2547
▁마시지	-11.2552
▁분해	-11.2557
▁무리하지	-11.2558
▁챙겨줘야	-11.256
▁가난해	-11.2563
▁되려	-11.2566
▁맺	-11.2566
소리를	-11.2567
▁죽어야	-11.2569
▁달부터	-11.2577
▁정상	-11.2578
▁돌아가고	-11.2579
▁항의	-11.2579
▁태어나서	-11.2579
▁위로받	-11.2582
▁저축해	-11.2583
▁불면증	-11.2586
▁상처받아	-11.2589
▁동네에서	-11.2595
▁날까	-11.2596
▁가면서	-11.2597
▁추	-11.2602
약	-11.2606
▁이겨내고	-11.2619
▁공부하면	-11.262
▁얘기하기	-11.2623
주질	-11.2625
▁위치	-11.2629
▁애들과	-11.2635
▁때보다	-11.264
▁대화하면	-11.2642
▁서울	-11.2645
▁골라	-11.2647
▁강요해	-11.2658
▁비교해서	-11.2659
모로	-11.266
▁쓰러지	-11.2664
▁때리	-11.2664
▁한국	-11.2668
▁아들하고	-11.2669
▁어울리기	-11.2671
▁끊으라	-11.2673
▁힘들어해	-11.268
▁늘어	-11.2681
▁않는다	-11.2682
▁걔네	-11.2683
▁내더라고	-11.2686
▁직속	-11.2687
▁심리	-11.269
▁시험인데	-11.2691
▁우울했	-11.2695
▁금전	-11.2698
▁마신	-11.27
▁양가	-11.27
▁있었다	-11.2708
▁밀리	-11.2718
▁있기는	-11.2723
▁부탁해서	-11.2725
▁해결되	-11.2732
▁마라톤	-11.2741
▁교실에	-11.2742
▁자서	-11.2746
▁병원으로	-11.2747
▁바라고	-11.2755
▁가던	-11.2759
▁없었다	-11.2761
▁놓을	-11.2763
▁여겨	-11.2764
▁결혼하자	-11.2765
▁키웠	-11.2768
▁절	-11.2769
▁복수	-11.2779
▁수업이	-11.2779
▁초대	-11.2781
▁신청해	-11.2788
▁지하철	-11.2788
▁지나고	-11.279
▁값	-11.2794
▁변경	-11.2795
▁기획	-11.2795
▁태어날	-11.2801
만이라	-11.2801
▁겹쳐	-11.2803
▁노래방	-11.2803
▁팀원이	-11.2805
▁봤자	-11.2805
▁하신	-11.2805
▁버려	-11.2809
▁병상에	-11.281
▁느껴서	-11.2818
▁추석	-11.2822
▁가계	-11.2827
▁결정해야	-11.2827
전	-11.2828
▁머릿속	-11.2829
▁허무하	-11.283
▁꼼꼼하	-11.2837
▁실수할까	-11.2845
▁소소	-11.2849
▁펴	-11.2851
▁비웃	-11.2851
▁이해하고	-11.2856
▁바람피	-11.2857
▁상관	-11.2861
▁부럽기	-11.2865
▁들켰	-11.2865
▁음식들	-11.2866
▁지켜야	-11.2868
▁면접이	-11.2869
▁시댁에	-11.2869
▁가깝	-11.2871
▁괴로운	-11.2877
▁아주머니	-11.2879
▁뇌	-11.288
▁누명	-11.2883
▁뒤통수	-11.2883
▁뒷말	-11.2883
▁바뀐	-11.2883
▁불필요	-11.2883
▁빠른	-11.2883
▁시스템	-11.2883
▁캠핑	-11.2883
▁트라우마	-11.2883
▁프레젠테이션	-11.2883
▁학창	-11.2883
▁기다릴	-11.2883
▁맛집	-11.2883
▁좋으련만	-11.2883
▁활기	-11.2883
▁착실	-11.2883
▁추스르	-11.2883
▁몇몇	-11.2883
▁편견	-11.2884
▁언성	-11.2886
▁복	-11.2886
▁되었는지	-11.2887
▁떠올리	-11.2887
▁걸렸대	-11.2887
▁났지	-11.2887
▁배달	-11.2887
▁세계	-11.2889
▁지원받	-11.2891
▁멀쩡한	-11.2892
▁불편함	-11.2892
▁못나	-11.2893
▁무능한	-11.2893
▁배우자와	-11.2895
▁식구들에게	-11.2895
▁보일까	-11.2895
▁깜빡	-11.2895
▁보이니	-11.2895
▁엄마로서	-11.2897
▁떠났는데	-11.2897
▁못했을까	-11.2898
▁편해질	-11.2899
▁얘기해볼까	-11.2901
▁소홀했던	-11.2902
▁한약	-11.2904
▁만들었어	-11.2907
▁방어적인	-11.2907
▁생각했었는데	-11.2909
▁최선	-11.291
▁너무해	-11.291
▁봐야겠지	-11.2912
▁막막한	-11.2912
▁어머니한테	-11.2913
▁살아오	-11.2913
▁지냈는데	-11.2916
▁간만	-11.2916
▁편치	-11.2925
▁도와주려고	-11.2925
▁딸들	-11.2926
▁붙었어	-11.2932
▁늙는	-11.2933
▁공부하려고	-11.2933
▁금주	-11.2933
▁문의	-11.2934
▁자격이	-11.2936
▁건강검진에서	-11.2937
▁싶어져	-11.2938
▁저러	-11.2938
▁배드민턴	-11.2941
▁불행하다고	-11.2941
▁계속해야	-11.2944
▁노리	-11.2945
▁학원에서	-11.2946
▁싫다는	-11.2946
▁오르고	-11.2946
▁않더라	-11.2948
▁가까워지	-11.2949
▁팔이	-11.295
▁환경이	-11.2951
▁말할래	-11.2951
▁잊을	-11.2958
▁살아가지	-11.296
▁신고해	-11.2961
▁대출이	-11.2962
▁이혼했는데	-11.2963
▁담임선생님이	-11.2965
▁노	-11.2965
▁했었거든	-11.2967
▁낙담했	-11.2971
▁모으는	-11.2972
▁인터넷에서	-11.2973
▁노래방에	-11.2975
▁작아지	-11.2977
▁부담되	-11.2979
▁관심사	-11.299
▁물가	-11.2991
▁않으시	-11.2993
▁넘겼	-11.2994
▁남에게	-11.2999
▁암울해	-11.2999
▁고마워서	-11.2999
▁괴롭히는데	-11.3
▁은행에서	-11.3007
▁시험지	-11.3008
▁부질없	-11.3009
▁스	-11.3018
▁쏟아	-11.3018
▁불안했	-11.3026
▁채워	-11.3028
▁클	-11.303
▁걱정되기	-11.3031
▁정기	-11.3032
무	-11.3033
▁우울해지	-11.3033
▁받아줄	-11.3034
▁지내면	-11.3035
▁동아리에	-11.3038
▁사니까	-11.3042
▁준비해야지	-11.3047
▁말썽	-11.3048
쯤	-11.3048
▁회의적이	-11.305
▁작가	-11.3054
▁통과	-11.3056
▁직장생활	-11.3057
▁자랑하는	-11.3059
▁센터에서	-11.3063
▁오라	-11.3063
▁노후준비는	-11.307
▁상심	-11.3071
▁마주	-11.3072
▁상한	-11.3074
▁정식	-11.3075
▁상황은	-11.3076
▁당하니	-11.3082
▁노후는	-11.3094
▁바라보	-11.3098
▁불안하기	-11.3099
▁학폭위	-11.31
▁기다려야	-11.3104
▁체크	-11.3106
▁강	-11.3118
▁찬	-11.3129
▁생활하기	-11.3132
▁얻는	-11.3135
▁늦었	-11.3136
▁가시	-11.3137
▁버텨	-11.3139
▁친척이	-11.3139
▁결혼하지	-11.3139
왔으면	-11.314
▁때렸	-11.3142
▁시끄럽	-11.3142
절	-11.315
▁요가	-11.3162
▁행복했	-11.3168
▁군	-11.317
드는	-11.318
보겠다고	-11.3185
▁이혼이	-11.3189
▁카톡	-11.3193
▁사주	-11.3198
▁옆자리	-11.3201
▁심각해	-11.3207
▁직업은	-11.3209
▁실감	-11.3214
▁알아줄	-11.3216
▁편해졌	-11.3216
▁이혼하는	-11.3216
▁보이더라	-11.3218
▁음식점	-11.3225
▁양보하	-11.3225
▁돌아	-11.3228
▁낭비	-11.3238
▁달라질	-11.3239
▁떠났	-11.3242
▁잘살	-11.3243
▁다잡	-11.3243
▁내버려	-11.3244
▁지키는	-11.3246
▁얘기한	-11.3248
▁붙어	-11.3255
▁밝히	-11.3261
▁현장	-11.3261
▁주셔	-11.3262
▁당황스럽다	-11.3263
▁챙겨먹	-11.3267
▁소중하	-11.3268
▁다할	-11.3269
▁포기할	-11.327
▁참견	-11.3271
▁계발	-11.3271
▁비교돼	-11.3271
▁줄고	-11.3271
▁부렸	-11.3274
▁둘만	-11.3274
▁교육비	-11.3281
▁다음번	-11.3282
▁수습	-11.3282
▁건강해져	-11.3284
▁장래	-11.3284
▁죽을지	-11.3284
▁탓이	-11.3284
▁부동산에	-11.3285
▁피웠	-11.3286
▁것이라	-11.3289
▁기록	-11.3291
▁의논해	-11.3291
▁결혼하	-11.3292
▁잘못되	-11.3294
▁스트레칭	-11.3295
▁받아들일	-11.3296
▁강요하는	-11.33
▁기존	-11.33
▁돌봄	-11.33
▁맡겼	-11.33
▁메뉴	-11.33
▁엊그제	-11.33
▁오토바이	-11.33
▁부딪혀	-11.33
▁종류	-11.33
▁경쟁률	-11.33
▁설마	-11.33
▁유난	-11.33
▁부부싸움	-11.3301
▁우울함	-11.3302
▁이왕	-11.3302
▁미안함	-11.3303
▁대단한	-11.3303
▁와중에	-11.3304
▁바보같이	-11.3307
▁며칠째	-11.3307
▁풀었	-11.3309
▁억울했어	-11.3311
▁알아볼까	-11.3311
▁드리는	-11.3312
▁판매	-11.3312
▁끊겨	-11.3313
▁지내려고	-11.3315
▁가망	-11.3317
▁원만하	-11.3318
내서	-11.3323
▁자녀에게	-11.3326
▁조심해야겠어	-11.3327
▁따지고	-11.3328
▁좋아질까	-11.3331
▁살려야	-11.3331
▁놓았어	-11.3334
▁부양할	-11.3336
왔다고	-11.3337
▁벌어오는	-11.3338
▁볼지	-11.3339
▁고백했어	-11.334
성이	-11.334
▁이뤄	-11.334
▁밑에서	-11.3343
▁써주지	-11.3344
▁방법밖에	-11.3344
▁초조하네	-11.3347
▁할머니에게	-11.3347
▁과일	-11.335
▁화분	-11.3351
▁하시더라고	-11.3351
▁산부인과에	-11.3351
▁탓이라고	-11.3353
▁아니냐고	-11.3353
▁진학하고	-11.3353
▁소중	-11.3353
▁걱정스럽	-11.3354
봤어	-11.3355
▁애인에	-11.3357
▁의사한테	-11.3357
▁애랑	-11.3357
▁잡았	-11.336
▁건강한데	-11.3362
▁힘들까	-11.3366
▁기쁘지	-11.3366
▁무시하지	-11.3367
▁싸우다가	-11.3368
질환으로	-11.3369
▁취업하는	-11.337
▁도움받	-11.3371
하다는	-11.3372
▁고혈압에	-11.3373
▁다가가는	-11.3376
▁늘리	-11.3378
▁출근할	-11.3384
▁여력	-11.3384
▁일이니까	-11.3385
▁떠올라서	-11.3389
▁무리해서	-11.339
▁한다니까	-11.339
▁놀면	-11.339
▁할머니께	-11.3393
▁들어오고	-11.3394
▁해왔는데	-11.3399
▁친정엄마	-11.3405
▁길거리에	-11.3412
▁작	-11.3413
▁한다네	-11.3413
▁실망감	-11.3413
▁예민해져	-11.3418
▁받아야지	-11.342
▁철이	-11.3425
▁대상	-11.3434
▁신고하고	-11.3434
▁챙기기	-11.3439
▁되었다고	-11.344
▁키우면	-11.3441
▁써야지	-11.3443
▁기간에	-11.3446
▁낙이	-11.3452
▁형님	-11.3452
▁푼이	-11.3453
▁습관이	-11.3453
▁놀다가	-11.3456
▁주니까	-11.3458
▁놓	-11.346
▁놓아	-11.3462
▁정리해서	-11.3467
▁미워하는	-11.3474
▁놀렸	-11.3476
▁외로움이	-11.3477
▁키우기	-11.348
▁치료받	-11.3481
▁못했거든	-11.3484
▁삐	-11.3485
▁그치	-11.3485
▁사람이었는데	-11.3485
▁마흔	-11.3487
▁맞는데	-11.3487
▁가니까	-11.3493
▁그것보다	-11.3493
▁오르	-11.3496
▁골다공증	-11.3497
▁괜찮	-11.3501
▁돌렸	-11.3505
올	-11.3511
▁학교폭력에	-11.3511
▁동무	-11.3511
▁집중력	-11.3512
▁척해	-11.352
해주셨어	-11.3527
▁평범하	-11.3533
▁달리기	-11.3537
▁불안해져	-11.3539
▁알아봐	-11.354
▁사람만	-11.3541
▁선고	-11.3542
▁못된	-11.3545
▁지는	-11.3549
▁창피했	-11.355
▁정리해	-11.3553
▁늦어지	-11.3564
▁취하	-11.3568
▁살겠어	-11.357
▁꺼내기	-11.3572
▁잘해주는	-11.3573
▁기침이	-11.3575
▁부리는	-11.3575
▁에스엔에스	-11.3575
되니까	-11.3576
▁짝사랑하	-11.358
▁알려줘야	-11.3586
▁억울해서	-11.3586
▁미치	-11.3591
▁싸우기	-11.3594
▁계약이	-11.3597
▁좌절하	-11.3597
▁하셨	-11.3602
▁회사와	-11.3603
▁지치	-11.3609
▁역	-11.3611
▁먹으라	-11.3612
▁아파트에	-11.3616
▁남아있	-11.3619
▁무너져	-11.3621
▁헤어져야	-11.3626
▁교수님	-11.3626
찬	-11.3633
▁할수	-11.3636
▁지고	-11.3642
▁순간에	-11.3644
거라고	-11.3646
▁줄지	-11.3648
▁빠지는	-11.3648
인한	-11.365
적이	-11.3654
었다고	-11.3654
▁활동이	-11.3654
▁받았지	-11.3657
▁험담	-11.3657
▁조금이	-11.366
▁디자인	-11.3664
▁싸우면	-11.3677
▁데려다	-11.3681
▁뺏어	-11.3685
힌	-11.3686
▁헬스장	-11.3686
▁감소	-11.3691
▁걸릴까	-11.3694
▁잊어	-11.3696
▁비난하	-11.3708
▁멋지	-11.371
이라면	-11.3713
▁신문	-11.3714
▁줄어드니	-11.3717
▁간절	-11.3719
▁전달하	-11.3721
▁질병이	-11.3721
▁면접은	-11.3722
▁조급해	-11.3723
▁노력해볼	-11.3725
해야겠다	-11.3728
▁학년이	-11.373
▁야간	-11.3734
▁근육	-11.3734
▁머리카락	-11.3734
▁상견례	-11.3734
▁슈퍼	-11.3734
▁신혼여행	-11.3734
▁우습	-11.3735
▁못할망정	-11.3735
▁고개	-11.3735
▁경제활동	-11.3735
▁몇십	-11.3735
▁불이익	-11.3736
▁심적으로	-11.3737
▁총각	-11.3737
▁담보	-11.3738
▁수업시간에	-11.3738
▁망친	-11.374
▁부쳐	-11.3741
▁소송	-11.3741
▁화목한	-11.3741
▁풀어봐야겠어	-11.3743
▁괜찮을까	-11.3744
▁끝낼	-11.3746
▁회의적인	-11.3746
▁않으려면	-11.3747
▁찾아볼래	-11.3747
▁쓸쓸하네	-11.3748
▁임	-11.375
▁불행	-11.3753
▁빠졌어	-11.3754
▁찾았어	-11.3754
▁구조	-11.3754
▁알았거든	-11.3755
▁말씀드렸는데	-11.3756
▁텅	-11.3759
▁신경쓰	-11.3759
▁음주	-11.3761
▁기능	-11.3762
▁신체적으로	-11.3763
▁좋아하거든	-11.3763
▁헌신	-11.3764
▁써버렸어	-11.3765
▁걱정이지	-11.3767
▁가치관	-11.3768
▁최고야	-11.3768
▁환경에서	-11.3769
▁성공하지	-11.377
▁장만	-11.3772
▁가지는	-11.3773
▁손자에게	-11.3773
▁않으셨	-11.3776
▁해주려고	-11.3777
마땅한	-11.3779
▁누나에게	-11.378
▁부족한데	-11.3781
▁하겠다	-11.3785
▁뉴스에서	-11.3785
▁됐다고	-11.3787
그	-11.3788
▁인정받고	-11.3789
겠대	-11.379
▁동사무소에	-11.3791
▁말리지	-11.3794
▁돌려주	-11.3796
치료받고	-11.3796
▁남한테	-11.3797
▁답장이	-11.3798
▁입에	-11.3799
▁회복해야	-11.3803
▁못했다는	-11.3804
▁불가능해	-11.3804
▁부족하다고	-11.3806
▁듣는데	-11.381
▁상태에서	-11.3816
▁저러지	-11.3817
▁줄이	-11.3818
▁조심하	-11.3822
▁키웠어	-11.3824
반	-11.3825
▁먹고살아야	-11.3829
▁연애하는	-11.383
▁쓰려	-11.3832
▁위험하다	-11.3835
▁속상하지만	-11.3835
답	-11.3844
▁뭘까	-11.3846
▁비슷해	-11.3846
▁조심하고	-11.3848
▁이루고	-11.3849
▁까	-11.3849
▁만들지	-11.386
▁처가	-11.3866
▁뽑는	-11.3867
▁심하고	-11.3873
▁다툰	-11.3873
▁그래야지	-11.3878
▁다행인	-11.3878
▁나이만	-11.388
▁여가	-11.3884
▁문자로	-11.3884
▁흘러	-11.3885
▁차서	-11.3886
▁봤던	-11.3891
▁못하다	-11.3892
▁지친다	-11.3893
▁혼냈	-11.3895
▁형편에	-11.3895
▁않았어도	-11.3897
▁대학은	-11.3901
▁거란	-11.3903
▁젊어	-11.3904
▁청해	-11.3905
▁금	-11.3906
▁찾아올	-11.3909
▁혼날까	-11.391
▁교회	-11.3917
▁풀리는	-11.3918
▁그러기	-11.392
▁착하	-11.392
▁챙겨줄	-11.3922
▁그만하라	-11.3924
▁함께하는	-11.3929
▁아무한테	-11.393
▁정신없	-11.3933
▁지원금	-11.3943
줘야	-11.3943
▁털어	-11.3944
▁힘들었지	-11.3944
▁남기	-11.3945
▁다르	-11.3945
▁째	-11.3948
부	-11.3955
망해서	-11.3957
▁게임이	-11.3959
었다면	-11.3962
▁많은지	-11.3962
▁선택이	-11.3963
▁등록해	-11.3968
▁예뻐해	-11.3968
▁소외감이	-11.3973
▁모아두	-11.3973
증이	-11.3974
▁입양	-11.3974
▁나눠봐야	-11.3979
▁길로	-11.3981
▁관리하는	-11.3982
▁시작하면	-11.3992
▁지방에	-11.3995
▁상담이라	-11.4004
오는데	-11.4021
▁숨어	-11.4025
▁가져갔	-11.4026
복	-11.403
튼	-11.4033
▁방송	-11.4035
▁사랑이	-11.404
▁않을지	-11.4043
▁지나갔	-11.4044
▁잔고	-11.4046
▁놀다	-11.405
보아야겠어	-11.4053
▁지나가는	-11.4053
뿐	-11.4054
혼이	-11.4069
▁돌보기	-11.4071
었나	-11.4071
▁택배	-11.4071
안	-11.4073
▁지인들이	-11.4073
였으면	-11.4085
▁작성해	-11.4094
▁결심	-11.4101
▁취급하는	-11.4111
▁여름	-11.4113
▁그러면서	-11.4115
▁실망하	-11.4116
▁학교생활이	-11.4117
▁이끌어	-11.4118
▁막히	-11.4119
▁섞	-11.4123
▁신뢰할	-11.4125
▁친절	-11.4129
▁있으면서	-11.4139
▁당하면	-11.4142
▁병들	-11.4142
▁저금	-11.4145
▁봤을	-11.4148
▁어머님	-11.4152
▁한명	-11.4152
웠어	-11.4153
기까지	-11.4156
▁일이나	-11.4158
▁성희롱	-11.4159
▁한편으	-11.4165
▁후회할	-11.4165
▁실제	-11.4166
▁기업이	-11.4168
▁왕따시키는	-11.4168
▁비염이	-11.4168
▁깨달았	-11.4173
▁환갑	-11.4175
▁보내기	-11.4181
▁민원	-11.4182
▁간다	-11.4182
▁짧은	-11.4183
▁기저귀	-11.4189
▁끊임없	-11.4189
▁밤낮	-11.4189
▁어쩐	-11.4189
▁임플란트	-11.4189
▁진절머리	-11.4189
▁허심탄회	-11.4189
▁마주쳤	-11.4189
▁목숨	-11.4189
▁뒤처진	-11.4189
▁몸무게	-11.4189
▁예습	-11.4189
▁스무	-11.4189
▁만만하	-11.419
▁전화번호	-11.419
▁환불	-11.4191
▁마음고생	-11.4191
▁코앞인데	-11.4191
▁곱	-11.4192
▁자동차	-11.4192
▁협상	-11.4192
▁절차	-11.4192
▁쳐다봐	-11.4192
▁헛살았	-11.4192
▁가계부	-11.4192
▁농구	-11.4193
▁그러냐고	-11.4194
▁괜찮았는데	-11.4194
▁근사	-11.4195
▁최소한	-11.4196
▁똑같아	-11.4196
▁몸매	-11.4198
▁망설이	-11.4198
▁자란	-11.4198
▁단점	-11.4199
롭지	-11.4199
▁가라앉히	-11.4199
▁놀았	-11.42
▁어려서부터	-11.4201
▁많았거든	-11.4201
▁중요하니까	-11.4204
▁선에서	-11.4205
▁엄하게	-11.4205
▁사과드리고	-11.4206
▁예전만큼	-11.4206
▁겪었어	-11.4207
▁기분이라	-11.4208
▁왔는지	-11.4211
▁쓰러졌어	-11.4212
▁누나한테	-11.4213
▁자세하게	-11.4214
▁찾으려고	-11.4215
▁말해볼래	-11.4218
▁싶긴	-11.4218
▁대수	-11.4218
▁출근하기	-11.4219
▁시작하려고	-11.4225
▁벌리고	-11.4226
▁부딪히	-11.4226
▁불행하고	-11.4227
▁장면	-11.4231
▁말해줘	-11.4231
▁오빠에게	-11.4232
▁낙	-11.4232
▁벌리는	-11.4234
▁가난에	-11.4234
▁힘들면	-11.4235
▁극복해	-11.4237
▁표	-11.4237
▁바쁘	-11.4237
▁잔치	-11.4238
▁장난으로	-11.4242
▁웃음이	-11.4243
▁할텐데	-11.4244
▁구하지	-11.425
▁답답할	-11.425
▁모습으로	-11.4252
▁좋아지면	-11.4253
▁사과하라고	-11.4255
▁않는다면	-11.4256
▁대회에서	-11.4258
▁시작하기	-11.4259
해버렸어	-11.4259
▁나오더라	-11.4264
▁가발	-11.4265
▁화상	-11.4265
▁법이	-11.4266
▁조건이	-11.4267
▁후배들이	-11.4269
▁큰돈이	-11.4271
▁구입	-11.4271
때마다	-11.4273
▁좋아하니까	-11.4273
▁크지	-11.4278
▁억	-11.4279
▁해보지	-11.428
▁멀쩡	-11.4281
▁마음과	-11.4281
▁상실감이	-11.4286
▁받아볼	-11.4289
▁털어놔	-11.4294
▁이걸로	-11.4295
▁되더라	-11.4301
▁바라지	-11.4304
▁말해야겠	-11.4306
▁우울하기	-11.4308
▁복잡하	-11.4308
▁무리한	-11.4308
▁사니	-11.4311
주겠다고	-11.4313
▁예전과	-11.4314
▁예쁘고	-11.4318
▁실패로	-11.4318
▁들다	-11.4318
▁섭섭하	-11.432
▁고지혈증이	-11.432
▁든다고	-11.4325
▁다녀야지	-11.4325
▁악화되어	-11.4331
▁여동생이	-11.4333
▁걱정이다	-11.4333
▁따름이	-11.4334
▁애써	-11.4338
▁대처해야	-11.4342
▁현실에	-11.4345
▁집안일에	-11.4346
루	-11.4347
▁같았	-11.4351
▁프로그램에	-11.4352
▁보호	-11.4356
▁사라진	-11.4358
▁지갑에	-11.4359
▁가게에서	-11.4361
▁긴장되	-11.4363
▁실행	-11.4363
▁풀려고	-11.4369
먹고	-11.4371
▁자랑할	-11.4373
▁정책이	-11.4375
▁모르	-11.4379
▁억울	-11.4384
▁바라보는	-11.4388
▁따라가	-11.4398
▁동서	-11.44
▁독촉	-11.44
▁말라는	-11.4401
▁이혼해서	-11.4406
▁쓰러졌	-11.4406
바	-11.4406
▁말려	-11.4408
▁관해서	-11.441
▁살아가기	-11.4412
▁기분에	-11.4413
▁굴었	-11.4417
▁속상하다고	-11.4421
▁차질	-11.4423
▁맡았	-11.4424
▁줄여서	-11.444
▁가정형편	-11.4441
졌는데	-11.4447
▁개발	-11.4451
▁일정이	-11.4459
▁추억이	-11.4461
▁드리	-11.4463
▁남자들	-11.4467
▁부양하	-11.4469
▁천만	-11.447
다던데	-11.4475
▁상태라	-11.4476
시는데	-11.449
▁걱정이고	-11.4492
▁공부하다	-11.4493
▁등록	-11.4493
▁봉사활동	-11.4499
▁계	-11.4501
▁씁쓸해	-11.4502
들끼리	-11.4504
▁중간	-11.4505
망	-11.4508
▁꽃다발	-11.4509
▁안도감	-11.4512
▁잊어버려	-11.4517
▁믿기	-11.4517
▁불안하	-11.4525
▁요실금	-11.4527
▁살펴보	-11.4535
물을	-11.4538
▁험한	-11.4541
주더라고	-11.4549
▁갖기	-11.4549
▁치러	-11.4551
▁쓰다	-11.4552
▁지켜주	-11.4554
▁느	-11.4554
▁오기	-11.4556
▁감사하는	-11.4558
▁출퇴근	-11.4559
▁죽지	-11.456
▁구는	-11.4562
▁알던	-11.4563
▁다음날	-11.4565
▁이혼했	-11.4566
▁파악	-11.457
▁모으	-11.4572
▁좋아했는데	-11.4573
▁외면	-11.4575
▁재미있어	-11.4576
▁말할지	-11.4582
▁성공적	-11.459
▁깨닫	-11.4591
▁쓸쓸하	-11.4592
▁연세	-11.4593
▁괘씸해	-11.4595
▁같으면	-11.4598
▁늙어가	-11.46
▁보여주는	-11.46
▁나빠지는	-11.4604
▁불안하지	-11.4607
▁자영업	-11.4612
걸까	-11.4613
하냐고	-11.4615
▁가로채	-11.4615
▁보여줘야	-11.4618
▁오후	-11.4621
▁마음가짐	-11.4621
▁땀	-11.4623
▁가다	-11.4624
▁따돌림당하	-11.4626
▁크면	-11.4627
▁것으로	-11.4627
▁틀려	-11.4629
▁가족여행	-11.463
▁우울	-11.4634
▁교사	-11.464
▁온라인	-11.4643
▁떨리	-11.4646
▁살펴	-11.4649
▁친구라서	-11.4653
▁전념	-11.4656
하	-11.4657
▁만족하	-11.4658
보라고	-11.4658
▁버스에	-11.4659
▁무겁	-11.466
▁그럭저럭	-11.4665
▁낫다	-11.4665
▁멍하	-11.4665
▁배움	-11.4665
▁인수인계	-11.4665
▁전원주택	-11.4665
▁하찮	-11.4665
▁보청기	-11.4665
▁영상통화	-11.4665
▁꾸지람	-11.4665
▁뒷담화	-11.4665
▁재활치료	-11.4665
▁어떻겠냐	-11.4666
▁뛰어난	-11.4666
▁음료수	-11.4666
▁확실해	-11.4666
▁안타까운	-11.4668
▁됐는지	-11.4669
▁교수님께	-11.4669
위	-11.467
▁소심한	-11.467
▁놀란	-11.467
▁배신당했어	-11.467
▁빌려줬	-11.4671
▁넣었는데	-11.4671
▁악착같	-11.4671
식	-11.4672
▁들어가니	-11.4673
▁않았다면	-11.4674
▁명단에	-11.4674
▁교과서	-11.4675
▁인정해주지	-11.4676
▁가족들끼리	-11.4678
▁좋아지니	-11.4679
▁노력해봐야지	-11.4681
▁공개	-11.4684
▁부인과	-11.4684
▁태어났어	-11.4684
▁알았다면	-11.4684
▁도와줬는데	-11.4687
▁빌려줄	-11.4687
▁힘들었거든	-11.4687
▁몰랐던	-11.4689
▁순간이	-11.469
▁친해지려고	-11.4691
▁엉망이야	-11.4692
▁들었다고	-11.4694
▁건강해야	-11.4694
▁심심하	-11.4694
▁대하기	-11.4695
▁컸는데	-11.4697
▁사과하면	-11.4697
▁되긴	-11.4698
하더니	-11.4699
▁컸다고	-11.4699
▁중소기업에	-11.47
▁감사했어	-11.4701
▁선수	-11.4702
▁자다가	-11.4705
▁많더라고	-11.4705
▁친구하고	-11.4706
▁내야지	-11.4707
▁훌	-11.4711
▁풀어야지	-11.4712
▁부모와	-11.4712
▁들었을	-11.4713
▁멈추지	-11.4715
째	-11.4718
▁당황스럽더라	-11.4719
▁의사선생님	-11.4723
▁조기	-11.4723
▁비참	-11.4725
▁나쁘다고	-11.4726
▁반장이	-11.473
▁어머니와	-11.473
▁가거나	-11.4733
▁고등학생	-11.4734
▁심해지면	-11.4737
▁비해서	-11.4738
▁판	-11.4741
▁일하러	-11.4741
▁없다네	-11.4745
▁피할	-11.4747
▁먹고사는	-11.4749
▁학급	-11.475
▁변해	-11.475
▁변하는	-11.475
▁힘들기	-11.4752
▁것뿐인데	-11.4753
▁현금	-11.4754
▁사춘기인	-11.4754
력이	-11.4757
▁쓰이는	-11.4758
▁편해지	-11.476
▁처리할	-11.4762
▁동생만	-11.4763
▁서운했	-11.4766
▁놀랐	-11.4769
▁죽을까	-11.477
▁막말을	-11.4772
▁이직할	-11.4775
▁부리고	-11.4776
▁지난날	-11.4776
▁취직했어	-11.4777
▁유지하기	-11.478
▁벗들이	-11.4782
▁사람들만	-11.4783
▁채우	-11.4783
▁불러내	-11.4787
주니까	-11.4789
▁힘들더라고	-11.4792
▁연금으로	-11.4793
하나	-11.4795
▁가네	-11.4797
▁나왔다고	-11.4799
▁이야기해야	-11.4802
▁환멸감	-11.4807
▁강요하	-11.4807
▁구체적	-11.4809
▁해보려	-11.4809
▁읽으면	-11.4811
▁서럽다	-11.4813
▁버리는	-11.4819
오르면	-11.482
사가	-11.4822
▁오래되었	-11.4822
중	-11.4823
▁참아야	-11.4825
▁후부터	-11.4829
▁했었지	-11.483
▁보던	-11.483
▁팔자	-11.4833
▁엄	-11.4835
▁교실	-11.4841
▁이어가	-11.4849
▁열어	-11.4849
▁어디가	-11.485
▁신고해서	-11.4858
▁상품	-11.4859
▁게임기	-11.4861
▁제품	-11.4872
▁경찰이	-11.4873
▁나빠진	-11.4875
▁나서부터	-11.4884
▁학대하는	-11.4885
▁다가와	-11.4887
▁둬	-11.4888
▁마음먹	-11.489
▁절교	-11.4899
뿐인데	-11.4899
▁억울하게	-11.4904
하는지	-11.4905
▁넉넉	-11.4908
▁변했	-11.491
▁두렵	-11.4911
▁정한	-11.4914
▁안내	-11.4915
▁힘든지	-11.4925
▁골	-11.4928
▁있겠지만	-11.493
▁나올지	-11.4931
▁발생하	-11.4931
▁했었	-11.4933
▁행동으로	-11.4938
▁년에	-11.4945
힐	-11.4945
▁반갑	-11.495
▁석	-11.4952
▁지기	-11.4952
▁임원	-11.4953
▁후유증	-11.4954
▁사용할	-11.4955
▁받는다	-11.4956
▁막막하기	-11.4957
▁말들이	-11.4957
▁잘해준	-11.4961
▁시켜야	-11.4964
짜	-11.497
▁정체성	-11.4972
▁수정	-11.4973
▁축	-11.4973
▁주체	-11.4976
▁기본	-11.4978
▁울적해	-11.4982
▁줄만	-11.4986
▁대하고	-11.4986
▁인력	-11.499
▁선배들이	-11.4995
일을	-11.4997
당했어	-11.4997
워서	-11.4997
▁나와야	-11.5004
▁주가	-11.5007
시킬	-11.5009
리게	-11.5014
출	-11.5017
꺼	-11.5029
▁고등학생이	-11.503
▁말해줄	-11.5032
▁다치지	-11.5035
야겠네	-11.5035
▁모아야	-11.5036
▁살아있는	-11.5041
되	-11.5048
책	-11.5053
▁말씀드리면	-11.506
▁무관심해	-11.5073
▁복수하	-11.5074
▁바쳐	-11.5075
▁달라졌	-11.5075
▁녹내장	-11.5076
▁살았지	-11.5077
▁억울하기	-11.5082
▁악화되	-11.5083
▁몰라줘	-11.5086
▁피워	-11.5087
▁나서는	-11.5092
이다	-11.5092
▁잊어버리	-11.5097
▁각	-11.5098
▁거랑	-11.5098
▁노력했어	-11.51
▁아무에게	-11.5101
▁떨어지지	-11.5105
▁빼먹	-11.5109
종일	-11.5112
놨는데	-11.5116
▁이해해줄	-11.5117
▁폭	-11.5117
▁오네	-11.512
▁됐을	-11.5126
더라구	-11.5131
▁흘려	-11.5134
▁좋아한다는	-11.5134
▁얘기했어	-11.5136
식당에서	-11.5136
▁걱정할까	-11.5137
▁기관에	-11.5139
▁불행하다	-11.5139
▁반항	-11.514
▁하냐	-11.514
▁대학생	-11.5145
▁비참한	-11.515
▁웬만	-11.515
▁전환이	-11.5151
▁잃을	-11.5152
▁쓰레기	-11.5154
내고	-11.5156
▁막아	-11.5157
▁않던	-11.5159
▁어쨌	-11.5159
쾌	-11.5162
▁싫어할까	-11.5162
▁끓여	-11.5165
여섯	-11.5165
▁꼬투리	-11.5165
▁내시경	-11.5165
▁냉장고	-11.5165
▁막노동	-11.5165
▁시누이	-11.5165
▁아토피	-11.5165
▁옮길	-11.5165
▁조울증	-11.5165
▁콜레스테롤	-11.5165
▁횟수	-11.5165
▁투명인간	-11.5165
▁학부모	-11.5165
▁시끄러워	-11.5165
▁불편하지	-11.5166
▁고통스럽	-11.5166
▁저세상	-11.5166
▁각방	-11.5166
▁애초	-11.5166
▁급격	-11.5166
▁채소	-11.5166
▁소주	-11.5167
▁물론이고	-11.5167
▁되었으니	-11.5168
▁꾹	-11.5168
▁막내딸	-11.5168
▁수익률	-11.5168
▁점차	-11.5168
▁죽겠는데	-11.5168
▁자부심	-11.517
▁재밌어	-11.517
▁최악이야	-11.517
▁비위	-11.5171
▁한바탕	-11.5173
▁부족했던	-11.5174
▁그만둘까	-11.5174
▁흥	-11.5176
▁좋아지겠지	-11.5176
▁희생한	-11.5177
▁서울대	-11.5178
▁끄	-11.5178
▁무관심하셔	-11.5178
▁있단	-11.5178
▁부정	-11.5179
▁쑤시고	-11.518
▁책임감이	-11.5181
▁같으니까	-11.5181
▁좋대	-11.5181
▁되잖아	-11.5182
▁쓴다고	-11.5182
▁바라야	-11.5183
▁이중	-11.5183
▁이혼하면	-11.5183
▁인사팀에	-11.5184
▁불공평해	-11.5184
▁좁아지	-11.5184
▁잘못했는지	-11.5187
▁이러려	-11.5191
▁퇴근할	-11.5192
▁사유	-11.5192
▁할머니한테	-11.5192
▁경비원	-11.5193
▁당시	-11.5193
▁경쟁에	-11.5196
▁다행인지	-11.5199
▁하겠고	-11.5201
▁동료한테	-11.5202
▁날아가	-11.5203
▁서운하네	-11.5203
▁마셨어	-11.5203
▁실패할	-11.5203
▁인간이야	-11.5203
▁달라져	-11.5204
▁된다니	-11.5205
▁뿐이지	-11.5205
▁드렸는데	-11.5206
▁미운	-11.5206
▁걔랑	-11.5207
▁빠졌	-11.5207
였	-11.521
▁해결되지	-11.521
▁호감	-11.5211
▁생활해야	-11.5212
▁오른	-11.5213
▁현실과	-11.5213
▁술자리에서	-11.5215
▁무시하면	-11.5215
▁주실	-11.5221
시간에	-11.5222
▁그러나	-11.5222
▁아빠께	-11.5225
겠네	-11.5225
▁밀렸	-11.5226
▁빌리고	-11.5228
▁요청하는	-11.5231
▁학벌이	-11.5234
▁팔아서	-11.5235
▁했네	-11.5236
▁말걸	-11.5236
▁사려고	-11.5237
▁노후대비	-11.5241
▁결혼하라	-11.5247
▁소외되	-11.5247
▁준비했어	-11.5248
▁알아봐서	-11.525
▁그렇다면	-11.5251
▁화낼	-11.5255
▁중요한데	-11.5255
▁집단	-11.5256
▁입원했	-11.5256
▁해코지	-11.5259
▁바뀌지	-11.526
▁싸우시	-11.5261
▁본다고	-11.5264
▁주부터	-11.5265
▁고생하	-11.527
▁갚으라	-11.5272
▁알겠어	-11.5274
▁궁금하	-11.5274
▁슬프게	-11.5275
▁합병증이	-11.5283
냐	-11.5284
▁방법일	-11.5284
▁혐오스럽	-11.5285
받는	-11.5286
▁출근해서	-11.5287
▁부업이	-11.5288
▁고민하는	-11.5288
▁실기	-11.5292
▁비하하	-11.5295
▁남동생이	-11.53
▁걸어주	-11.5301
▁유명	-11.5303
▁다녀오면	-11.5303
▁부분에서	-11.5306
▁뿐	-11.531
▁잘되는	-11.5314
▁죽었다는	-11.5315
▁극	-11.5315
▁부족하다	-11.5317
셨거든	-11.5319
받으니까	-11.5322
에선	-11.5323
▁농담	-11.5325
▁절망	-11.5328
▁가출	-11.5329
▁정중하	-11.534
▁나뿐만	-11.5342
▁대리님이	-11.5343
▁남자애	-11.5345
▁거실에	-11.5346
▁달라지	-11.535
▁잘사는	-11.5351
▁깊이	-11.5352
▁허락해	-11.5353
표	-11.5361
▁메모	-11.5361
▁꺼	-11.5361
▁고지혈증	-11.5367
하니깐	-11.5373
▁입지	-11.5373
▁난다고	-11.5373
살	-11.5373
▁갔다고	-11.5377
▁염세적	-11.5377
▁다쳐	-11.538
▁고생할	-11.539
입	-11.5393
신대	-11.5394
▁자연스러	-11.5394
날수	-11.5396
▁하고싶은	-11.5401
▁떳떳하	-11.5401
▁친구들에	-11.5407
▁가정폭력	-11.5407
봐야겠다	-11.5408
▁그만두는	-11.541
▁계시는	-11.5421
▁주인	-11.5427
▁적에	-11.543
▁사회생활이	-11.5434
▁바쁘셔	-11.5439
▁다녀온	-11.5439
품이	-11.544
▁애도	-11.5442
▁청소년	-11.5443
▁원만	-11.5448
▁형제	-11.5456
▁싫었	-11.5457
▁것이지	-11.5461
▁돌아와	-11.5462
▁피곤하다	-11.5464
▁짜고	-11.5465
▁살았을	-11.5466
▁힘들어질	-11.5468
▁영향이	-11.5468
▁직장으로	-11.547
▁복이	-11.5475
▁올려야	-11.5475
▁오해하	-11.5476
▁우승	-11.5485
▁원망하	-11.549
▁공유	-11.5492
▁좋은지	-11.5493
했었거든	-11.5498
▁나아진	-11.55
▁단짝	-11.5502
▁전념하	-11.5505
▁포	-11.5509
▁신나는	-11.5511
▁정리할	-11.5513
하길래	-11.5515
▁슬픔에	-11.5523
▁그만두라	-11.5524
▁취	-11.5524
▁만들면	-11.5525
▁제공	-11.5527
▁물어봐야겠	-11.5528
▁받아들여	-11.5531
▁비타민	-11.5533
▁살리	-11.5537
▁가라앉	-11.5539
▁공감을	-11.5552
▁본인들	-11.5554
▁슬퍼하는	-11.5557
▁드시	-11.5557
▁유치원	-11.5558
▁거라면	-11.5558
머리	-11.5558
▁계약직	-11.5561
▁설명하	-11.5563
▁따돌림이	-11.5564
버	-11.5569
▁들어가지	-11.5575
▁알겠	-11.5577
▁청	-11.5578
▁알람	-11.558
▁먹이	-11.5587
▁부끄럽다	-11.559
▁지지를	-11.5591
▁합격한	-11.5591
▁놨	-11.5593
▁못해준	-11.5605
▁척하는	-11.5611
하던데	-11.5611
가면서	-11.5614
▁진찰	-11.5631
▁당한다	-11.5633
▁후련해	-11.5633
▁말해보	-11.5635
▁전날	-11.5638
▁괜찮지	-11.5639
장에	-11.564
▁심심해	-11.5648
▁털	-11.565
▁다녔다	-11.5652
▁툴툴대	-11.5652
▁문서	-11.5658
▁라면	-11.5658
▁닫아	-11.5663
▁메신저	-11.5667
▁보여주	-11.5668
▁불안하다	-11.5669
둘	-11.5669
▁믿음직	-11.5669
▁헤어졌	-11.567
▁떨어졌다	-11.5671
▁물어보니	-11.5674
▁적당	-11.5679
▁살릴	-11.568
▁취득	-11.568
▁버티기	-11.568
▁후회스럽	-11.5686
▁명문대	-11.5687
▁바뀔	-11.5688
▁체험	-11.5689
▁소심해	-11.569
▁검정고시	-11.5691
▁떡볶이	-11.5691
▁뚱뚱해	-11.5691
▁묵묵	-11.5691
▁묻지	-11.5691
▁비행기	-11.5691
▁숫자	-11.5691
▁아버님	-11.5691
▁음주운전	-11.5691
▁조깅	-11.5691
▁짧게	-11.5691
▁확률	-11.5691
꽉	-11.5691
▁능률	-11.5692
▁틱장애	-11.5692
▁앞가림	-11.5692
▁강력	-11.5692
▁고양이	-11.5692
▁따돌린	-11.5692
▁올바른	-11.5692
▁성형	-11.5692
▁죽겠네	-11.5692
▁기복	-11.5692
▁가족회의	-11.5693
▁부족함	-11.5693
▁다녀오려고	-11.5694
▁응급실	-11.5696
▁죄의식	-11.5696
▁골치	-11.5696
▁쉬려고	-11.5697
▁한의원에	-11.5697
▁삼촌	-11.5697
▁생겼대	-11.5698
▁황당한	-11.5698
▁미안했다고	-11.5698
▁위험한	-11.5699
▁수십	-11.57
▁알려달라고	-11.57
▁걱정거리	-11.5702
▁예쁘지	-11.5702
▁마찬가지야	-11.5702
▁연구	-11.5703
▁여건이	-11.5704
▁신랑과	-11.5704
▁적절한	-11.5704
▁지냈으면	-11.5705
▁손님들	-11.5705
▁벌레	-11.5706
이거든	-11.5706
▁복잡한	-11.5707
▁지하철에서	-11.5709
▁고생했	-11.5709
▁거짓말이	-11.5709
▁보호자	-11.5709
▁원금	-11.5711
▁나을까	-11.5711
▁놀아주	-11.5712
▁잃으면	-11.5713
▁치르	-11.5713
▁던져	-11.5714
▁함께하고	-11.5716
▁강제로	-11.5716
▁오빠한테	-11.5716
▁당당한	-11.5718
▁난감해	-11.5718
▁안정되	-11.572
▁많아질	-11.5721
▁놓쳤	-11.5722
▁늦었어	-11.5724
▁모으지	-11.5725
▁잘해주	-11.5729
▁잘릴	-11.573
▁모인	-11.5731
▁동생보다	-11.5732
▁떠는	-11.5737
왔나	-11.5738
▁오겠지	-11.5738
▁시에	-11.5738
▁김치	-11.5743
▁부탁했는데	-11.5743
▁괴롭힐까	-11.5745
미	-11.5745
▁나누면서	-11.5747
▁약점	-11.5749
▁수군거리는	-11.575
▁했더라	-11.5751
▁뿌듯하고	-11.5754
▁쓰라고	-11.5756
▁직원과	-11.5758
▁정책	-11.5759
▁끝이야	-11.5763
▁프로그램이	-11.5765
▁느껴질	-11.5766
▁안된다고	-11.5766
▁보이나	-11.577
▁약해진	-11.5771
▁표현해야	-11.5771
▁걸으면	-11.5772
▁파는	-11.5774
▁지내야지	-11.5775
▁식단관리	-11.5776
▁만족스럽지	-11.5778
▁계획은	-11.5782
▁무기력하게	-11.5783
▁찾아야지	-11.5785
▁종이	-11.5787
▁팔아	-11.5789
▁입원하	-11.579
▁학점이	-11.5791
▁해봐야겠지	-11.5791
▁살림에	-11.5796
▁사치	-11.5802
▁자기한테	-11.5802
▁작고	-11.5803
▁비리	-11.5803
▁친절한	-11.5804
▁삼아	-11.5809
▁절망적인	-11.581
하라는	-11.581
▁존경	-11.5817
▁꺼려지	-11.5819
▁했다면	-11.582
▁피우	-11.5821
▁준비하	-11.5822
▁보아야겠어	-11.5825
▁졸	-11.5825
▁혐오	-11.5827
▁결혼하려	-11.5827
▁날려	-11.583
▁형편없	-11.5831
▁눈빛	-11.5834
쳐	-11.5841
▁다했는데	-11.5845
▁대학원에	-11.5846
▁기업에서	-11.5848
▁처리해야	-11.585
심했어	-11.5853
▁과정	-11.5853
▁높다	-11.5854
▁잘나가는	-11.5856
▁해볼게	-11.5857
▁생각하시는	-11.5858
▁가져주	-11.586
▁알아보지	-11.5862
뿐이라	-11.5863
▁통하고	-11.5863
▁성별	-11.5866
▁조심하라	-11.5866
▁사용하는	-11.5867
▁상하고	-11.5874
▁계기	-11.5878
▁차단	-11.5878
▁역할이	-11.5881
▁안아주	-11.5883
▁찢어	-11.5886
▁화내고	-11.5887
▁취미활동	-11.5889
▁들어야지	-11.5893
▁포기하	-11.5896
▁아니까	-11.5898
▁목돈이	-11.5899
▁주어야겠어	-11.59
▁저러는	-11.5905
▁다르다	-11.5912
▁들더라	-11.5914
▁욕이	-11.5915
▁쓰러질	-11.5918
▁공감해	-11.5918
▁벌어야지	-11.592
▁모이는	-11.592
▁나빠질	-11.5923
▁생겼나	-11.5924
▁생각하셔	-11.5924
자는	-11.5928
▁초기에	-11.5929
▁지원자	-11.5931
▁치료받을	-11.5932
▁고용	-11.5936
▁지켜봐	-11.5942
▁친해	-11.5946
▁갚았	-11.5946
▁떠나면	-11.5948
▁바깥	-11.5948
▁이른	-11.5951
▁쉬어야겠	-11.5952
었다네	-11.5952
들에	-11.5953
▁제외	-11.5954
▁감사하지	-11.5956
▁잘했는데	-11.5961
▁하려는	-11.5963
▁힘들더라	-11.5964
▁옮기는	-11.5974
▁회복되	-11.5979
▁슬픔이	-11.598
▁나오라	-11.5984
주면	-11.5994
▁노력하지	-11.5997
▁직업으로	-11.5999
▁일반	-11.5999
▁던지	-11.6001
▁찾아보면	-11.6004
▁건물	-11.6004
▁들었나	-11.6005
▁지킬	-11.6006
▁공채	-11.601
▁큰데	-11.6013
▁동무들	-11.6015
▁간다는	-11.6016
▁알까	-11.6017
받은	-11.6017
▁웃기	-11.6019
▁대꾸	-11.6021
▁무관심	-11.6026
▁파	-11.6036
▁힘써	-11.6037
▁간호하	-11.6038
▁형님이	-11.6041
하기만	-11.6045
▁연속이	-11.6047
▁물려받	-11.6057
▁학생이	-11.6063
▁당장이	-11.6065
쓸	-11.6071
▁마비되	-11.6073
▁심했	-11.6079
▁동창회	-11.6081
▁병원이	-11.6081
▁고졸	-11.6085
▁문제없	-11.6086
▁좋아하실	-11.6087
▁있었다는	-11.6099
▁꼴등	-11.6105
▁커질	-11.6106
▁빌려서	-11.6107
▁이야기하지	-11.6107
▁맞서	-11.611
▁속상하지	-11.6113
▁존경하	-11.6116
왔	-11.6121
▁바닥	-11.6122
▁차에	-11.6123
▁노인회	-11.6123
▁잘했어	-11.613
▁위자료	-11.6138
▁쌀쌀맞	-11.6138
▁서운하기	-11.6139
소한	-11.6143
▁어지럽	-11.6151
생긴	-11.6153
말을	-11.6153
▁외박	-11.6157
▁세웠	-11.6159
▁정상이	-11.6163
▁외롭기	-11.6163
▁잔소리해	-11.6164
▁알았지	-11.6169
▁갚기	-11.6173
▁나쁘다	-11.6176
스러웠어	-11.6177
▁의존	-11.6178
▁건네	-11.618
▁빌려주	-11.6181
▁놓치	-11.6186
▁떠날까	-11.6191
없는	-11.6197
▁식장	-11.6202
▁아플까	-11.6203
▁의견에	-11.6203
▁깜깜해	-11.6204
▁후임	-11.6208
▁지난달	-11.621
▁면역력	-11.6211
▁부를	-11.6212
▁탓이겠지	-11.6212
▁출산이	-11.6213
▁화냈	-11.6214
▁무지	-11.6215
▁빈곤	-11.6217
▁느껴지지	-11.6219
▁싶으면	-11.6224
▁심각	-11.6225
군다	-11.6225
▁늙었	-11.6228
▁망가졌	-11.6228
▁알릴	-11.6228
▁예산	-11.6233
▁좋아한다	-11.6234
▁받으라	-11.6236
▁갑작스	-11.6243
보란	-11.6246
▁가정불화	-11.6247
▁마사지	-11.6247
▁보이스피싱	-11.6247
▁부드럽	-11.6247
▁신난다	-11.6247
▁쌓였	-11.6247
▁아쉬움	-11.6247
▁앓아	-11.6247
▁에너지	-11.6247
▁왼쪽	-11.6247
▁하반신	-11.6247
▁헷갈려	-11.6247
▁힘겨워	-11.6247
▁심장마비	-11.6247
▁여의치	-11.6247
▁질책	-11.6247
▁답변	-11.6247
▁고급	-11.6248
▁생활습관	-11.6248
▁말동무	-11.6248
▁억울함	-11.6248
▁믿음직스러워	-11.6248
▁언	-11.6249
▁미친	-11.6249
▁입원비	-11.6249
▁싹	-11.625
▁그러려니	-11.625
▁어지러워	-11.6251
▁모친	-11.6251
▁성과급	-11.6251
▁믿을만한	-11.6251
▁최신	-11.6251
▁버니	-11.6251
▁허무한	-11.6252
▁다녀볼까	-11.6252
▁야식	-11.6253
▁병세	-11.6253
▁문제집	-11.6254
▁뽑아주	-11.6254
▁끊긴	-11.6255
▁댄스	-11.6256
▁무뚝뚝한	-11.6257
▁테야	-11.6258
▁엄청난	-11.6259
▁다니려고	-11.626
▁말씀드리려고	-11.6261
꼬치	-11.6262
▁들리지	-11.6264
▁식이야	-11.6266
▁허무하네	-11.6267
▁들어갈수	-11.6267
▁상대방에게	-11.6268
▁사직서	-11.6268
▁조급해져	-11.6269
▁번호	-11.6271
▁누군지	-11.6271
▁사람들끼리	-11.6272
▁하루였어	-11.6272
▁있으려고	-11.6273
▁싫었는데	-11.6274
▁며느리한테	-11.6275
마한	-11.6275
▁근래	-11.6275
▁생리	-11.6277
▁교무실에	-11.6278
▁집중하려고	-11.6278
▁감정적으로	-11.6278
▁있었대	-11.6278
▁떨어졌는데	-11.6278
▁애인이랑	-11.6278
▁세금	-11.6279
▁자녀와	-11.6279
▁수당	-11.6281
▁외국어	-11.6281
▁다닐까	-11.6282
갔었는데	-11.6282
▁물론이지	-11.6283
▁낼까	-11.6284
▁다니니까	-11.6285
▁시기인데	-11.6285
▁보여줘	-11.6286
▁않을거야	-11.6286
▁되었네	-11.6286
▁가족에	-11.6288
▁미용	-11.6291
▁놓지	-11.6291
▁잡았어	-11.6291
▁찾으면	-11.6292
▁안아	-11.6292
▁타박	-11.6296
▁거절했는데	-11.6296
▁하실까	-11.6298
▁오려고	-11.6298
▁감사하게	-11.63
▁바람피우는	-11.63
느냐고	-11.6301
▁해내지	-11.6301
▁써줘	-11.6303
▁운동하면	-11.6303
▁지내서	-11.6304
▁행복해질	-11.6304
▁정치	-11.6305
▁그러려고	-11.6305
▁만나려고	-11.631
▁들어보려고	-11.631
▁합격했는데	-11.631
▁안정감	-11.6313
▁백수라	-11.6316
▁어른들이	-11.6316
▁허전해	-11.6317
▁지지해	-11.6317
▁화나는	-11.6318
번에	-11.632
▁그랬다고	-11.6321
▁기술이	-11.6323
▁파악하	-11.6325
▁여직원	-11.6325
▁회식이	-11.6328
▁쓸모없어	-11.6329
▁피곤한	-11.633
▁어머니랑	-11.6331
▁스타일	-11.6331
▁실망하게	-11.6334
▁구해봐야	-11.6336
▁기계로	-11.6338
▁하소연해	-11.6338
▁말인지	-11.6343
당한	-11.6347
▁도와주기	-11.6351
▁조율	-11.6351
▁말해주지	-11.6352
▁느껴진다	-11.6355
▁해준다고	-11.6355
▁얘기해야지	-11.6356
▁막연	-11.6357
▁들리는	-11.6359
▁되려고	-11.6361
▁침착하	-11.6364
▁미국에	-11.6364
▁확인하고	-11.6364
▁입는	-11.6366
▁아끼지	-11.6367
▁형편을	-11.6367
▁친구들인데	-11.6369
▁약값이	-11.6369
▁바꿔야	-11.637
▁신고했어	-11.6371
▁들었던	-11.6372
▁사용하	-11.6374
줄까	-11.6374
▁운영하	-11.6375
▁생활할	-11.6376
▁불쌍하다	-11.6378
▁넘기	-11.6384
▁꺼려	-11.6385
▁고발	-11.6385
▁상상만	-11.6386
▁낳기	-11.639
▁고맙게	-11.639
▁촬영	-11.6394
▁나오기	-11.6395
▁버려지	-11.6397
▁성의	-11.6398
▁같아요	-11.64
▁직장인	-11.6403
▁정당	-11.6404
▁약속했어	-11.6405
▁등수	-11.6409
▁공모전에	-11.6412
▁사과해	-11.6412
▁취소됐	-11.6413
▁자랑스럽	-11.6416
▁탓으로	-11.6417
▁이과	-11.6422
속	-11.6425
▁번번	-11.6426
▁절망적이	-11.6427
▁공지	-11.6433
▁불신하	-11.6433
▁떠들	-11.6437
▁얘기해보는	-11.6438
▁알려야	-11.6442
▁조직	-11.6446
▁느리	-11.6448
▁벌어놓	-11.6449
▁다정	-11.6453
▁합격하	-11.6454
▁국가	-11.6457
▁얘기하는데	-11.6463
들처럼	-11.6463
▁도와줘야	-11.6463
▁물어보기	-11.6468
▁왕래	-11.6469
거리	-11.647
▁이익	-11.6473
▁대책이	-11.6473
▁기다리면	-11.6474
▁버겁	-11.6476
▁차고	-11.6483
▁다하고	-11.6485
▁신기	-11.6486
원	-11.6489
▁있겠다	-11.649
▁못했지만	-11.649
▁사건이	-11.6493
받았는데	-11.6495
일수	-11.6495
해주는	-11.6496
▁드리면	-11.6498
▁치료비로	-11.6498
▁병들어	-11.6498
▁스트레스만	-11.6506
▁가입해	-11.6509
이긴	-11.6509
▁이혼하자	-11.6509
물	-11.6516
▁찾아봐	-11.6516
▁정해놓	-11.6518
▁해주셔서	-11.6518
▁발언	-11.6521
▁키우려	-11.6522
▁인정받	-11.6524
▁취직한	-11.6525
▁싫어하고	-11.6526
▁늘어가	-11.6526
▁동성애자라	-11.6529
▁당하기	-11.6535
▁독립하	-11.6536
▁협박	-11.6537
▁보채	-11.6538
▁실망하실	-11.654
▁성공하	-11.654
▁내니	-11.6542
▁주네	-11.6546
▁지키	-11.6547
▁적지	-11.6549
▁연인	-11.655
▁육십이	-11.6556
▁맡기는	-11.6578
▁우선인	-11.6579
▁하객	-11.6581
▁폭력에	-11.6583
▁검토	-11.6597
▁아들딸	-11.6605
▁뇌출혈	-11.6606
▁졸업하면	-11.6606
▁설계	-11.6613
▁오늘이	-11.6613
▁빌리	-11.6613
▁배우지	-11.6616
▁가벼워	-11.6619
▁연예인이	-11.6621
▁초대해	-11.6623
디	-11.6632
▁지원이	-11.6639
▁내일까지	-11.664
▁여유롭지	-11.664
▁안타깝	-11.6641
▁구해보	-11.6644
▁모르겠	-11.6651
형	-11.6654
▁평	-11.6657
▁집착하	-11.6657
식을	-11.6666
▁물어보셔	-11.6667
하셨는데	-11.6669
일지	-11.6672
▁남동생	-11.6673
▁소극적	-11.6679
▁다툼	-11.668
▁자랐	-11.6682
▁안해	-11.6685
▁즐기면	-11.6685
▁일러	-11.6689
▁서운	-11.6693
치료	-11.6698
▁등교	-11.6699
▁즐기는	-11.6702
▁시험성적	-11.6703
▁변명	-11.6706
▁죽었	-11.6714
같은	-11.6716
▁이기적이	-11.6716
▁화해할	-11.6717
▁졸업식	-11.6719
▁욕설	-11.672
셨으면	-11.6721
▁잃는	-11.6722
▁괜찮아지	-11.6723
▁직전	-11.6725
▁않은가	-11.6728
▁무의미	-11.6729
▁애들만	-11.6731
했다면	-11.6731
▁학원이	-11.6739
▁답답하	-11.6741
릴까	-11.6741
▁안절부절	-11.6742
▁당뇨병이	-11.6749
기엔	-11.6757
▁집에서만	-11.6763
▁스트레스받는	-11.6766
▁관두	-11.6766
다시	-11.6771
먹었다고	-11.6773
▁퇴학	-11.6773
▁거냐	-11.6779
▁거절할	-11.6779
▁치과	-11.6784
▁찾아뵙	-11.6786
▁떠오르	-11.6794
▁창피하	-11.6796
▁넣을	-11.6797
▁교육에	-11.6799
▁흐르	-11.6799
▁자취	-11.6801
▁그리는	-11.6802
▁말들	-11.6802
▁독서실	-11.6804
▁가능할	-11.6804
▁감축	-11.6804
▁멈춰	-11.6805
▁겪었	-11.6807
▁폭발	-11.6809
▁경고	-11.6812
▁말년	-11.6818
▁쥐	-11.6819
▁야구	-11.682
▁외국에	-11.682
짜고	-11.6822
▁부탁할	-11.6827
해보아야겠어	-11.6827
▁뒷담	-11.683
▁인재	-11.6832
▁다녀올	-11.6834
▁평화	-11.6834
▁걷다	-11.6835
▁겉도는	-11.6835
▁굶어	-11.6835
▁그릇	-11.6835
▁도맡아	-11.6835
▁맡길	-11.6835
▁브랜드	-11.6835
▁소아마비	-11.6835
▁심호흡	-11.6835
▁착잡해	-11.6835
▁성추행	-11.6835
▁괴로울	-11.6835
▁껄끄러워	-11.6835
▁중풍	-11.6835
▁때려치우	-11.6836
▁소중함	-11.6836
▁장거리	-11.6836
▁말싸움	-11.6836
▁자초	-11.6836
▁정밀	-11.6836
▁희망퇴직	-11.6836
▁태어났을까	-11.6836
▁국내	-11.6837
▁처분	-11.6837
▁갑질	-11.6837
▁가장으로써	-11.6837
▁철수	-11.6837
▁틀림없어	-11.6837
▁주시	-11.6838
▁시원치	-11.6838
▁예상치	-11.6838
▁예금	-11.6839
▁가능할까	-11.6839
▁노동청	-11.6839
▁도와주겠다고	-11.6839
▁보험료	-11.684
▁뻔뻔하게	-11.6841
▁써볼까	-11.6842
▁보내줬어	-11.6842
▁생전에	-11.6843
▁발작	-11.6843
▁공부법	-11.6844
▁다니느라	-11.6845
▁모르겠더라고	-11.6845
▁도전해보	-11.6845
▁고등학생인데	-11.6845
▁투석	-11.6846
▁첫날	-11.6848
▁알려줄	-11.6849
▁마당에	-11.6853
▁같대	-11.6853
▁초조해져	-11.6854
▁다니니	-11.6858
정된	-11.6858
▁호흡기	-11.6858
▁타지	-11.6859
▁어젯밤에	-11.686
▁해주시	-11.6862
▁다녀와	-11.6862
▁어려웠는데	-11.6863
▁아니었다고	-11.6863
▁주겠지	-11.6864
▁시켰는데	-11.6864
▁입었어	-11.6867
▁죄송	-11.6867
▁고생했다	-11.687
▁우울하게	-11.6871
▁싫어지고	-11.6872
▁권리	-11.6872
시키는	-11.6873
저리	-11.6875
▁참여하지	-11.6878
▁있었더라고	-11.6878
▁줄이는	-11.6879
▁만족하지	-11.6879
▁덕분이야	-11.688
▁분야에	-11.6882
▁실패자	-11.6882
▁손자와	-11.6883
▁소원	-11.6884
▁결정하지	-11.6887
▁살았다고	-11.6887
▁잔소리하는	-11.6888
▁계실	-11.6888
▁결혼식인데	-11.6889
▁백화점에	-11.689
▁신고하는	-11.6891
▁끊는	-11.6894
▁주고받	-11.6895
▁올려야겠어	-11.6896
▁방과	-11.6896
▁조마조마해	-11.6897
▁결재	-11.6903
▁무섭기	-11.6903
▁그전에	-11.6904
▁계속되	-11.6905
자를	-11.6908
▁간대	-11.6909
▁따라가기	-11.6909
▁드린	-11.6909
▁연애하는데	-11.6911
▁면이	-11.6911
▁하시니까	-11.6914
타	-11.6914
▁근무하	-11.6914
하려는	-11.6915
▁없어지면	-11.6918
▁말씀드려봐야겠	-11.692
▁분야에서	-11.692
▁부모님까지	-11.6921
▁힘들긴	-11.6921
▁드시고	-11.6922
▁업무적으로	-11.6923
▁받다	-11.6923
▁다녀와야	-11.6924
▁즐기지	-11.6926
▁주셨는데	-11.6926
▁승진했는데	-11.6926
▁추석에	-11.6926
▁집착	-11.6928
▁꾸리	-11.6928
▁익숙하지	-11.6931
▁화목	-11.6934
▁대기	-11.6935
▁오르는	-11.694
▁불려가	-11.6947
▁젊은데	-11.6948
▁지원서	-11.6949
▁한잔하	-11.695
▁책임지지	-11.6952
주시는	-11.6952
▁기준이	-11.6953
▁위축되는	-11.6955
▁공부해야지	-11.6956
▁어르신들	-11.6957
▁비난하는	-11.6959
▁태어났	-11.6961
▁신뢰감	-11.6964
▁가봤	-11.6965
▁낮아지	-11.6968
▁고려해	-11.6976
님	-11.6976
▁예뻐하	-11.6979
▁받는다는	-11.698
▁낫는	-11.698
▁억울하다	-11.6982
▁안절부절못하겠	-11.6985
보기	-11.6989
▁성향이	-11.6995
▁잘리고	-11.7002
▁존중	-11.7007
께서	-11.7009
▁복용	-11.701
▁보내준	-11.7011
▁황당하	-11.7012
▁해야할까	-11.7014
▁않았나	-11.7016
▁뚱뚱하다	-11.7017
▁어머니께서	-11.7018
▁망칠	-11.7018
▁잡는	-11.7021
▁학기에	-11.7023
▁조별과제	-11.7024
▁불법	-11.7025
▁일해야지	-11.7027
▁파산	-11.7029
▁책임이	-11.7033
▁인지	-11.7034
▁달려왔	-11.7035
▁몰라도	-11.7037
▁동료의	-11.7038
▁우정	-11.7038
▁말대꾸	-11.7045
▁줬다	-11.7053
▁탓인지	-11.7057
▁여기에	-11.7057
▁적응하기	-11.7068
약한	-11.7071
▁태어나지	-11.7072
된다고	-11.7081
▁걱정해주	-11.7084
▁결정했어	-11.7084
▁밀어	-11.7084
▁열등감에	-11.7087
▁결심했	-11.7089
▁않았다는	-11.709
▁지켜봐야	-11.709
▁후유증이	-11.7094
▁문제라	-11.7098
▁상처받는	-11.7099
▁하늘에	-11.7106
▁부장님께서	-11.7109
▁끝냈	-11.7121
▁데까지	-11.7123
▁이야기해볼까	-11.7124
▁넘겨	-11.7125
▁손실	-11.7125
▁쳐다보	-11.7128
▁치료받아	-11.7131
▁망해버렸	-11.7137
▁이겨내야	-11.7138
▁심리상담	-11.7141
▁걸었는데	-11.7143
▁풀렸	-11.7144
▁참여하	-11.7146
▁방향	-11.7149
▁받는지	-11.7152
진다는	-11.7155
▁커지는	-11.7157
액	-11.7157
▁소용없다	-11.7163
▁의식하는	-11.7166
▁사랑해주	-11.7169
▁열정	-11.7171
▁좋았지	-11.7171
▁정신병	-11.7172
▁복용하	-11.7172
▁청춘	-11.7175
▁미팅	-11.7175
▁회원들	-11.7175
집	-11.7179
▁편하	-11.7181
▁줄어든	-11.7184
▁고립되어	-11.7187
▁바에	-11.719
줬거든	-11.7191
었으니	-11.7197
▁놓쳐	-11.7199
▁절친	-11.7201
▁깨워	-11.7203
▁퇴근하면	-11.7211
▁붙여	-11.7216
▁상승	-11.722
▁바빴	-11.7222
▁설득할	-11.7224
▁옮겼	-11.7226
▁가정의	-11.7228
▁지옥	-11.7231
▁방학이	-11.7239
▁가야겠다	-11.7246
▁연극	-11.7248
▁아들만	-11.7253
과에	-11.7256
▁병이라	-11.7257
▁과로	-11.726
▁논	-11.7262
▁힘들었	-11.7263
▁스트레스받아서	-11.7264
프	-11.7266
▁날들이	-11.7268
물거	-11.727
▁날렸	-11.7272
▁잘하려고	-11.7275
▁독립해	-11.7276
▁치우	-11.7279
▁환갑이	-11.7282
▁치매라는	-11.7283
▁두면	-11.7284
▁행복이	-11.7284
▁갚는	-11.7288
▁보험사	-11.7289
▁녀석들	-11.7291
▁절반	-11.7291
삼	-11.7296
개	-11.7296
▁뵙	-11.7299
턱	-11.73
▁있었으	-11.7302
등	-11.7303
▁기다렸	-11.7303
▁그만두니	-11.7306
▁승진에	-11.731
▁줄어들었	-11.731
▁집과	-11.7316
▁웃으	-11.7318
▁자신에	-11.7319
▁얼굴만	-11.7326
▁내린	-11.7326
▁회사라	-11.7327
▁용돈으로	-11.733
▁깨끗	-11.7337
▁소용	-11.7339
▁행동해	-11.7346
▁사회는	-11.7347
▁청년이	-11.7347
▁달려	-11.7352
▁효율	-11.7353
불리	-11.7359
▁분이라	-11.7361
듯해	-11.7363
땅	-11.7363
▁침침해	-11.7364
▁가든	-11.737
▁틀리	-11.7371
▁생겼다	-11.7373
▁일일	-11.7377
▁친구니까	-11.7378
▁인정받는	-11.7379
▁자기계발	-11.7382
드릴	-11.739
써주는	-11.7391
▁동떨어	-11.7394
▁깨어날	-11.7395
먹은	-11.7395
▁지치는	-11.7396
▁끊어야	-11.7398
▁겁	-11.7399
▁사원들	-11.7399
▁나빠졌	-11.7402
▁지쳤	-11.7402
▁이간질	-11.7403
▁암담	-11.7404
▁친구인	-11.7405
▁있냐	-11.7406
▁수면	-11.7407
▁원이	-11.7408
▁출신	-11.7412
▁신분	-11.7412
▁교내	-11.7419
▁지금이	-11.7419
▁회복해	-11.7421
▁대표	-11.7426
▁어려워져	-11.7428
▁알겠지	-11.7428
▁사태	-11.7431
▁힘없	-11.7434
▁표현할	-11.7444
▁시켰	-11.7445
▁만날까	-11.7446
▁상황인	-11.7448
였지	-11.7451
▁초등학생	-11.7452
▁참아	-11.7453
▁뛰어나	-11.7456
▁망한	-11.7457
▁돌아올	-11.7457
▁것인데	-11.7458
▁프로	-11.746
▁꿈꿔	-11.746
▁나누다	-11.746
▁낫고	-11.746
▁낫기	-11.746
▁늘그막	-11.746
▁대중교통	-11.746
▁마케팅	-11.746
▁막무가내	-11.746
▁맡고	-11.746
▁부부동반	-11.746
▁빈털터리	-11.746
▁살맛	-11.746
▁생일파티	-11.746
▁스킨십	-11.746
▁아쉬운	-11.746
▁않잖아	-11.746
▁알레르기	-11.746
▁지나쳤	-11.746
▁훈련	-11.746
닷	-11.746
▁불륜	-11.746
▁생일선물	-11.746
▁익명	-11.746
▁운동기구	-11.746
▁감옥	-11.746
▁미쳐버릴	-11.746
▁이따금	-11.7461
▁시달려	-11.7462
▁이웃집	-11.7462
▁임금	-11.7463
▁계획표	-11.7463
▁사위	-11.7464
▁뵈	-11.7464
▁배워볼까	-11.7464
▁요통	-11.7464
▁갑작스러워	-11.7465
▁구해볼까	-11.7465
▁늦으면	-11.7465
▁살았는지	-11.7466
▁전세금	-11.7466
▁시작해보려고	-11.7467
▁뭐하나	-11.7467
▁확진자	-11.7468
▁공감대	-11.7468
▁감사함	-11.7468
▁있으려나	-11.7469
▁번쯤	-11.747
▁막내아들	-11.747
▁범위	-11.747
▁시계	-11.7471
▁후배들에게	-11.7473
▁혹사	-11.7473
▁무기력해지고	-11.7473
▁감각	-11.7473
▁드는군	-11.7474
▁있었다니	-11.7476
▁잘못했나	-11.7476
▁만점	-11.7477
▁헤어졌는데	-11.7477
▁힘쓰	-11.7479
▁다가가려고	-11.7479
▁무관심한	-11.748
▁여부	-11.7481
▁신경쓰여	-11.7481
▁늙었나	-11.7481
▁걸리지	-11.7483
▁가버리	-11.7483
▁만들었는데	-11.7483
▁받았거든	-11.7484
하시고	-11.7484
▁의자	-11.7484
▁한둘	-11.7485
▁구해보려고	-11.7486
▁가족관계	-11.7486
▁집사람과	-11.7487
▁들었지	-11.7488
▁도와준다고	-11.7492
▁셈이	-11.7493
▁변하지	-11.7499
▁정신병원	-11.75
▁목적	-11.75
▁넉넉지	-11.75
▁불안한데	-11.7503
▁미대	-11.7507
▁살아야겠지	-11.7507
▁노는데	-11.7508
▁종양이	-11.7508
▁언젠가부터	-11.7509
▁돌봐주지	-11.7509
▁아버지한테	-11.7509
▁불편할	-11.751
▁왔거든	-11.7511
당하던	-11.7512
▁엉	-11.7513
▁이상하다고	-11.7514
▁계획대로	-11.7515
▁큰애	-11.7515
▁번째야	-11.7516
▁났네	-11.7517
▁며느리와	-11.7518
▁활발하	-11.752
▁생각해봐야	-11.752
▁전공과	-11.7524
▁낳았냐	-11.7524
▁오후에	-11.7526
▁시작해야지	-11.7527
▁질문이	-11.7528
▁잘못이라고	-11.7529
▁갑갑해	-11.753
▁아니었던	-11.753
▁참석하지	-11.7531
▁지속되	-11.7531
▁군대에서	-11.7532
▁반영	-11.7536
▁의심하게	-11.7538
▁그들과	-11.7538
향이	-11.7539
▁부탁하는	-11.7541
▁노후자금으로	-11.7541
▁주던	-11.7543
▁의심하는	-11.7545
▁모자	-11.7545
▁벗어나지	-11.7547
▁돌아와서	-11.7548
▁보이려	-11.7549
▁키우는데	-11.7563
▁고객이	-11.7564
▁말거야	-11.7565
▁입학하고	-11.7565
▁낳지	-11.7569
▁청년들	-11.7571
▁도와줬어	-11.7573
▁위험	-11.7575
▁없었다고	-11.7575
지겠지	-11.7575
▁견뎌	-11.7576
▁말씀드리기	-11.7576
▁간이	-11.7583
▁빼면	-11.7584
▁주시고	-11.7584
▁막막하	-11.7591
▁돌아가면	-11.7593
▁나빠지지	-11.7593
▁활동에	-11.7594
▁선택할	-11.7597
▁벌었어	-11.7598
시킨	-11.76
▁필요성	-11.76
▁위안이	-11.7603
▁도와주셔	-11.7603
▁했더라고	-11.7605
▁가입했어	-11.7607
▁인연이	-11.761
▁기특해	-11.7612
▁한심하기	-11.7614
▁포기한	-11.7621
▁없겠지만	-11.7623
▁곤란하	-11.7626
▁예고	-11.7627
▁베풀	-11.7629
▁아껴주	-11.7632
▁보겠어	-11.7632
▁만성질환에	-11.7632
듯한	-11.7633
이었지	-11.7639
▁다녀오는	-11.764
▁건강하다는	-11.7641
▁알기	-11.7642
▁사별하	-11.7645
▁받았던	-11.7645
▁받아들이기	-11.765
▁계획에	-11.7651
볼거야	-11.7652
▁혼내서	-11.7654
▁학생이라	-11.7655
▁무서	-11.766
▁무섭지	-11.7667
▁방어적	-11.7668
▁성장	-11.7668
▁찾아가야겠어	-11.7668
▁가지지	-11.767
▁심하셔	-11.7675
▁끼지	-11.7678
애	-11.7679
▁지원해주	-11.768
▁고마운지	-11.7681
▁낮아져	-11.7684
▁올린	-11.7686
▁지우	-11.7687
▁폐경이	-11.7687
▁혼자라서	-11.7687
스를	-11.7688
▁하시고	-11.7691
▁한심하지	-11.7692
▁승진한	-11.7697
▁힘들어지는	-11.7699
▁왔지	-11.7702
▁생각해봐	-11.7702
▁생활비에	-11.7704
▁날만	-11.7706
보지	-11.7707
▁내니까	-11.771
▁실천하는	-11.7714
▁모양	-11.7715
▁보험사에	-11.772
동을	-11.7721
어져	-11.7723
▁가장인데	-11.7732
▁꼴이	-11.7743
▁치여	-11.7756
▁고치려	-11.7756
▁편지로	-11.776
▁충실하	-11.7762
원치	-11.7763
▁전공이	-11.7764
▁회식에	-11.7765
▁강도	-11.7766
▁들어줘	-11.777
▁모으기	-11.7771
▁동물	-11.7771
▁늘어난	-11.7771
▁작성하	-11.7772
들만	-11.7772
▁사귀어야	-11.7773
▁뭐고	-11.7774
▁나빠지	-11.7775
▁얘기하지	-11.7785
▁사용해	-11.7791
매	-11.7792
▁당연하다	-11.7796
▁해주니	-11.7801
▁늙으	-11.7801
▁들어가게	-11.7805
▁말해봐야	-11.7813
▁찾았	-11.782
▁관리할	-11.7823
나갈	-11.7826
▁부르면	-11.7827
▁지나도	-11.7828
버릴	-11.7836
인걸	-11.7836
▁못하네	-11.7836
▁당했다	-11.7837
▁야단	-11.784
있어서	-11.7846
▁주인이	-11.7855
▁무심	-11.7864
▁심근경색	-11.7869
해봐야겠다	-11.7874
▁학교가	-11.7874
▁받아들이는	-11.788
▁되었나	-11.7881
▁안좋은	-11.7882
▁무기력	-11.7884
대에	-11.7884
▁정답	-11.7891
처한	-11.7893
▁사이트	-11.7894
▁고정	-11.7898
▁말기라	-11.79
▁예식장	-11.7905
▁진행하는	-11.7908
▁부럽다	-11.7912
▁내셨어	-11.7913
투	-11.7914
▁자극	-11.7917
▁보상받	-11.7919
▁유행하	-11.7925
▁요양원에서	-11.7926
▁놀릴	-11.793
놓았는데	-11.7936
설	-11.7936
했으니까	-11.7939
▁몰랐지	-11.794
▁때문이라	-11.7941
▁시설	-11.7949
▁재혼하셨	-11.7952
▁됐나	-11.7956
▁정리해야	-11.7957
▁처지에	-11.7959
▁한심스럽	-11.7959
▁챙겨준	-11.7959
▁사람일까	-11.7959
▁퇴직해야	-11.796
▁지갑이	-11.796
▁깎아	-11.7966
▁생겼으니	-11.7967
간다고	-11.7967
▁마찬가지	-11.7968
▁결혼했어	-11.7972
▁배려해	-11.7975
▁실망할	-11.7977
▁지내니	-11.7978
된다	-11.7991
▁아나	-11.7993
▁않는지	-11.7995
▁기대되	-11.7996
전부터	-11.7998
파	-11.8003
▁비결	-11.8006
했었지	-11.8007
▁시킬	-11.8009
해봤는데	-11.8016
▁차지	-11.8025
▁귀에	-11.8026
▁크다	-11.803
수도	-11.803
▁건망증	-11.8036
▁미안해져	-11.8036
▁일상에	-11.8039
▁머	-11.8044
하든지	-11.8045
▁콘서트	-11.8045
▁길어	-11.8056
▁나누면	-11.8056
▁밑에	-11.8056
▁노동	-11.8057
▁것밖에	-11.8057
▁실패해	-11.8058
▁들어보니	-11.8058
▁복지관	-11.8059
다지	-11.8059
▁직장인데	-11.8065
▁생각인	-11.807
▁지나쳐	-11.807
▁찾아갔	-11.807
리를	-11.8072
▁결제	-11.8079
▁것일까	-11.8079
▁식이	-11.8081
냈어	-11.8081
▁싫어할	-11.8086
▁않겠다	-11.8089
시니	-11.8094
▁대견	-11.8098
▁육아휴직	-11.8099
▁동영상	-11.8107
▁갇혀	-11.811
문제로	-11.8112
킬	-11.8115
▁대회에	-11.8116
▁안정적이	-11.812
▁후원	-11.8121
▁서글픈	-11.8121
▁꺼내야	-11.8122
▁염치	-11.8122
▁보여드릴	-11.8123
▁성화	-11.8124
덧	-11.8125
▁주부	-11.8125
▁바쳤	-11.8127
▁종합	-11.8127
▁뚱뚱한	-11.8127
▁부끄러움	-11.8127
▁쐬면	-11.8127
▁씻지	-11.8127
▁잔병치레	-11.8127
▁젊게	-11.8127
▁즐거움	-11.8127
▁축의금	-11.8127
▁피드백	-11.8127
▁기러기	-11.8127
▁여름휴가	-11.8127
▁닫았	-11.8127
▁신규	-11.8127
▁귀엽	-11.8127
▁병시중	-11.8127
▁자기주장	-11.8127
▁공공	-11.8127
▁노크	-11.8127
▁마땅치	-11.8127
▁코로나바이러스	-11.8127
▁평판	-11.8127
▁팔십	-11.8127
▁기관지염	-11.8127
▁모른척	-11.8127
▁면회	-11.8127
▁극단적	-11.8127
▁임종	-11.8127
▁월요일	-11.8128
▁실버	-11.8128
▁놓친	-11.8128
▁어두운	-11.8128
▁사회복지사	-11.8128
▁의심스러운	-11.8128
▁구제	-11.8128
▁진정되	-11.8129
▁하마	-11.8129
▁자랑스러운	-11.8129
▁쓰이고	-11.813
▁내성적인	-11.813
▁대표님께	-11.813
▁적용	-11.813
▁기증자	-11.813
▁버느라	-11.813
▁같던데	-11.8131
▁재료	-11.8131
▁거슬려	-11.8131
▁오답	-11.8132
▁못마땅해	-11.8132
▁느린	-11.8133
▁염치없	-11.8133
▁얘들	-11.8133
▁권고	-11.8133
▁걸리다니	-11.8134
▁어려우니까	-11.8135
▁미안할	-11.8136
▁보증금	-11.8136
▁은퇴해서	-11.8136
▁나눈	-11.8136
▁위암이	-11.8136
▁넘어졌는데	-11.8136
▁답안지	-11.8137
▁축내	-11.8137
▁어린아이	-11.8138
▁게시판에	-11.8139
▁화나게	-11.8139
▁차렸는데	-11.814
▁운동해야	-11.814
▁좋을텐데	-11.814
▁깔끔하게	-11.814
▁낳았어	-11.8141
▁나가보려고	-11.8143
▁유능한	-11.8143
▁내성적이라	-11.8144
▁몽	-11.8144
▁드러내	-11.8145
▁당신	-11.8146
▁질렀어	-11.8146
▁충격적인	-11.8146
▁여러가지	-11.8148
▁소음	-11.8149
▁고향에	-11.8149
▁동기한테	-11.8149
▁친척들에게	-11.8149
▁평상시에	-11.8151
놨어	-11.8153
▁돌보면서	-11.8153
▁절망감	-11.8154
▁가졌	-11.8154
▁점심시간	-11.8155
▁따라주지	-11.8157
▁해결하려고	-11.8157
▁깜빡하고	-11.8157
▁낄	-11.8158
▁혼란스러웠	-11.816
▁피우지	-11.8161
▁지루해	-11.8163
▁상황과	-11.8165
▁넘쳐	-11.8166
▁얻었어	-11.8167
▁동기와	-11.8167
▁때와	-11.8168
▁금번에	-11.8168
▁나온다	-11.8169
▁나왔거든	-11.817
▁생각해보려고	-11.8171
경	-11.8172
▁세울	-11.8172
▁발휘	-11.8173
▁바꾸는	-11.8174
▁우울한데	-11.8174
▁별수	-11.8175
▁현실적인	-11.8176
▁월	-11.8178
▁맞아야	-11.8179
▁써봐야겠어	-11.8182
어머님이	-11.8182
▁다니라고	-11.8182
▁못했고	-11.8185
▁이장	-11.8185
▁가능한지	-11.8186
▁착하게	-11.8187
▁명의	-11.8188
▁질투심	-11.8188
▁맞겠지	-11.8189
▁이혼하려고	-11.819
▁아시면	-11.8191
▁소질	-11.8191
▁희생된	-11.8192
▁임신했는데	-11.8193
▁벌리기	-11.8194
▁결혼인데	-11.8198
▁어려워지고	-11.82
▁시절이	-11.8206
▁부상	-11.8206
▁늘려야	-11.821
▁갱년기에	-11.8211
▁사과해야지	-11.8211
▁다녀와서	-11.8212
▁도망치	-11.8213
했을	-11.8214
▁다투셔	-11.8215
▁외국에서	-11.8215
▁피부과	-11.8215
▁갔지	-11.8217
▁고생하지	-11.8218
▁사주지	-11.8218
▁치료받으면	-11.8221
▁시키지	-11.8222
▁생활하는데	-11.8223
▁변하	-11.8224
▁믿어서	-11.8225
▁망가지	-11.8227
들어	-11.8228
▁회의에서	-11.8231
▁아버지에게	-11.8233
▁벌려고	-11.8235
▁이럴수	-11.8238
준다면	-11.8239
▁정서적	-11.8245
▁취업하려고	-11.8249
▁생기기	-11.8252
▁괜찮을지	-11.8253
▁준비하려고	-11.8257
▁진행되	-11.8257
▁멍청해	-11.826
▁초에	-11.8262
▁자립	-11.8264
▁웃음	-11.8266
▁버릇없	-11.8267
▁뽑	-11.8268
▁가정생활	-11.8269
▁착각이었	-11.8269
▁친구만	-11.8271
▁낯설어	-11.8273
▁대화하려고	-11.8275
▁움직이	-11.8276
▁대해주	-11.8277
▁셋	-11.8277
▁행동할	-11.8278
지더라고	-11.8279
▁돌이	-11.8279
▁사귀지	-11.8286
▁오진	-11.8286
▁쳐다보기	-11.8287
▁거리감	-11.8288
▁보조	-11.8289
▁식은	-11.829
▁때리지	-11.8292
▁해당	-11.8296
하실까봐	-11.8297
▁상하지	-11.83
▁않는대	-11.83
▁공유하	-11.8301
▁노후자금이	-11.8304
▁조정	-11.8308
▁승낙	-11.8308
▁결혼자금	-11.8309
▁재충전	-11.8309
▁상냥하	-11.8315
▁황당했	-11.8316
▁논다	-11.8316
▁비밀이	-11.8318
치고	-11.8319
▁아줌마들	-11.8319
▁드려서	-11.8326
▁따라주	-11.833
▁백혈병	-11.8333
▁출발	-11.8334
둬	-11.8335
계	-11.8338
▁줄이기	-11.8339
▁공부하지	-11.8343
▁동성애자	-11.8344
▁진단받았	-11.835
▁화낸	-11.8351
▁따돌리기	-11.8353
▁길어지니	-11.8353
▁거절했	-11.8353
▁예쁘다	-11.8362
▁불안할	-11.8362
▁그렇기	-11.8363
▁남자에게	-11.8363
▁심장병	-11.8364
▁슬프더라	-11.8367
▁늦는	-11.8374
▁나아지고	-11.8374
시는	-11.8377
▁들어가면서	-11.8378
▁청소도	-11.8378
▁단골	-11.8379
▁넘어지	-11.838
▁연인이	-11.839
▁되어버렸	-11.8393
났는지	-11.8397
▁잃을까	-11.8401
한다는데	-11.8402
▁중요	-11.8404
▁회복하기	-11.8407
▁다녀보	-11.8416
▁모욕	-11.8421
▁나라	-11.8423
안이	-11.8425
▁맞다	-11.8428
▁매운	-11.8429
▁돌봐줘야	-11.8431
▁담임선생님	-11.8433
▁가꾸	-11.8433
돈	-11.8437
▁밝혀	-11.844
하라는데	-11.8446
▁시술	-11.8449
▁틀어	-11.8457
▁입장이	-11.8458
▁심하지	-11.8463
▁제출해	-11.8469
▁팔려	-11.847
▁중재	-11.847
▁힘겹	-11.8471
▁늘지	-11.8473
▁잔소리로	-11.8474
▁가난하다	-11.8475
▁폐렴	-11.8476
치가	-11.848
▁기관	-11.8481
▁가버렸	-11.8483
졌다고	-11.8485
▁찍고	-11.8485
▁단체에	-11.849
▁가보니	-11.8494
▁반말	-11.8495
▁분가	-11.8495
▁나왔	-11.8496
▁혼나는	-11.8496
▁주변인들	-11.8497
▁탓이라	-11.8499
▁탓만	-11.8501
▁민망	-11.8503
문제	-11.8503
▁챙겼어	-11.8505
▁외롭다고	-11.8506
▁방도	-11.8512
▁싸우시는	-11.8517
▁금지	-11.8518
겼어	-11.852
▁캄캄하	-11.8522
▁당황스러웠지	-11.8528
나서	-11.853
▁처리해	-11.8536
▁뜻이	-11.8536
▁채팅방	-11.8538
▁두지	-11.8539
▁손찌검	-11.854
▁친구마저	-11.8545
하실까	-11.8546
▁뒤쳐지	-11.8547
▁보내줘	-11.8551
▁준비해왔	-11.8551
잡고	-11.8552
▁퇴직하니	-11.8556
▁되찾을	-11.8557
▁많아지니	-11.8564
▁잘하라고	-11.8565
▁후회하	-11.8568
▁받으려	-11.8569
▁어디에서	-11.8574
▁가을이	-11.8577
▁조퇴	-11.8583
정도	-11.8583
▁정하는	-11.8585
▁대화해보	-11.8585
▁퇴사하	-11.8587
▁놈	-11.859
스럽네	-11.859
▁져야	-11.8593
▁준비하면	-11.8595
들이랑	-11.8596
▁난처해	-11.8598
▁경영	-11.8606
▁기대하지	-11.8611
우니	-11.8613
량	-11.8617
▁잊어버렸	-11.8618
▁행동해야	-11.8619
▁커플	-11.8621
▁연락하기	-11.8627
▁살아왔나	-11.8627
▁만화	-11.8628
▁노인네들이	-11.8629
▁금이	-11.8629
▁해놓	-11.863
▁얘기해볼	-11.8631
▁상처받았	-11.8634
댔	-11.8635
▁행운이	-11.8635
▁절제	-11.8636
▁불안정	-11.8636
▁이해하기	-11.8637
▁사주는	-11.8639
▁찾아내	-11.8642
▁장가	-11.8643
▁마주치	-11.8648
▁신고해야	-11.8648
지르고	-11.8651
해줘야지	-11.8651
▁부하직원들	-11.8655
▁말해줘야	-11.8656
▁취향	-11.8657
있는데	-11.8657
▁대표님	-11.8658
▁실망스러	-11.8659
라네	-11.8668
▁생활비로	-11.8672
▁회사랑	-11.8674
▁체계적	-11.8676
▁심해지기	-11.8676
▁있자	-11.8676
것같아	-11.8677
▁부담스럽	-11.8681
▁안절부절못	-11.8685
▁대해서도	-11.8686
▁가능하다	-11.8687
▁연락하	-11.8687
▁노름	-11.8692
▁등록금이	-11.8692
변	-11.8692
▁싹싹	-11.8693
▁백내장이	-11.8694
▁들어가야	-11.8696
▁지방대	-11.8704
▁편의점	-11.8705
▁양을	-11.8706
▁반대하는	-11.8706
▁편찮으	-11.8706
뿐인	-11.8706
▁예약해	-11.8708
▁사과했어	-11.8712
▁봐주는	-11.8715
▁의심해	-11.8717
▁도서관	-11.8718
씨	-11.8718
▁끝나는	-11.872
건만	-11.8721
▁되어있	-11.8725
▁직종	-11.8725
▁소통하	-11.8726
▁가득	-11.8726
샌	-11.8733
좀	-11.8739
웠는데	-11.8743
▁뉘우치	-11.8745
▁고쳐야	-11.8745
▁시도해봐야겠	-11.8746
▁망가	-11.8747
▁검색해	-11.875
▁전업주부	-11.875
▁좌절했	-11.8751
▁일용직	-11.8752
▁돌려받	-11.8755
▁연습해	-11.876
▁퇴사한	-11.876
▁왔을	-11.8764
▁서먹해	-11.8764
▁찾아온	-11.8767
▁후회되	-11.8767
람	-11.8769
▁학년	-11.877
▁떨쳐	-11.877
▁내밀어	-11.8771
▁유지해	-11.8772
▁키워주	-11.8783
▁넉넉하	-11.8783
▁반려견	-11.8784
▁다단계	-11.8786
▁옷차림	-11.8787
▁해봤	-11.8788
▁보여주면	-11.8788
식이	-11.8794
▁승인	-11.8794
▁동무들이	-11.8795
▁파일	-11.8796
▁결혼해야	-11.8797
▁그룹	-11.8799
▁잘되	-11.8801
두	-11.8801
▁금번	-11.8801
▁구한	-11.8805
▁회피하	-11.8806
▁거부	-11.8811
▁빼앗	-11.8812
▁접근	-11.8812
툰	-11.8816
▁말씀하셨	-11.8817
▁쥐꼬리만	-11.8818
▁떠나갈	-11.8819
▁잊었	-11.8823
▁만족스럽	-11.8825
려구	-11.8826
▁필수	-11.8829
▁그에	-11.8834
하시던	-11.8835
▁힘드신	-11.8835
▁서러운	-11.8836
▁캐	-11.8836
▁싶었지	-11.8838
▁취업준비	-11.884
▁뜨개질	-11.8841
▁곰곰	-11.8841
▁돕는	-11.8841
▁딸내미	-11.8841
▁멈출	-11.8841
▁미세먼지	-11.8841
▁씀씀이	-11.8841
▁아낌없	-11.8841
▁애지중지	-11.8841
▁어버이날	-11.8841
▁의외	-11.8841
▁젊음	-11.8841
▁착잡하	-11.8841
▁텃세	-11.8841
▁가로챘	-11.8841
▁거들떠	-11.8841
▁전생에	-11.8841
▁즐거울	-11.8841
▁풍경	-11.8841
▁저렴	-11.8841
▁저녁식사	-11.8841
▁협력	-11.8841
▁충원	-11.8841
▁영희	-11.8841
▁청약	-11.8841
▁구직활동	-11.8842
▁기죽	-11.8842
▁알뜰	-11.8842
▁손편지	-11.8842
▁마찰	-11.8842
▁방역	-11.8842
▁당혹스러운	-11.8842
▁재무	-11.8842
청해봐야겠어	-11.8842
▁고혈압약	-11.8842
▁없으신	-11.8842
▁신혼집	-11.8843
▁성인병	-11.8843
▁귀여운	-11.8843
▁않았더라면	-11.8843
▁괜찮아지겠지	-11.8843
▁이름이	-11.8843
▁몸살	-11.8843
▁아들놈	-11.8844
▁요청해볼까	-11.8844
▁화려하	-11.8844
▁구했	-11.8844
▁심리적으로	-11.8844
▁과장님께	-11.8845
▁원하셔	-11.8845
▁있다던데	-11.8845
▁죽었대	-11.8846
▁성인인데	-11.8846
▁마주칠	-11.8847
▁잘나가	-11.8847
▁체육시간에	-11.8847
▁시작해볼까	-11.8848
▁터무니없	-11.8848
▁여든	-11.8848
▁표현하는	-11.8848
▁체력적으로	-11.8848
▁언쟁	-11.8848
▁간단하게	-11.8849
▁됐을까	-11.8849
▁걸어볼까	-11.8849
▁일처리	-11.885
▁구실	-11.885
▁중요할	-11.8851
▁진통	-11.8851
▁장모님	-11.8851
▁깨어나	-11.8851
▁챙겨줬는데	-11.8852
▁부장님한테	-11.8852
▁둥	-11.8853
▁회복될	-11.8853
▁가져보	-11.8853
▁좋았거든	-11.8853
▁신부	-11.8854
▁소소하게	-11.8854
▁우울할	-11.8854
▁거래처와	-11.8856
▁다름없	-11.8857
▁오십이	-11.8857
▁기다렸는데	-11.8858
▁사이라	-11.8858
▁바빴는데	-11.8858
▁아빠로서	-11.8859
▁입상	-11.8859
▁특기	-11.8859
▁시작할까	-11.886
▁똑똑한	-11.886
▁겨를	-11.886
▁찾아왔어	-11.8861
▁잊으려고	-11.8861
▁작품	-11.8862
▁동료들한테	-11.8862
미처	-11.8862
▁군대에	-11.8863
▁단정	-11.8863
▁문제일까	-11.8863
▁실업자	-11.8864
▁데려와서	-11.8865
▁두려웠	-11.8866
▁억울하지	-11.8868
▁바른	-11.8868
▁고쳐야겠어	-11.8868
▁급한데	-11.8868
▁챙기라고	-11.8869
▁보태주지	-11.8871
▁지겹고	-11.8871
▁반가웠	-11.8872
▁풍족하	-11.8873
▁오전에	-11.8873
이라네	-11.8873
▁간섭하지	-11.8874
같아	-11.8874
▁자격지심이	-11.8875
▁어색한	-11.8876
▁화난	-11.8877
▁상관없는	-11.8878
▁지르면	-11.8879
▁가능할지	-11.888
▁없는걸	-11.8881
▁은퇴해야	-11.8881
▁쓸쓸한	-11.8881
▁도와줘야지	-11.8882
▁짧아서	-11.8882
주면서	-11.8883
▁구하려고	-11.8884
▁견디고	-11.8885
▁맞으면	-11.8885
▁들러	-11.8886
▁독서실에서	-11.8891
▁철없	-11.8894
▁숨겼	-11.8897
▁평일에	-11.8897
▁보복	-11.8898
▁위로해줄	-11.8899
▁불편해하는	-11.8899
▁뉴스에	-11.8899
▁놀아주지	-11.8899
▁남들한테	-11.89
▁그만두지	-11.8901
▁노인이라	-11.8902
▁순간부터	-11.8903
▁안경	-11.8903
▁다가올	-11.8903
▁화해했어	-11.8904
▁발견했	-11.8904
▁대학병원에	-11.8905
▁고르	-11.8906
▁우리끼리	-11.8906
▁분석	-11.8907
▁안됐는데	-11.8909
▁욱하	-11.891
▁출근하면	-11.891
▁도전할	-11.8911
▁털어놨	-11.8912
▁싶었거든	-11.8913
▁이곳	-11.8913
▁설치	-11.8916
▁부담스럽고	-11.8917
▁관리해야지	-11.8917
▁못했지	-11.8919
▁축하한다	-11.8919
▁임신했다	-11.8921
▁물어보는데	-11.8925
▁찢어지	-11.8927
▁합격하지	-11.8927
▁졸라	-11.8928
▁일처럼	-11.8931
▁장난이	-11.8932
하기에	-11.8933
▁돌아가실	-11.8935
▁모이지	-11.8936
▁친해져야	-11.8936
▁지경이	-11.8936
▁만만해	-11.8938
▁무능력해	-11.8939
▁해결하지	-11.8939
▁요리사	-11.894
▁벽	-11.8942
▁그런거	-11.8942
▁돌아다니	-11.8944
▁시원	-11.8945
▁사준다	-11.8945
▁대리님	-11.8946
시켰어	-11.8946
▁과정이	-11.8947
▁연애에	-11.8948
▁뻔해	-11.895
▁하라	-11.8951
▁그럴수	-11.8951
▁죽어버리	-11.8952
▁난청	-11.8953
▁아버지랑	-11.8954
▁인공	-11.8956
▁잘했어야	-11.8957
▁자겠어	-11.8957
▁말하	-11.8958
▁감시	-11.8958
▁했으니까	-11.8962
▁덜어	-11.8963
▁들었다는	-11.8964
▁잘되지	-11.8964
▁좋아야	-11.8964
▁좋다는데	-11.8965
▁데려왔	-11.8966
▁퇴원할	-11.8966
▁붙어서	-11.8967
▁당당해지	-11.8968
▁챙겨야지	-11.8969
하겠지	-11.897
▁다치게	-11.8971
▁부르지	-11.8971
▁따라갈	-11.8971
▁찾게	-11.8972
▁축하해주	-11.8978
▁노고	-11.8979
▁배신하고	-11.898
▁잘해보려고	-11.8982
셨던	-11.8982
▁수술로	-11.8982
▁벌려	-11.8986
▁산책하는	-11.8988
▁건강해지고	-11.8991
▁격	-11.8993
▁권위	-11.8993
▁걸리기	-11.8994
▁소득으로	-11.8996
▁우선이라	-11.8997
▁집이랑	-11.9004
▁고치는	-11.9004
▁사과하기	-11.9005
▁무능해	-11.9006
▁목격	-11.9007
▁대면	-11.9008
았다고	-11.9008
▁친해지지	-11.9009
▁에이	-11.9009
▁결국에	-11.9012
▁단기	-11.9014
▁여자라	-11.9015
▁퇴직하	-11.9015
▁주변사람들	-11.9017
▁봤지	-11.9017
▁무시할까	-11.9017
▁이해하는	-11.9022
▁해보아야겠어	-11.9026
▁해야만	-11.9027
▁친하던	-11.9028
▁보여야	-11.9031
▁그때까지	-11.9035
▁재혼한	-11.9035
▁대표님이	-11.9038
▁최고인	-11.904
▁정직하	-11.904
▁많아진	-11.9041
게끔	-11.9043
▁빠듯하	-11.9046
▁고졸이라	-11.9048
버릴까	-11.9055
▁나빠지니	-11.9058
▁성한	-11.9059
▁바꾸기	-11.9061
▁않을래	-11.9064
▁버티는	-11.9069
▁대장	-11.907
▁사이인데	-11.907
▁소홀했	-11.9072
▁육아에	-11.9077
▁당했다는	-11.9078
▁따라가지	-11.9079
▁많아졌	-11.9082
▁뿌듯하	-11.9085
▁빨라	-11.9085
▁회사일	-11.9085
▁수리	-11.909
▁태도로	-11.9093
▁실망하셨	-11.9099
▁들어놓	-11.91
▁해고당할	-11.9102
말고	-11.9105
▁화내서	-11.9111
▁어려워졌	-11.9115
▁괴롭힘당하는	-11.912
▁깨지	-11.9128
▁호전되	-11.913
갔더니	-11.9131
▁직무에	-11.9134
▁트	-11.9135
▁장래희망	-11.9139
▁직업이라	-11.9141
▁따질	-11.9142
▁실내에	-11.9143
▁훔쳤	-11.9144
▁물었	-11.9144
▁꺼내지	-11.9145
▁체육대회	-11.9151
▁갱년기인	-11.9153
진다고	-11.9154
▁떡	-11.9155
주실	-11.9157
▁못생겼	-11.9158
▁실망스러웠	-11.9158
▁쪽이	-11.916
▁잘살아	-11.9162
▁없기	-11.917
▁저는	-11.917
▁미안하	-11.9174
▁갑갑하	-11.9175
▁이해해주는	-11.9176
생	-11.9177
▁나눠주	-11.9177
▁정했어	-11.9181
▁혼란	-11.9181
▁것까지	-11.9182
▁관리하	-11.9192
▁믿겠	-11.9192
▁말씀하시	-11.9193
▁합격하고	-11.9194
▁유대감도	-11.9197
▁창피한	-11.9201
▁은퇴인데	-11.9202
▁다그치	-11.9204
▁혼란스럽다	-11.9219
▁자제하	-11.9221
▁옮기기	-11.9222
▁빈곤해	-11.9224
▁나무	-11.9225
▁낳으라	-11.923
▁되어있어	-11.923
▁치면	-11.923
▁젊은이들이	-11.9232
▁보인	-11.9234
▁기분으로	-11.9234
▁마쳤	-11.9236
▁초라해지	-11.9239
시니까	-11.9241
▁맞았	-11.9245
해놔서	-11.9259
▁아비	-11.9261
▁거절하기	-11.9262
▁그랬냐	-11.9263
▁찾아주	-11.9265
▁되찾아야겠	-11.9269
▁풍족	-11.927
▁벌릴	-11.9273
▁많아지는	-11.9275
문	-11.9276
시키는데	-11.928
병	-11.9284
든가	-11.9288
▁일생	-11.9294
명	-11.9296
▁정할	-11.9298
▁얻었	-11.93
▁먹다	-11.9305
▁형만	-11.9306
▁불편했	-11.9312
▁공평하	-11.9316
▁허망하	-11.9321
▁어필	-11.9326
▁상처받을	-11.9326
▁새어머니	-11.933
▁뿌듯	-11.933
▁출근하	-11.934
▁쪽지	-11.9343
▁실업	-11.9346
▁퇴직이	-11.9349
▁멍청하	-11.9358
▁헤어지자는	-11.9361
주셨는데	-11.9362
▁뜸해지	-11.9362
급	-11.9363
▁끼칠	-11.9363
▁취직하기	-11.9365
▁손목	-11.9366
▁알아보면	-11.9367
▁화목해	-11.9368
▁세입자	-11.937
▁긍정적이	-11.9371
▁올랐다	-11.9377
▁다투시	-11.938
▁진심이	-11.9385
술	-11.9388
▁나아가	-11.9393
▁효율적	-11.9395
▁걱정되지	-11.9396
▁배우기	-11.9397
▁아르바이트로	-11.9397
▁홀가분	-11.9397
▁그만두어야	-11.9406
▁입학할	-11.9408
▁지목	-11.9415
▁심란하	-11.9418
않아	-11.9424
▁부끄럽더라	-11.9425
▁챙긴	-11.9426
▁범인	-11.9433
▁키워봐야	-11.9434
▁올라갔	-11.9435
▁공무원이	-11.9441
▁보살	-11.9443
▁떳떳	-11.9444
▁만드	-11.9446
혀	-11.9446
▁아프더라	-11.9447
실감이	-11.9449
▁대에	-11.9455
더러	-11.9455
▁주더라	-11.9456
▁고려	-11.9457
▁커지	-11.9463
월	-11.9463
▁합격이	-11.947
▁떠넘기는	-11.9472
▁늘어놓	-11.9472
▁침대	-11.9472
▁집중해야	-11.9473
▁창피하다	-11.9476
▁전할	-11.9478
▁건강하던	-11.948
▁배치	-11.9483
▁알아가	-11.9484
▁틀	-11.9487
▁저항	-11.9492
▁마이너스	-11.9496
말이	-11.9496
익이	-11.9501
▁멋있	-11.9502
▁냈지	-11.9507
▁한국에	-11.9508
▁생기더라	-11.9508
돌릴	-11.9508
▁제자	-11.9508
곧	-11.9514
▁따랐	-11.9515
▁허무하다	-11.9518
▁했다니	-11.9518
▁보살피	-11.952
로운	-11.9521
▁틀렸다	-11.9522
▁거절하	-11.9522
▁놔두	-11.9525
▁퇴원한	-11.9527
색이	-11.9536
▁답답하지	-11.9537
▁응원해줘	-11.9541
정한	-11.9541
▁결정하는	-11.9542
▁바쁘니	-11.9544
▁이야기했는데	-11.9544
▁짜증나는	-11.9549
▁부족할	-11.9551
▁좋겠	-11.9552
▁이용하	-11.9558
▁착	-11.956
▁베	-11.9562
▁음식만	-11.9562
▁몰아	-11.9562
▁거절당	-11.9563
▁가까워	-11.9566
룰	-11.9567
했단	-11.9568
▁처지인	-11.9568
었대	-11.9571
▁평일	-11.9574
▁지긋지긋하다	-11.9574
▁무식	-11.9575
▁보태주	-11.9576
▁태산이	-11.9578
▁고립되	-11.9578
▁누워있는	-11.9578
▁것이니	-11.9579
▁내려오	-11.9584
아야지	-11.9585
▁강제	-11.9587
▁와야	-11.9589
▁재촉해	-11.9591
▁조바심	-11.9593
▁이미지	-11.9593
류	-11.9595
▁칼	-11.9596
킨	-11.9598
▁켜	-11.9602
▁술자리에	-11.9604
▁돈이라	-11.9604
▁생산	-11.9607
▁적응하	-11.9607
▁빠질	-11.9607
▁접수	-11.9608
싼	-11.9609
▁경조사	-11.961
▁객관	-11.961
▁노후대책	-11.961
▁무너진	-11.961
▁밉다	-11.961
▁붙고	-11.961
▁뿌리	-11.961
▁스포츠	-11.961
▁쌓을	-11.961
▁썼으면	-11.961
▁쏟았	-11.961
▁예체능	-11.961
▁용납	-11.961
▁인신공격	-11.961
▁좁은	-11.961
▁퉁명스럽	-11.961
▁틀어박혀	-11.961
▁햇빛	-11.961
▁확정	-11.961
▁훈육	-11.961
▁분노조절장애	-11.961
▁기쁠	-11.9611
▁가방끈	-11.9611
▁교통	-11.9611
▁아가씨	-11.9611
▁교복	-11.9611
▁도우미	-11.9611
▁저지른	-11.9611
▁아무짝에	-11.9611
▁난감하네	-11.9611
▁창문	-11.9611
▁공통	-11.9611
▁혹여	-11.9611
▁대인기피증	-11.9611
▁동성	-11.9611
▁쑥스러워	-11.9611
▁차별하는	-11.9611
▁식욕	-11.9612
▁스승님께	-11.9612
▁전반적	-11.9612
▁경력직	-11.9612
▁서류전형에서	-11.9612
▁퇴근길에	-11.9613
▁실려	-11.9613
▁고민중이야	-11.9613
▁액수	-11.9613
▁틀니	-11.9614
▁나쁠	-11.9614
▁실망스럽네	-11.9614
▁다녀올까	-11.9615
▁각각	-11.9615
▁공포	-11.9615
▁하시니	-11.9615
▁불공평한	-11.9616
▁말씀하셔	-11.9616
▁면에서	-11.9616
▁경치	-11.9616
▁고모	-11.9616
▁왕따시켜	-11.9616
▁상속	-11.9617
▁그립	-11.9617
▁문병	-11.9617
▁방식이	-11.9617
▁서운함	-11.9619
▁망신	-11.9619
▁사모님	-11.962
▁낳았는데	-11.962
▁마음먹었어	-11.9621
▁이놈	-11.9621
▁진학할	-11.9622
▁선물해줬어	-11.9623
▁피하려고	-11.9624
▁안일하게	-11.9624
▁희생해야	-11.9625
▁모았는데	-11.9625
빠질까	-11.9625
▁사주려고	-11.9625
▁제출했는데	-11.9627
▁테고	-11.9627
▁희생되는	-11.9627
▁경과	-11.9628
▁형제들	-11.9628
▁고쳐지지	-11.9629
▁틱	-11.9631
▁느꼈던	-11.9631
▁버니까	-11.9634
▁놀았는데	-11.9635
▁타협	-11.9635
▁불합격했어	-11.9637
▁최선인	-11.9638
▁알아봐야겠지	-11.9639
▁지울	-11.964
▁향	-11.964
▁이어나가	-11.964
▁청력	-11.9642
▁잊어버릴	-11.9642
▁이곳에서	-11.9646
▁의문스럽	-11.9647
▁물어야	-11.9648
▁앞서네	-11.9652
▁당첨이	-11.9652
▁모르셔	-11.9652
▁생각뿐이야	-11.9653
▁가능하	-11.9653
▁진도	-11.9654
▁없었지	-11.9656
▁씨한테	-11.9656
▁초라해져	-11.9656
▁위축돼	-11.9658
▁믿어야	-11.9659
▁싫은가	-11.9659
인거	-11.966
▁걱정되는데	-11.9661
▁흥분되	-11.9661
▁예순	-11.9663
▁방식으로	-11.9663
▁그중에	-11.9663
▁하나만	-11.9664
▁진중	-11.9665
▁이루어지	-11.9667
▁백수야	-11.9668
▁들어주	-11.9671
▁타다	-11.9672
▁잃어버렸는데	-11.9672
▁거절하지	-11.9672
▁건강하기	-11.9673
▁망가져	-11.9675
▁많아지네	-11.9675
▁허탈감	-11.9676
▁기대했던	-11.9676
▁용서할	-11.9676
▁평소와	-11.9676
▁좋아하니	-11.9677
▁못하겠고	-11.9678
▁혼난	-11.968
▁덕분인	-11.9682
▁소용없는	-11.9682
▁열리	-11.9683
▁점수에	-11.9684
▁준비하느라	-11.9685
▁조롱	-11.9686
▁분배	-11.9687
▁할머니와	-11.9688
▁놀이공원에	-11.969
▁해결하기	-11.969
▁때문이지	-11.9691
▁그쪽	-11.9693
▁게으르	-11.9694
▁큰딸이	-11.9696
▁입사했	-11.9697
▁환자들	-11.9697
▁보여주면서	-11.9697
▁터지	-11.9699
▁벌었는데	-11.9701
▁작게	-11.9701
▁부질없어	-11.9702
▁넉넉한	-11.9703
▁바닥에	-11.9707
주길	-11.971
▁보이겠지	-11.971
▁건강해지면	-11.9711
▁전해야	-11.9711
▁준다는	-11.9713
▁나왔네	-11.9717
▁행사에	-11.9719
▁해줄까	-11.9719
▁지게	-11.9722
▁미쳐	-11.9725
▁진행한	-11.9725
▁있을거야	-11.9727
▁관리해	-11.9728
▁부족하지	-11.973
▁사과해야겠	-11.9734
▁회식에서	-11.9735
▁온대	-11.9737
▁소외시키는	-11.9739
▁잠자리	-11.9739
▁고생시키	-11.9741
▁자식이라고	-11.9741
▁그러시는	-11.9742
▁나온다고	-11.9745
▁남자한테	-11.9746
▁참다	-11.9748
▁여성이	-11.9749
▁공부한다고	-11.9749
▁전문적	-11.9749
▁건강만	-11.975
▁침대에	-11.975
▁손발	-11.9754
▁서둘러	-11.9755
▁나오게	-11.9756
▁부부간	-11.9757
▁엄격하	-11.9761
▁요청하	-11.9762
▁건강식	-11.9762
▁좋아할까	-11.9763
▁그때부터	-11.9764
▁정신과에	-11.9765
▁시댁에서	-11.9765
▁낳는	-11.9767
▁쉬다	-11.9767
▁매력이	-11.9768
▁오해할	-11.9768
치는	-11.9769
▁운동한	-11.977
▁약해졌	-11.9772
▁전역	-11.9773
▁어기	-11.9775
▁아이들이랑	-11.9776
▁정리하	-11.9777
▁두통이	-11.9778
▁공간에	-11.9779
▁넘으니	-11.9779
▁동성애자인	-11.978
▁처방해	-11.9781
▁약으로	-11.9785
▁질투하는	-11.9785
당	-11.9786
▁말했지	-11.9789
▁방치	-11.9791
▁기다렸다	-11.9791
▁비웃을	-11.9792
▁헛되	-11.9793
▁인사해	-11.9796
▁때문일까	-11.9796
▁보건소에	-11.9798
▁도와주려	-11.9799
▁옆자리에	-11.98
▁아니다	-11.9802
▁돌이켜	-11.9803
리라	-11.9805
▁구분	-11.9808
▁비관	-11.9811
▁만나겠어	-11.9812
▁유치원에	-11.9816
▁포기하는	-11.9817
▁개월이	-11.9819
▁투자할	-11.9827
▁어리석었	-11.9829
▁멀쩡하	-11.983
▁잘해줬어	-11.9833
▁든다는	-11.9833
▁버릴까	-11.9834
▁악화되지	-11.9838
▁집안일이	-11.9844
▁없다는데	-11.9849
▁괴롭힘이	-11.9849
▁결혼생활에	-11.9851
▁못하도록	-11.9851
▁유부남	-11.9856
▁위에서	-11.9856
▁미치겠	-11.9861
▁놀이	-11.9865
▁투자했	-11.9866
▁행	-11.987
▁어렵겠지	-11.987
▁쌓이	-11.9873
▁때리기	-11.9874
▁사항	-11.9875
▁세상이야	-11.9882
하기는	-11.9884
▁아니겠어	-11.9887
▁아니래	-11.9888
▁투자에	-11.9888
▁엉망	-11.9894
▁하길	-11.9895
▁취업하지	-11.9899
▁나가래	-11.9901
▁생활하다	-11.9908
▁아니거든	-11.9909
▁찾아봐야겠지	-11.9913
▁안쓰럽다	-11.9914
▁한쪽이	-11.9915
됐는데	-11.9918
▁상위권	-11.9919
▁성사	-11.9921
▁출근하고	-11.9926
▁직급	-11.993
편	-11.993
▁구경	-11.993
▁하는걸	-11.9934
▁생각나지	-11.9934
▁인정받을	-11.9936
▁뒷바라지해	-11.9938
▁저리	-11.9941
▁말해주는	-11.9945
▁빌려갔	-11.9946
▁도와주시	-11.9948
▁식사하고	-11.9951
▁자신과	-11.9958
▁말리	-11.9962
▁받았고	-11.9962
▁수상	-11.9963
▁부족하니	-11.9964
겠더라고	-11.9965
▁괴롭히면	-11.9965
▁자랑하	-11.9967
▁헛소문	-11.9972
▁무섭다	-11.9978
▁어떠냐	-11.9979
▁참으면	-11.998
▁과학	-11.9982
▁놀고먹	-11.9985
▁늦을	-11.9986
▁괴롭히기	-11.9988
▁크기	-11.9992
▁처	-11.9995
▁상담이	-11.9995
▁방관	-12
▁않았고	-12.0001
▁있겠	-12.0002
▁축복	-12.0003
▁어린애	-12.0003
▁쓰니	-12.0005
▁오천	-12.0006
▁자기도	-12.0006
▁포함	-12.0006
▁동년배들	-12.0008
▁조급하	-12.0016
▁외면해	-12.0017
▁배경	-12.0018
▁되어줄	-12.0018
▁악성	-12.0021
▁찾으	-12.0025
▁터	-12.0027
▁편인	-12.0039
▁후임이	-12.0045
▁칠순	-12.0045
▁고의	-12.0045
두리	-12.0046
▁정규직이	-12.0047
▁잘했다는	-12.0052
▁골다공증이	-12.0052
했네	-12.0053
▁감당해야	-12.0062
▁기쁘기	-12.0065
살이	-12.0066
▁가입할	-12.0072
▁기뻐하는	-12.0075
▁기르	-12.0076
▁풀어보	-12.0077
▁충실	-12.0081
리니까	-12.0081
▁지날	-12.0082
▁면접관들	-12.0083
▁혼자라	-12.0095
▁후련하	-12.01
▁스트레스받지	-12.01
▁스승님	-12.0101
▁체육대회에	-12.0103
▁차장	-12.0105
▁거절당했	-12.0108
▁기억에	-12.0108
▁인테리어	-12.011
▁기본이	-12.0112
▁제자리	-12.0118
▁때문	-12.012
어진	-12.0122
▁고용하	-12.0124
▁정신병이	-12.0125
▁많았다	-12.0128
▁거니	-12.0133
▁부럽더라	-12.0136
▁형성	-12.0138
▁풀면	-12.0138
▁다투었	-12.014
▁지역에	-12.0143
▁당첨	-12.0144
▁처방받	-12.0144
▁털어놓았	-12.015
▁적자	-12.0153
▁기대하	-12.0155
▁장애인이라	-12.0157
티	-12.0164
▁꼴찌	-12.0167
▁채점	-12.017
▁단계	-12.0171
률	-12.0173
▁못하겠지	-12.0174
▁젊은이	-12.0175
▁학교폭력이	-12.0176
▁괘씸하	-12.0176
▁차려야	-12.0179
▁살아보	-12.0182
▁연장	-12.0182
▁하겠다는	-12.0182
버려야겠어	-12.0185
▁믿어줘	-12.0188
▁망칠까	-12.0188
▁받았다	-12.0189
▁장소에	-12.0191
심돼	-12.0191
▁강박증	-12.0193
들었거든	-12.0193
▁휴학	-12.0195
▁연락하면	-12.0197
식으로	-12.0198
▁목격했	-12.0206
▁패	-12.0207
▁일인가	-12.0207
행	-12.0208
▁여자들	-12.0212
▁느끼기	-12.0213
▁피시방	-12.0214
▁이해하려	-12.0215
결	-12.0215
▁부탁한	-12.0217
되었는데	-12.022
▁윗집	-12.0221
▁회장이	-12.0221
▁국민연금이	-12.0223
▁기준	-12.0227
보여	-12.0227
▁납득	-12.0231
▁돈보다	-12.0235
▁못생기	-12.0237
▁받아들여야	-12.0238
▁무능하	-12.0239
▁싫지	-12.0243
▁순위	-12.0247
▁소원이	-12.0248
▁가족력	-12.0251
▁옮겨야	-12.0254
▁위안	-12.0256
▁진행해	-12.0257
주었어	-12.0261
백	-12.0262
▁스타일이	-12.0265
▁상태에	-12.0265
▁해드릴	-12.0265
▁깨달	-12.0266
▁하소연할	-12.0267
▁다스리	-12.0269
▁누나만	-12.027
▁학교폭력위원회	-12.0271
▁취업난이	-12.0281
▁필요하지	-12.0282
▁점수로	-12.029
▁휴대전화	-12.029
▁큰아들	-12.0294
주겠대	-12.0302
왔네	-12.0306
▁대학에서	-12.0306
▁값이	-12.0307
채	-12.031
▁인정할	-12.0313
▁풀리더라	-12.0318
▁유치	-12.0318
▁혈당	-12.0319
준비	-12.0321
▁나이대	-12.0322
▁답장	-12.0324
▁올렸	-12.0326
▁머리에	-12.0327
▁궁금	-12.0331
저래	-12.0331
▁더듬	-12.0332
▁몰려	-12.0333
▁동사무소	-12.0333
▁잘못하는	-12.0334
▁명일	-12.034
▁따돌리지	-12.0345
▁됐으니	-12.0346
▁속여	-12.0348
▁이혼할까	-12.0351
▁변기	-12.0351
▁느껴지더라	-12.0353
▁가정이라	-12.036
▁당부	-12.0363
▁떠넘기	-12.0369
▁좋아하시는	-12.037
근	-12.037
▁수술도	-12.0373
▁많더라	-12.0373
▁재촉하	-12.0373
▁결정해	-12.0374
▁얘기해봐야	-12.0375
집에서	-12.0375
당하는	-12.0376
▁내려고	-12.0383
▁자식들만	-12.0384
▁성공하는	-12.0387
▁낙하산	-12.0388
▁올라와	-12.0388
▁일기장	-12.039
▁개인연금	-12.0391
▁합격했다	-12.0391
▁생일이었	-12.0397
였다고	-12.0397
▁늦둥이	-12.04
▁애쓰	-12.0402
▁떨어야겠	-12.0403
▁아래	-12.0403
▁치질	-12.0404
▁방치하	-12.0408
▁물건들	-12.0411
봤	-12.0412
▁엉뚱한	-12.0412
▁기대는	-12.0414
▁암울하	-12.0418
▁늘려야겠	-12.042
▁쫓기	-12.042
▁결단	-12.0429
상태	-12.0429
▁해고됐	-12.0432
▁미움	-12.0435
▁범죄	-12.0435
▁운명	-12.0435
▁어렵더라	-12.0438
▁사돈댁	-12.0439
로써	-12.0441
▁별로인	-12.0441
▁헬스	-12.0442
▁서툴	-12.0442
▁봐주	-12.0443
▁예술	-12.0443
▁졸혼	-12.0443
컥	-12.0444
앨	-12.0444
▁유럽	-12.0444
▁구십	-12.0444
▁멀었	-12.0444
▁갚겠다	-12.0444
▁보잘것없	-12.0444
▁빠짐	-12.0444
▁썼다	-12.0444
▁않대	-12.0444
▁인문계	-12.0444
▁인센티브	-12.0444
▁짧다	-12.0444
▁친아빠	-12.0444
▁프리랜서	-12.0444
▁미뤘	-12.0444
▁삐끗	-12.0444
▁신용카드	-12.0444
▁카카오톡	-12.0444
▁진즉	-12.0444
▁최종합격	-12.0444
▁학창시절	-12.0444
▁매니저	-12.0444
▁서슴	-12.0444
뮤	-12.0444
▁꼬박	-12.0444
▁모자랄	-12.0444
▁어휴	-12.0444
▁코골이	-12.0444
▁징그러워	-12.0444
▁맞춘	-12.0444
▁세끼	-12.0444
▁우유	-12.0444
▁아침밥	-12.0444
▁말든	-12.0444
▁어림	-12.0444
▁벅찬데	-12.0445
▁선천적	-12.0445
▁박탈감	-12.0445
▁언행	-12.0445
▁조심했어야	-12.0445
▁기타	-12.0445
▁척척	-12.0445
▁비대면	-12.0445
▁비법	-12.0446
▁혐오스러운	-12.0446
▁소원해졌어	-12.0446
▁낙오자	-12.0447
▁자궁	-12.0447
▁괜찮겠지	-12.0447
▁살았으니	-12.0447
▁납	-12.0447
▁편입	-12.0447
▁의사선생님께	-12.0447
▁많던데	-12.0448
▁면허	-12.0449
▁쌍둥이	-12.0449
▁카메라	-12.0449
▁낙이었는데	-12.0449
▁주인공	-12.0449
▁소풍	-12.0449
▁친군데	-12.0449
▁허덕이	-12.0449
▁물품	-12.0449
▁불가능할	-12.045
▁번째인지	-12.045
▁사례	-12.045
▁멀어질	-12.0451
▁노년층	-12.0452
▁친목	-12.0452
▁성취감	-12.0452
▁차갑게	-12.0452
▁탓인가	-12.0453
▁염증이	-12.0453
▁손가락질	-12.0453
▁않냐고	-12.0453
▁찾아야겠지	-12.0454
▁자상한	-12.0454
▁소름	-12.0454
▁풀어보려고	-12.0455
▁물러나	-12.0455
▁기껏	-12.0455
▁바랐는데	-12.0456
▁멍청한	-12.0456
▁퍼트리	-12.0456
▁구해지지	-12.0456
▁중요성	-12.0456
▁멀쩡한데	-12.0456
▁컵	-12.0457
▁마주치면	-12.0457
▁놓인	-12.0457
학력이	-12.0457
▁올랐는데	-12.0458
▁허망해	-12.0458
▁받느라	-12.0458
▁들어가려고	-12.0459
▁주먹	-12.0459
▁치우라고	-12.046
▁조급한	-12.046
▁받거나	-12.0462
▁고립감	-12.0462
▁마셔야지	-12.0462
▁과정에서	-12.0462
▁판이야	-12.0463
▁없단	-12.0464
▁처량해	-12.0464
▁불렀어	-12.0466
▁칸	-12.0466
정자	-12.0466
▁기말고사에서	-12.0466
▁따라다니	-12.0467
▁집사람에게	-12.0467
▁당하니까	-12.0468
▁간호사에게	-12.0468
▁밤새워	-12.0469
▁순수	-12.047
▁마주쳐	-12.0472
▁갔었어	-12.0472
▁받아들여야지	-12.0473
▁중간고사에서	-12.0474
▁나눠보려고	-12.0474
▁갔을	-12.0474
▁얻었는데	-12.0474
▁잃었는데	-12.0474
▁의지해야	-12.0475
▁어두워	-12.0476
▁마주치지	-12.0477
▁정년까지	-12.0477
▁식히고	-12.0479
▁이야기하기	-12.0484
▁고독한	-12.0485
▁노력해보려고	-12.0485
▁챙기려고	-12.0486
▁신입에게	-12.0486
▁날아갔	-12.0487
▁살아보려고	-12.0488
▁올렸어	-12.0488
▁살길이	-12.0489
시키려고	-12.0489
▁직급이	-12.049
▁부모한테	-12.049
▁피자	-12.0491
▁복구	-12.0491
▁합격자	-12.0492
▁도박에	-12.0493
▁악기	-12.0493
▁빌려야	-12.0493
했고	-12.0494
▁이직하려고	-12.0495
▁주저앉	-12.0497
▁손주들과	-12.0497
▁이야기해보려고	-12.0498
▁머릿속에서	-12.0498
▁압박감	-12.0498
▁명의로	-12.0499
▁즐겁고	-12.0499
▁어떡할	-12.0502
▁공부하느라	-12.0502
▁없었지만	-12.0502
▁아까운	-12.0502
▁말하니	-12.0504
▁소원해지	-12.0508
▁털어내	-12.0509
▁검진에서	-12.0509
▁결혼한대	-12.0511
▁지낸다	-12.0512
▁이러나	-12.0516
▁파일이	-12.0517
▁쌓이고	-12.0519
▁보답하고	-12.0521
▁바닥이	-12.0522
가버렸어	-12.0522
▁먹을까	-12.0523
▁전날에	-12.0523
▁아프시	-12.0527
▁의심돼	-12.0531
▁마을에서	-12.0531
▁마주치고	-12.0531
▁맞추어	-12.0531
▁분인데	-12.0532
▁분께	-12.0533
▁건강해진	-12.0534
▁이야기해볼	-12.0535
대고	-12.0536
▁나날이	-12.0537
▁미쳤	-12.0537
▁움직이고	-12.0537
▁부모에게	-12.0537
▁무심하	-12.0542
▁커지고	-12.0542
보내줄	-12.0542
▁과제에	-12.0542
▁대학생이	-12.0546
▁이제와서	-12.0547
▁중단	-12.0547
▁벌게	-12.0548
▁싶다가	-12.0549
▁상담할	-12.055
▁부부에게	-12.0551
▁떠나갔	-12.0556
▁드리지	-12.0557
▁못하지	-12.0557
▁간섭하는	-12.056
▁임신했어	-12.0563
주신	-12.0564
▁논의	-12.0566
▁다르다고	-12.0567
▁말하더라고	-12.0573
▁스스로한테	-12.0573
▁집착하는	-12.0573
▁결혼식장에	-12.0576
▁들까	-12.0576
▁도와주셨	-12.0578
▁그러시	-12.058
▁걱정하셔	-12.0589
▁소홀해서	-12.059
▁하겠	-12.0591
▁양반	-12.0596
▁사업한다	-12.0597
▁사생활	-12.0598
▁잘되라	-12.0601
▁못갈	-12.0601
▁외면하는	-12.0602
▁약해지는	-12.0603
▁해보자	-12.0605
▁해놨	-12.0607
▁단톡방에	-12.0608
▁얘기할까	-12.0614
▁출산했어	-12.0615
▁때리셔	-12.0615
▁다행이지만	-12.0617
▁알수	-12.0618
▁지내왔	-12.062
리겠어	-12.0622
▁일어나기	-12.0625
하시니까	-12.0626
동	-12.0628
▁버리면	-12.0629
▁운동에	-12.063
▁끝내지	-12.0632
▁형보다	-12.0633
▁이야기하려고	-12.0635
▁저기	-12.0637
▁밝아	-12.0637
▁약사	-12.064
쪽	-12.0645
▁종	-12.0652
▁대화하다가	-12.0652
▁따기	-12.0654
▁치유	-12.0654
▁가득해	-12.0654
▁내면서	-12.0658
▁뜨거	-12.0658
▁지켜보고	-12.0659
▁진행할	-12.0661
▁타면	-12.0663
심했던	-12.0664
▁공장	-12.0664
▁돌아가서	-12.0665
▁죽으라	-12.0666
▁주사기	-12.0669
▁상처받고	-12.0669
▁취향이	-12.067
▁직장동료들	-12.0671
▁부당하다	-12.0673
▁보험금이	-12.0673
▁심심	-12.068
▁피시방에	-12.068
▁용서해	-12.0685
▁놓았	-12.0686
▁알아봤	-12.0689
▁알려주는	-12.0694
▁못되	-12.0699
▁좋기	-12.07
▁혼자일	-12.0704
▁시선에	-12.0705
▁잃어버려	-12.0709
▁건강까지	-12.0711
려나	-12.0714
▁지켜볼	-12.0714
▁타지에	-12.0717
▁기억나	-12.0717
▁없어질	-12.0719
▁오셔	-12.0726
▁끼칠까	-12.0728
▁요청해서	-12.0729
▁잃으니	-12.0731
▁뭐니	-12.0736
▁재혼하	-12.074
▁뽑을	-12.0744
▁서두르	-12.0745
▁전달해	-12.0749
▁있기에	-12.0751
▁잠자	-12.0753
▁잃었	-12.0756
▁실패하니	-12.0756
▁탈이	-12.0757
주로	-12.076
▁넉넉해	-12.076
▁애기	-12.0763
▁퇴근하는	-12.0771
▁내조	-12.0772
▁어렵다는	-12.0772
▁회의에	-12.0774
▁어디다	-12.0774
▁얻기	-12.0774
▁못하더라	-12.0778
▁높여야	-12.0779
▁몰라주	-12.0779
▁병원비에	-12.0782
▁납품	-12.0789
▁불만스럽	-12.0795
▁굳어	-12.0801
▁전화했는데	-12.0801
▁달성	-12.0803
원으로	-12.081
▁정년퇴직이	-12.0811
▁보내줘야	-12.0812
▁묘	-12.0815
▁못하겠	-12.0815
▁아이들까지	-12.0823
▁직장이라	-12.0826
▁만회	-12.0827
거니	-12.0827
▁떠나지	-12.0828
▁국	-12.083
▁놀아줄	-12.0833
▁거라는데	-12.0834
▁선택지	-12.0836
▁화병	-12.0838
▁잃어버릴	-12.0841
▁능력으로	-12.0844
▁현명하	-12.0847
▁미안	-12.085
▁계속해	-12.085
▁장점이	-12.0861
▁됐고	-12.0863
▁넘치는	-12.0863
▁나오는지	-12.0866
▁여행지	-12.0871
▁맞춰주	-12.0872
기적으로	-12.0875
▁외모에	-12.0875
원에	-12.0879
▁상사분	-12.0879
받지	-12.088
▁통지	-12.0883
▁헤어지면	-12.0884
▁빠진다	-12.0898
▁내부	-12.0899
▁물에	-12.0904
▁불리	-12.0906
▁업체에	-12.0907
▁결정이	-12.0907
▁동생하고	-12.091
▁빌리는	-12.0914
▁신입사원들	-12.0916
▁괜찮다	-12.0917
▁피곤하지	-12.0918
▁싫어하는지	-12.0921
▁격려해주	-12.0921
▁풀지	-12.0927
▁죽었다	-12.093
▁났다	-12.0932
▁인정하지	-12.0933
▁끝났	-12.0938
▁손실이	-12.0944
▁자격지심	-12.0945
▁마흔이	-12.0946
▁일이었는데	-12.0946
받아	-12.0946
▁근심이	-12.0946
▁부유	-12.0949
▁불어	-12.0955
▁지키면	-12.0961
겨	-12.0964
▁짓이	-12.0965
▁게임하는	-12.0965
▁외면하	-12.0965
▁불쾌	-12.0965
▁혼내는	-12.0967
▁다투셨	-12.0967
었다는	-12.097
▁그러려	-12.097
▁알리는	-12.097
▁어리다	-12.0972
▁산다	-12.0974
▁원하시는	-12.0975
▁훔쳤다	-12.0977
▁되겠	-12.0977
▁맛있다	-12.0978
할수	-12.0982
▁한적	-12.0983
준다고	-12.0984
▁여행이	-12.0987
▁친구로	-12.099
▁초라	-12.0992
▁떨리는	-12.0995
했을까	-12.0996
▁잡지	-12.0998
▁벗들	-12.1
▁다른데	-12.1002
▁의심하	-12.1005
▁두기	-12.1008
▁티비	-12.1008
▁자식들하고	-12.1017
행동을	-12.1017
▁미디어	-12.102
▁마트	-12.1021
▁드려봐야겠	-12.1023
▁나서야	-12.1026
▁이혼하기	-12.1027
▁됐다는	-12.1029
▁계약서	-12.1029
▁가르치	-12.1029
▁간단	-12.1032
▁약속에	-12.1032
▁않더	-12.1034
▁표현하	-12.1037
▁까먹어	-12.1042
▁피곤하	-12.1045
▁맞추기	-12.1047
▁적금이	-12.1055
▁여동생	-12.1059
▁가지도	-12.106
▁고용해	-12.1061
▁늦어져	-12.1063
▁인간이라	-12.1064
▁것일	-12.1066
▁이루어	-12.1069
▁위험할	-12.107
▁정중	-12.1071
▁씁쓸	-12.1073
탕	-12.1074
▁표현해	-12.1075
▁못살	-12.1078
▁완성	-12.1083
▁공모전	-12.1084
▁살아왔다	-12.1085
▁돌아갔	-12.1086
였는지	-12.1086
▁매일이	-12.1088
▁자부	-12.1095
▁어리석	-12.1099
▁흘러가	-12.1099
▁무릎에	-12.1099
▁견	-12.11
▁생각인데	-12.1102
▁정리한	-12.1106
▁성향	-12.1107
▁여자인	-12.1109
▁합격해	-12.1113
▁우유부단해	-12.1114
▁참기	-12.1116
▁지급	-12.1118
▁가리는	-12.1119
▁안타깝지	-12.1119
▁연예인들	-12.1122
▁잘하니까	-12.1122
▁투자했다	-12.1123
해져서	-12.1125
▁가라	-12.1128
▁상실되	-12.1129
▁지나니	-12.113
▁다칠	-12.1132
▁수월하	-12.1133
▁보내주는	-12.1134
▁보건소	-12.1139
▁제안해	-12.114
▁배려해주	-12.114
▁문제만	-12.1141
▁넘어가는	-12.1143
▁꺼내는	-12.1144
▁그마저	-12.1145
포	-12.1152
▁겨울	-12.1154
▁낯설	-12.1155
▁누군	-12.1157
▁웃어	-12.116
▁노인정이	-12.1161
▁애로	-12.1162
▁가고싶은	-12.1162
▁문제인가	-12.1163
▁수술한	-12.1166
▁대학교에서	-12.1166
▁미국	-12.1166
▁빌어	-12.1167
▁거였	-12.1173
▁슬퍼할	-12.1174
▁중요하다는	-12.1174
▁몰라주니	-12.1174
▁상실감	-12.1176
▁비우	-12.1178
▁올리겠다	-12.1178
▁않으시는	-12.118
불	-12.1182
▁심사	-12.1184
▁피하지	-12.1184
▁노안이	-12.1189
▁만지	-12.1192
▁돌봐주는	-12.1192
▁잦아졌	-12.1192
견	-12.1193
▁부부관계	-12.1194
▁확인해야	-12.1196
▁대처하	-12.1196
▁사면	-12.1198
교육	-12.1199
▁만나는데	-12.12
▁무리에	-12.1203
▁해서든	-12.1205
마저도	-12.1213
▁자퇴하	-12.1213
▁시작했	-12.1217
▁써줄	-12.1225
순	-12.1226
▁멋있는	-12.1226
▁불량	-12.1228
▁주머니	-12.1233
▁말했다	-12.1235
▁경력단절	-12.1238
▁틀어졌	-12.1239
▁올리기	-12.1241
▁자격	-12.1242
▁미용실	-12.1243
▁공부보다	-12.1244
회사에	-12.1246
▁돌아서	-12.1248
▁어려	-12.1248
▁유리	-12.125
▁잘라	-12.1253
▁그랬다는	-12.1254
몰	-12.1254
맘	-12.1257
▁경쟁자	-12.1257
가지고	-12.1257
▁어딘가	-12.1258
해졌어	-12.1261
▁법적	-12.1269
▁유산이	-12.127
검사	-12.1272
▁도와주실	-12.1274
▁뺏기	-12.1274
▁남았으니	-12.1275
드리려고	-12.1278
▁직	-12.1281
▁주워	-12.1285
▁초반	-12.129
바로	-12.1294
▁말리는	-12.1295
▁불러주	-12.1297
▁소리치	-12.1297
▁끌어	-12.1298
▁결혼한다는	-12.1301
버리니	-12.1302
▁남편에	-12.1306
지려고	-12.1306
▁녀석들이	-12.1306
병으로	-12.1306
▁가르쳐주	-12.1306
▁초조	-12.1307
▁제출하	-12.1307
▁냉	-12.1308
▁치료해야	-12.131
▁성인	-12.1311
점수	-12.1312
▁그런다고	-12.1314
▁합	-12.1316
▁친구였	-12.1317
▁계속하는	-12.1319
▁있음	-12.1324
▁인생인	-12.1327
▁치과에	-12.1327
▁강박	-12.1329
▁향상	-12.1332
▁편해져	-12.1336
▁당구	-12.1336
▁돌아가는	-12.1338
▁산더미	-12.1339
▁말다툼이	-12.1339
▁붓	-12.1342
▁얘들이	-12.1344
▁끙끙	-12.1345
▁백세	-12.1345
▁청각장애	-12.1346
▁썩이	-12.1348
▁고객들	-12.135
▁무시당	-12.135
▁지난해	-12.135
▁넘어갈	-12.1351
▁친언니	-12.1351
▁음료	-12.1351
장암	-12.1351
▁외딴	-12.1353
▁등하교	-12.1353
▁뛰고	-12.1353
▁샀다	-12.1353
▁겉모습	-12.1353
▁노산이라	-12.1353
▁노하우	-12.1353
▁대소변	-12.1353
▁디자이너	-12.1353
▁뛰는	-12.1353
▁류머티즘	-12.1353
▁미역국	-12.1353
▁봉급	-12.1353
▁봉양	-12.1353
▁살아계실	-12.1353
▁생계유지	-12.1353
▁아이템	-12.1353
▁예쁨	-12.1353
▁유튜버	-12.1353
▁자가격리	-12.1353
▁정기검진	-12.1353
▁즐겼	-12.1353
▁탔어	-12.1353
▁태풍	-12.1353
▁팀워크	-12.1353
▁흉터	-12.1353
▁흔적	-12.1353
▁하반기	-12.1353
▁식은땀	-12.1353
▁직설적	-12.1353
▁근력운동	-12.1353
▁애정표현	-12.1353
▁특정	-12.1353
▁면박	-12.1353
▁정밀검사	-12.1353
▁부친	-12.1353
▁직위	-12.1353
▁정반대	-12.1353
▁갖추	-12.1353
▁심리치료	-12.1353
▁감격스러워	-12.1353
▁하염	-12.1353
르르	-12.1353
▁연연하	-12.1353
▁연휴	-12.1353
▁데려온	-12.1353
▁납부	-12.1354
▁허세	-12.1354
▁믿어지지	-12.1354
▁마중	-12.1354
▁떠올려	-12.1354
▁재정상태	-12.1354
▁거짓말쟁이	-12.1355
▁모아둘	-12.1355
▁구토	-12.1355
▁시끄러운	-12.1355
▁시아버지	-12.1355
▁차근	-12.1355
▁근력	-12.1355
▁끼워주지	-12.1355
▁한부모	-12.1356
▁줄이려고	-12.1357
▁당뇨약	-12.1357
▁피울	-12.1357
▁공연	-12.1357
▁그러니깐	-12.1357
▁업신여기	-12.1358
▁채울	-12.1358
▁고쳐보려고	-12.1358
▁움직여야	-12.1358
▁궁리	-12.1358
▁쌀	-12.1358
▁널	-12.1358
▁덩어리	-12.1358
▁중반인데	-12.1358
▁규모	-12.1358
▁클럽에	-12.1359
▁선언	-12.1359
▁움직임	-12.1359
▁양말	-12.136
▁서랍에	-12.136
▁놀림거리	-12.136
▁다르니	-12.136
▁이때까지	-12.1361
▁먹었는지	-12.1361
▁꺼낼	-12.1361
▁모집	-12.1362
▁가져야겠지	-12.1363
▁돌보아야	-12.1363
▁밀치	-12.1363
▁싫으니까	-12.1363
▁뽑혔	-12.1364
▁전원생활	-12.1364
▁진상	-12.1364
▁개씩	-12.1364
▁사람들에	-12.1365
▁암이라니	-12.1366
감	-12.1366
▁찼어	-12.1366
▁몰려와	-12.1367
▁치렀	-12.1367
▁만나보려고	-12.1367
▁폭식	-12.1367
▁마인드	-12.1368
▁쫓겨나	-12.1368
▁종교	-12.1368
▁충분하지	-12.1368
▁시부모님께	-12.1368
▁도망갔어	-12.1368
▁교내에서	-12.1368
▁건드리지	-12.1368
▁되어가는데	-12.1368
▁통금	-12.1369
▁상황들	-12.1369
▁되니깐	-12.1369
▁예민해진	-12.1369
▁녀석에게	-12.137
포트	-12.137
▁해드리	-12.137
▁살아봐야지	-12.1371
▁즐거웠어	-12.1372
▁명함	-12.1373
▁찾았는데	-12.1374
▁서른인데	-12.1374
▁알아봤는데	-12.1374
▁동정	-12.1374
▁괴로웠어	-12.1374
▁드릴까	-12.1374
▁쓸쓸	-12.1376
▁사귀었는데	-12.1376
▁관뒀	-12.1376
▁센	-12.1377
▁사장에게	-12.1378
▁만원	-12.1379
▁퍼뜨리	-12.138
▁새아빠랑	-12.138
▁어쩌라는	-12.1381
▁계주	-12.1382
▁만들려고	-12.1383
▁현장에서	-12.1384
▁동기들에게	-12.1384
▁손자들에게	-12.1384
▁알았더니	-12.1384
▁사이였는데	-12.1385
▁준다는데	-12.1385
▁알아들을	-12.1385
▁경제학과	-12.1387
▁글자	-12.1387
▁치열해	-12.1388
▁크니까	-12.1388
▁당일	-12.1389
▁대표로	-12.139
▁의심스럽고	-12.139
▁마시라고	-12.139
임에	-12.1391
▁최고라고	-12.1392
▁되려나	-12.1395
▁키웠나	-12.1395
▁돌려받지	-12.1396
▁사귀었	-12.1396
▁고통이	-12.1396
▁벌어오	-12.1398
▁재주	-12.1398
▁벗어	-12.1398
▁혼인	-12.1398
▁부러웠	-12.1399
되서	-12.14
▁고마웠	-12.1402
▁산책하며	-12.1402
▁내리지	-12.1402
▁보이니까	-12.1403
▁떨쳐내	-12.1403
▁오셨어	-12.1404
▁주부로	-12.1404
▁근무하는	-12.1404
▁입원해야	-12.1406
▁그곳에서	-12.1407
▁임대	-12.1407
▁내역	-12.141
▁티브이에서	-12.1412
▁상대하는	-12.1413
▁노인들과	-12.1414
▁아이였는데	-12.1415
▁할아버지께	-12.1415
▁내려와	-12.1415
▁됐대	-12.1416
▁잡일	-12.1416
▁올랐	-12.1417
▁해둘	-12.1417
▁부러져	-12.1421
▁걸지	-12.1423
▁죽어야지	-12.1424
▁모았	-12.1424
▁혐오스러웠	-12.1425
▁오다니	-12.1426
▁느는	-12.1426
▁알아듣는	-12.1426
▁여자로서	-12.1427
▁폐업	-12.1429
▁다가가고	-12.143
찍힌	-12.1432
▁치료제	-12.1433
▁먹었나	-12.1434
▁고생하다	-12.1435
▁보내주지	-12.1436
▁미안하게	-12.1437
▁집중하	-12.1438
▁애쓰는	-12.1446
▁상장	-12.1449
▁선거에	-12.145
▁씨와	-12.1452
▁받았나	-12.1456
▁부작용이	-12.1456
▁반대하시는	-12.1457
▁볼까봐	-12.1457
▁못하다니	-12.1457
▁무기력해지는	-12.1457
▁유행	-12.1458
▁받아와	-12.1458
▁고립되는	-12.146
▁다루는	-12.1462
▁탐내	-12.1463
▁낮추	-12.1463
▁안되는데	-12.1464
▁해라	-12.1465
▁콘서트에	-12.1467
▁두려고	-12.1468
▁나아질지도	-12.1468
▁지키기	-12.1468
▁사랑하는데	-12.1469
▁판에	-12.147
▁부치	-12.1472
▁강요하셔	-12.1472
▁반년	-12.1472
▁가리지	-12.1472
▁보자	-12.1472
▁생일이	-12.1473
▁소극적이	-12.1473
▁친했는데	-12.1474
▁이렇다	-12.1476
▁가장으로	-12.1476
▁일요일	-12.1477
▁빌려주고	-12.1481
▁공허하	-12.1481
▁나오겠지	-12.1483
▁외출하기	-12.1483
▁예감	-12.1484
▁사죄	-12.1485
▁크다고	-12.1488
▁나가려고	-12.1488
▁먹는다고	-12.1488
▁시키려고	-12.149
▁주제에	-12.1497
▁말해야겠지	-12.1497
▁미안한데	-12.1497
▁고사	-12.1498
▁비용으로	-12.15
▁받아내	-12.1501
▁세우지	-12.1502
▁학교생활에	-12.1502
▁자부하	-12.1511
▁힘드실	-12.1516
▁자면	-12.1518
▁마시다	-12.1522
▁틀어져	-12.1523
▁태어나면	-12.1525
되었다고	-12.1526
▁만나니	-12.1527
▁인상이	-12.1529
▁하교	-12.1532
▁행동하기	-12.1533
▁보험회사에	-12.1534
▁중년에	-12.1539
▁둘러보	-12.1545
▁명절이	-12.1546
▁현실이야	-12.1546
▁무시당해	-12.1546
▁오더라고	-12.1546
▁노안	-12.1548
▁않으신	-12.1553
▁필요하	-12.1553
▁괜찮냐	-12.1555
하시겠지	-12.1559
▁업	-12.156
▁불황	-12.156
▁존경하는	-12.1565
▁악화될	-12.1566
사고	-12.1568
▁갱년기인가	-12.1569
▁잘해드리	-12.157
▁헷갈리	-12.1572
▁성격에	-12.1573
▁번이지	-12.1573
▁참담해	-12.1575
▁식당이	-12.1575
▁사회성	-12.1576
▁출신이라	-12.1576
▁만나니까	-12.1579
▁어려워하는	-12.158
▁올리는	-12.1581
▁털어놓는	-12.1583
▁레스토랑에	-12.1585
▁불합격이	-12.1586
▁기업들	-12.1587
▁합격했	-12.1587
▁속상하기	-12.1588
▁자문	-12.1588
▁갖자	-12.1591
▁확보	-12.1593
▁많았지	-12.1595
해볼	-12.1597
▁가장이야	-12.1597
▁기억해	-12.1597
왔지만	-12.16
▁판단하	-12.16
▁일터에	-12.16
▁몰아가	-12.1605
▁의존해	-12.1605
▁가까워져	-12.1608
▁들으려	-12.1611
▁번듯	-12.1613
▁다가갈	-12.1613
지시	-12.1613
했더라고	-12.1619
▁어려움에	-12.1621
▁해주면서	-12.1627
다보면	-12.1628
견디겠어	-12.1632
▁힘들겠어	-12.1632
▁감염	-12.1632
▁미루게	-12.1634
▁쇠약해지	-12.1637
▁아니면서	-12.1639
▁문화센터에	-12.1639
▁비통	-12.164
▁시작이	-12.1645
▁죄지	-12.1646
▁차였	-12.1646
▁처리해서	-12.1647
▁놈이	-12.1647
▁뿐이	-12.1649
▁돼버렸어	-12.1649
▁의료	-12.1651
▁손목이	-12.1654
▁시설에	-12.1655
▁팔아야	-12.1655
▁모아뒀	-12.1655
▁매진	-12.1658
▁보수	-12.1662
▁마련하기	-12.1664
▁지쳐가	-12.1668
▁많아지면	-12.1671
말	-12.1673
▁되겠지만	-12.1673
▁거짓말한	-12.1676
▁활용	-12.1679
▁친구라는	-12.1681
▁걱정하시	-12.1684
▁식단조절	-12.1686
▁총무	-12.1688
▁반복하	-12.1688
▁끝나지	-12.1689
▁상하	-12.169
▁주관	-12.1692
▁매점에	-12.1696
▁이해해주	-12.1696
▁잘됐어	-12.1703
▁주어야	-12.1705
▁동거	-12.1708
▁바쁘지	-12.1712
▁사랑하는지	-12.1715
▁화나네	-12.1716
▁아니었지	-12.1718
▁무시하던	-12.1722
▁하였	-12.1728
▁향해	-12.1729
▁시킬까	-12.1732
▁헤어지기	-12.1733
▁복도	-12.1738
▁앉아있	-12.1743
▁잘될	-12.1745
▁고과	-12.1746
▁비난해	-12.1749
▁연고	-12.1749
▁잘못하고	-12.1751
어야지	-12.1751
▁가져와	-12.1753
▁챙겨주던	-12.1754
▁가보라	-12.1755
▁오신다	-12.1757
▁피가	-12.1758
▁빼라	-12.1758
▁다하지	-12.1758
님께	-12.1759
투성이야	-12.176
▁걱정인데	-12.176
▁우리에게	-12.1761
▁입덧이	-12.1761
▁알려줬	-12.1766
▁비만	-12.1766
▁지나갈	-12.1769
신이	-12.177
▁맞이	-12.177
▁들리	-12.177
하셨으면	-12.177
▁잠적	-12.1774
▁가는지	-12.1775
했나봐	-12.1775
▁맞기	-12.1775
▁하시더라	-12.1779
▁사귀면	-12.178
▁모르겠다고	-12.1782
▁마음까지	-12.1783
호	-12.1785
▁빌려달라는	-12.1788
▁모셔야	-12.179
심하네	-12.1791
해지고	-12.1794
▁덮	-12.1798
▁당황한	-12.1799
▁퇴근이	-12.1803
▁어려워지	-12.1805
▁당황했지	-12.1807
▁학폭위에	-12.1813
▁아니었	-12.1818
▁끝내야	-12.1819
▁편하다	-12.182
▁전화하면	-12.1821
▁추슬러	-12.1822
▁단련	-12.1822
▁보내다	-12.1827
증	-12.1827
주려고	-12.1829
▁괜찮아졌	-12.1831
▁텃밭	-12.1836
▁악화돼	-12.1836
▁제안서	-12.1838
▁처음이	-12.184
▁투자해	-12.184
▁팔았	-12.184
▁불합리	-12.1846
다면서	-12.1847
▁정년퇴임	-12.1852
▁대신해	-12.1856
았더니	-12.1857
▁반지	-12.1858
▁놀릴까	-12.1859
▁음식에	-12.186
척	-12.1867
▁편의점에	-12.187
▁권유해	-12.1874
▁마을에	-12.1878
▁되찾아	-12.1878
▁조건에	-12.1878
▁다가오지	-12.188
▁싶더라	-12.1883
▁복수할	-12.1884
▁오전	-12.1894
▁꿀	-12.1897
▁비염	-12.19
▁얻어야	-12.1908
▁학업이	-12.191
▁마음뿐이	-12.1911
▁지원하고	-12.1914
▁바꾼	-12.1915
▁망할	-12.192
▁맡긴	-12.1924
▁잡기	-12.1931
▁쌓이는	-12.1935
기보다	-12.1936
▁공간	-12.1941
▁놀랐지	-12.1942
▁가족만	-12.1943
층	-12.1943
▁끊었	-12.1943
▁남자들이	-12.1943
질게	-12.1945
▁일진	-12.1948
▁미뤄야	-12.1951
▁열린	-12.1958
▁다스려	-12.1959
▁남편만	-12.1962
생활이	-12.1969
▁지적하	-12.1975
▁존중해주	-12.1978
▁적다	-12.1988
구하면	-12.1989
담	-12.199
▁혈압약	-12.1994
▁되기는	-12.1994
▁알려지	-12.1996
▁걸면	-12.2001
못해	-12.2011
▁치이	-12.2015
▁동결	-12.2019
▁소용없	-12.2022
▁문의해	-12.2023
▁길어지	-12.2024
▁신뢰해	-12.2025
▁불안정해	-12.2027
▁재취업이	-12.2032
▁척하면	-12.2032
▁옮긴	-12.2037
▁점검	-12.2042
▁도와주다	-12.2044
▁연말	-12.2048
▁외근	-12.2051
▁성적만	-12.2053
▁되었다니	-12.2055
▁문화센터	-12.2056
▁고가	-12.2057
▁상처받을까	-12.2061
▁양육	-12.2067
▁불신	-12.2067
▁자식들까지	-12.2076
초	-12.2077
▁불면증이	-12.2081
▁간호해야	-12.2083
▁생각하기	-12.2083
▁사시는	-12.2083
▁여직원이	-12.2088
▁아니라면	-12.2089
▁가짜	-12.209
▁가방에	-12.2092
▁피하기	-12.2099
▁욱	-12.2102
▁레스토랑	-12.2103
▁돌이켜보	-12.2105
▁하는거	-12.2107
▁가져오	-12.2114
별	-12.2116
명이	-12.2117
▁잘했더라	-12.2118
▁중소기업	-12.2119
랬는데	-12.212
▁퇴직해	-12.2123
▁예민해졌	-12.2124
버거	-12.2125
▁아픈지	-12.2125
처	-12.2125
▁제시간	-12.2127
▁서운하지	-12.2128
권	-12.2129
▁가구	-12.213
▁동년배	-12.2132
▁인성	-12.2135
▁비웃어	-12.2139
▁학급에	-12.2139
키	-12.2144
▁휴	-12.2144
▁오시	-12.2144
▁유방암이	-12.2148
▁접어들	-12.2149
▁막일	-12.2149
▁게을리	-12.2151
▁공감해주	-12.2152
▁앨범	-12.2153
▁받아들여야겠	-12.2157
▁짝사랑	-12.2159
▁은퇴하기	-12.2159
▁꺼야	-12.216
▁외부	-12.2163
▁오라는	-12.2163
▁돌릴	-12.2163
▁흐름	-12.2164
▁중독이	-12.2165
말로	-12.2167
▁살며	-12.2168
▁실망했	-12.217
▁무시한	-12.2172
▁실패하면	-12.2172
▁차로	-12.2173
▁도로	-12.2174
▁당하다	-12.2175
▁대주	-12.2179
▁잃어가	-12.2182
▁나아야	-12.2184
▁부양하는	-12.2184
▁빌려가	-12.2184
▁가더라	-12.2187
언	-12.2189
▁발표하는	-12.2192
▁끝없	-12.2192
▁경쟁하	-12.2196
▁졸업하	-12.2198
▁껴	-12.2201
▁그들이	-12.2203
▁헬스클럽	-12.2203
▁버티면	-12.2204
▁해야겠	-12.2204
▁들어갈까	-12.2205
치게	-12.2205
▁잡아야	-12.2206
▁떠맡	-12.2207
물고	-12.2208
분이	-12.2208
쟁이	-12.221
크	-12.2211
▁편이지	-12.2213
▁싸우다	-12.2214
하려	-12.222
▁성적보다	-12.2223
롭	-12.2224
▁산부인과	-12.2226
▁말해주면	-12.2226
▁이야기한	-12.2228
▁제의	-12.223
아졌어	-12.223
▁오류	-12.2231
사람이	-12.2234
싶은데	-12.224
▁부작용	-12.224
▁난데	-12.224
▁끈	-12.2242
▁끼워	-12.2243
▁무신경	-12.2249
▁왔으니	-12.2251
클	-12.2251
훌	-12.2255
그때	-12.2257
▁다루	-12.2258
▁꾸려	-12.2258
▁괴롭힘당하	-12.2259
▁약이라	-12.226
▁따야	-12.2261
취	-12.2266
▁건너	-12.2268
지면	-12.2271
▁몰두	-12.2271
▁입대	-12.2275
▁사기당	-12.2275
▁이용하는	-12.228
▁흔들리	-12.2283
▁상관이	-12.2285
▁대출받	-12.2286
▁떠나니	-12.2302
돈이	-12.2306
▁주신다	-12.2306
라면서	-12.2307
▁대화하다	-12.231
▁당황했	-12.231
▁어젯밤	-12.2311
▁우리반	-12.2312
▁만들었	-12.2313
▁하려나	-12.2313
▁지난주	-12.2313
▁커리어	-12.2315
▁금융	-12.2315
▁평상시	-12.2316
▁생일날	-12.2319
▁호흡	-12.2319
▁넘기는	-12.2322
▁쓰셔	-12.2323
▁배신한	-12.2323
▁그렇더라	-12.2323
▁따돌릴	-12.2327
▁출산하는	-12.2327
▁보더라	-12.2328
▁언제부터인	-12.2329
▁질렀	-12.233
▁비교당하	-12.233
▁괴로웠	-12.2331
전이	-12.2333
▁무릎관절	-12.2334
▁교육이	-12.2335
라지만	-12.2336
▁불러다	-12.2339
▁바랐	-12.2339
지니	-12.2339
▁동반	-12.2343
▁당당해	-12.2343
▁소모	-12.2343
▁근거	-12.2344
▁많던	-12.2347
▁끈끈	-12.2347
으로써	-12.2353
▁홍삼	-12.2353
▁웨딩	-12.2353
▁갚느라	-12.2353
▁넣는	-12.2353
▁눈초리	-12.2353
▁덩달아	-12.2353
▁돕지	-12.2353
▁디저트	-12.2353
▁떨지	-12.2353
▁뜬금없	-12.2353
▁많대	-12.2353
▁멀지	-12.2353
▁못마땅하	-12.2353
▁반신욕	-12.2353
▁뺏겼	-12.2353
▁뽀뽀	-12.2353
▁사내연애	-12.2353
▁살찌	-12.2353
▁섬에	-12.2353
▁승무원	-12.2353
▁썼지	-12.2353
▁쑤셔	-12.2353
▁아이스크림	-12.2353
▁앓다	-12.2353
▁여드름	-12.2353
▁외상	-12.2353
▁이렇지	-12.2353
▁잇몸	-12.2353
▁제멋대로	-12.2353
▁존댓말	-12.2353
▁중환자실에	-12.2353
▁지팡이	-12.2353
▁춤추	-12.2353
▁트러블	-12.2353
▁트레이너	-12.2353
▁프로게이머	-12.2353
▁필라테스	-12.2353
▁흉보	-12.2353
▁흡족	-12.2353
▁민간요법	-12.2353
▁안마의자	-12.2353
▁원피스	-12.2353
▁파킨슨병	-12.2353
▁펼치	-12.2353
▁강압적	-12.2353
▁운전면허	-12.2353
▁엠티	-12.2353
▁임대료	-12.2353
▁협업	-12.2353
▁예능	-12.2353
▁학위	-12.2353
▁전셋집	-12.2353
▁노조	-12.2353
▁병수발	-12.2353
▁오른쪽	-12.2353
▁받아들여지지	-12.2353
▁우선순위	-12.2353
▁은혜	-12.2353
▁통풍	-12.2353
▁향후	-12.2353
▁인내심	-12.2353
▁외제차	-12.2353
▁시집살이	-12.2353
▁치킨집	-12.2353
▁믿음직스러운	-12.2353
▁필통	-12.2353
▁체육복	-12.2354
▁합의금	-12.2354
식간	-12.2354
▁양육비	-12.2354
▁쪽지시험	-12.2354
▁투덜대	-12.2354
▁전기세	-12.2354
▁사라질	-12.2354
다시피	-12.2354
▁아름다운	-12.2354
▁장마	-12.2354
▁파업	-12.2354
▁보조제	-12.2355
▁연유	-12.2355
▁계곡	-12.2355
▁고민상담	-12.2355
▁노예	-12.2355
▁회계사	-12.2356
▁못났을까	-12.2356
▁시세	-12.2356
▁반박	-12.2356
▁어긋나	-12.2356
▁가다듬	-12.2357
▁식혀야겠어	-12.2357
▁목발	-12.2357
▁해봤지	-12.2357
▁전단지	-12.2357
▁사진이	-12.2357
▁잘해줄걸	-12.2358
▁잘못인가	-12.2358
▁숨길	-12.2358
▁휘	-12.2358
▁공들여	-12.2359
▁전달할	-12.2359
▁자매	-12.2359
▁케어	-12.2359
▁스케줄	-12.2359
▁무례한	-12.2359
▁지경까지	-12.236
▁다녀갔어	-12.236
▁차릴	-12.236
▁체중조절	-12.2361
▁지긋지긋한	-12.2361
▁당하다니	-12.2361
▁통제	-12.2361
▁육체적으로	-12.2361
▁부러졌어	-12.2361
▁찔려	-12.2362
▁급식실에	-12.2362
▁바가지	-12.2362
▁시도하려고	-12.2362
▁담임선생님과	-12.2363
▁줄여달라고	-12.2364
▁툴툴거리	-12.2364
▁보여주겠어	-12.2364
▁세워야	-12.2364
▁부러운	-12.2365
▁하락	-12.2365
▁동갑인데	-12.2365
▁좋잖아	-12.2366
▁자동화	-12.2366
▁치매라니	-12.2366
▁채용하	-12.2366
▁늘릴	-12.2366
▁생기다니	-12.2366
▁혼내기	-12.2367
▁집사람한테	-12.2367
▁불행할	-12.2367
▁걱정되어	-12.2368
▁뚝	-12.2368
▁잡생각	-12.2368
▁똥	-12.2369
▁필요하니	-12.237
▁교수님과	-12.237
▁가해자들에게	-12.237
▁상여금	-12.237
▁체대	-12.237
▁모를까	-12.237
▁도태되	-12.2371
▁그지없	-12.2371
▁배워보고	-12.2371
▁벌어온	-12.2372
▁급성	-12.2373
▁다행이다	-12.2373
▁머리로	-12.2373
▁시키니까	-12.2374
▁실장님	-12.2374
▁말하더라	-12.2375
▁동업자	-12.2375
▁버텨야지	-12.2377
▁빼야	-12.2377
▁잘해줬는데	-12.2378
▁앞집	-12.2378
▁사업자금	-12.2378
▁대상자	-12.2378
▁깔보	-12.2379
▁건강했	-12.238
▁마지막에	-12.2381
▁적어지고	-12.2382
▁이등	-12.2383
▁잔액	-12.2383
▁지칠	-12.2383
▁자려고	-12.2384
▁생각해주는	-12.2385
▁불가능한	-12.2385
▁기초생활	-12.2386
▁나가볼까	-12.2386
▁에스	-12.2387
▁서툴러서	-12.2388
▁구워	-12.2388
▁제외하고	-12.2388
▁노력했	-12.2388
▁들통	-12.2388
▁공과	-12.2388
▁병마	-12.2389
▁되어있지	-12.2389
▁십년지기	-12.239
▁이후부터	-12.239
▁지루하고	-12.2391
▁낮춰서	-12.2391
▁천사	-12.2392
▁좋을것	-12.2394
▁망설여지	-12.2394
▁정하기	-12.2394
▁필요하니까	-12.2395
▁요번에	-12.2395
▁얘기하	-12.2395
▁체면	-12.2398
▁글렀	-12.2398
▁팔았어	-12.2398
▁피부병	-12.2398
▁과중한	-12.24
▁때릴	-12.24
▁털어버리	-12.2401
▁왔대	-12.2401
▁메신저로	-12.2401
▁우겨	-12.2402
▁공경	-12.2403
▁성공했	-12.2405
▁쇠약해져	-12.2406
▁공기업	-12.2406
▁고심	-12.2408
▁안되나	-12.241
▁비혼	-12.241
▁별생각	-12.2412
▁신청했는데	-12.2414
▁토막이	-12.2415
▁제사	-12.2416
▁속상할	-12.2418
▁안달하는	-12.2419
▁대비할	-12.2419
들고	-12.2421
▁풀었는데	-12.2422
▁되냐고	-12.2422
▁부유한	-12.2423
▁차렸	-12.2423
▁처지고	-12.2424
▁대화해보려고	-12.2426
▁쓸까	-12.243
▁부족하지만	-12.243
▁표현하지	-12.243
▁기다려야지	-12.2431
▁답인	-12.2432
▁충분	-12.2432
▁있다니까	-12.2435
▁넘어졌	-12.2436
때는	-12.2437
▁와야지	-12.2438
▁졸업했는데	-12.2439
▁필요하다면	-12.2439
▁들었지만	-12.2441
▁생겼지	-12.2441
▁건강하니	-12.2442
▁신고했는데	-12.2444
▁병행해야	-12.2446
▁경쟁력	-12.2448
▁기다리는데	-12.2448
▁여자들이	-12.2449
▁지내라고	-12.2449
▁축소되	-12.2449
▁일기	-12.245
▁아르바이트생	-12.245
▁고맙네	-12.2451
▁주시지	-12.2452
▁편애하	-12.2452
▁대단해	-12.2454
▁조건으로	-12.2454
▁오래됐어	-12.2455
▁출근하지	-12.2455
▁좋으셔	-12.2456
▁바뀌었	-12.2456
▁선배와	-12.2459
▁아껴야	-12.246
▁우울하	-12.2462
▁생각했지만	-12.2463
▁했나봐	-12.2466
▁쳐다보지	-12.2466
문이	-12.2469
▁못했으니	-12.247
▁세운	-12.2472
▁느긋	-12.2474
▁대안	-12.2475
▁깨졌	-12.2475
▁사라지지	-12.2477
▁덕분이지	-12.2478
▁엎어	-12.2478
▁가난하다고	-12.2479
▁낮아지고	-12.248
▁무대	-12.2481
▁존재감	-12.2483
▁쳐다보고	-12.2483
▁처리하는	-12.2484
▁대하지	-12.2484
▁제정신이	-12.2484
▁만났을	-12.2485
▁이런데	-12.2486
▁먹었지	-12.2489
▁봐주지	-12.249
▁공사장에	-12.2491
▁싶은걸	-12.2493
어져서	-12.2493
▁재촉하셔	-12.2494
▁있을때	-12.2494
▁시켜주	-12.2499
▁친분	-12.2499
병이	-12.25
▁서면	-12.2501
▁월급날	-12.2502
목	-12.2508
▁하소연이	-12.2509
▁있었다면	-12.2511
▁앞에서만	-12.2513
▁낙서	-12.2517
▁똑같	-12.2518
▁말았지	-12.2521
▁부분들	-12.2521
▁목에	-12.2522
▁소외당하	-12.2523
▁욱해	-12.2526
▁때랑	-12.2526
▁전부인데	-12.2528
▁해야겠네	-12.2529
▁좋았다	-12.2529
▁얹혀사는	-12.2529
▁발표인데	-12.253
▁도서관에	-12.2531
▁악화되는	-12.2533
▁떠났다	-12.2534
▁치료받는	-12.2535
▁타격이	-12.2536
▁주도	-12.2537
▁무례하	-12.2537
▁자취방에	-12.2538
▁깨끗하	-12.2541
▁비서	-12.2542
▁기다려주	-12.2542
▁일이라서	-12.2544
▁고민되는	-12.2548
▁건강하니까	-12.2548
▁사회생활에	-12.2548
두세	-12.255
▁예정일	-12.2551
▁파혼하	-12.2551
▁깨우	-12.2555
▁화내는	-12.2561
▁아끼려	-12.2563
▁학교폭력위원회에	-12.2566
▁빌려주기	-12.2568
▁후회되기	-12.2569
▁다투다	-12.2569
▁공부했어	-12.2569
▁병행하	-12.2571
▁조절하고	-12.2572
▁자야	-12.2574
▁조심하는	-12.2574
▁후반이	-12.2577
▁막말	-12.2579
▁적응해	-12.2579
▁인성이	-12.2579
▁밥상	-12.258
▁해나가	-12.2582
▁칭찬하는	-12.2583
▁긴장감	-12.2584
▁남아있어	-12.2589
▁쐬어야겠	-12.2593
▁바꿔달라	-12.2594
▁실명	-12.2595
▁보아야	-12.2597
련	-12.26
▁살겠다	-12.2601
▁주시면	-12.2601
▁못하겠다고	-12.2602
▁저래	-12.2604
▁출신이	-12.2605
▁가졌어	-12.261
▁가장이라	-12.2612
▁나이들어	-12.2612
▁저혈압이	-12.2612
▁먹이려	-12.2614
▁키우다	-12.2616
▁떠나가는	-12.2618
▁안되어	-12.2624
▁큰아이	-12.2624
▁고치기	-12.2625
▁버텨왔	-12.2625
▁해약	-12.2628
▁윗집에	-12.2629
▁치료만	-12.2637
▁교제	-12.2641
는걸	-12.2646
▁취직하	-12.2646
▁부축	-12.2649
▁선배님	-12.2649
▁취업하려	-12.265
타이	-12.2651
▁도시	-12.2655
▁앉기	-12.266
시거든	-12.2664
▁절약하	-12.2665
▁거절당해	-12.2669
▁다니는지	-12.2669
주는데	-12.2671
▁병행할	-12.2672
▁전전긍긍하	-12.2673
▁일어나야	-12.2674
▁따라와	-12.2675
▁따지	-12.2676
▁시작해봐야	-12.2677
▁올해에	-12.2682
▁뒀	-12.2683
▁맞춰야	-12.2684
▁집어	-12.2687
▁해보니	-12.2692
▁직장인이	-12.2695
▁이만큼	-12.2698
▁상처받았을	-12.2699
▁소견	-12.27
▁오던	-12.2704
▁났다는	-12.2705
심이	-12.2708
내야겠어	-12.2709
라더니	-12.2709
▁잘해야겠다	-12.2711
▁상사들	-12.2713
▁일째	-12.2714
▁상의하고	-12.2717
▁놓는	-12.2717
▁다니겠다	-12.2717
부를	-12.2718
▁치료하는	-12.2718
▁이혼도	-12.272
▁충분할	-12.272
▁위암이라	-12.2724
대는	-12.2725
▁운동해	-12.2726
▁모시는	-12.2726
▁부러	-12.2731
▁소중해	-12.2731
▁여지	-12.2734
▁과목이	-12.2737
▁공사	-12.274
▁앉았	-12.2743
▁간호해	-12.2746
▁자상하	-12.2747
▁유전	-12.2747
▁가져갈	-12.275
▁습득	-12.275
▁친근하	-12.2751
▁청하	-12.2753
▁필	-12.2754
▁취하면	-12.2755
▁문제인데	-12.2756
▁조원	-12.2757
▁외출이	-12.2759
▁접어	-12.2761
▁문제없을	-12.2761
▁경로당이	-12.2762
▁이명	-12.2765
▁적극적	-12.2766
▁걱정시키	-12.2766
▁호텔에	-12.2768
▁정착	-12.277
▁깜빡깜빡	-12.2771
▁살수	-12.2772
▁해명	-12.2778
▁땅이	-12.2779
▁걱정하	-12.2783
▁퇴원해	-12.2783
▁기다리기	-12.2783
하더군	-12.2785
▁처음이라서	-12.2787
▁뜨는	-12.2791
▁요청해야	-12.2791
▁낙담하	-12.2793
▁구해볼	-12.2795
▁당황스러웠	-12.2798
▁손잡	-12.2801
▁무시당할	-12.2802
▁인생인데	-12.2807
▁제시	-12.281
길에	-12.281
▁방지	-12.2811
▁문제라고	-12.2812
▁되라	-12.2813
▁만들어주	-12.2821
▁바꾸면	-12.2822
▁서지	-12.2823
▁챙겨주시	-12.2823
▁마련하	-12.2824
말라고	-12.2832
▁알리기	-12.2835
▁남았다	-12.2835
▁통하	-12.2835
▁병행	-12.2838
▁소득에	-12.284
▁지식이	-12.2841
▁부린	-12.2842
▁고령	-12.2844
것이	-12.2848
▁잘못됐	-12.2852
▁해고당하	-12.2854
성적이	-12.2857
▁차려주	-12.2858
▁식품	-12.286
▁쓰러지셨	-12.2861
비전이	-12.2868
▁가리	-12.287
▁일보다	-12.2872
▁났었	-12.2873
▁말씀드리지	-12.2876
▁기뻐할	-12.2877
▁한소리	-12.2879
▁실수할	-12.2879
▁중반이	-12.288
▁못한데	-12.2883
▁발목이	-12.2888
려는데	-12.2888
▁올라가는	-12.2891
▁올라오니	-12.2891
회	-12.2892
▁자기네들	-12.2892
▁자취하	-12.2894
▁독립하면	-12.2895
▁위협	-12.2897
▁나인데	-12.2897
▁먹듯	-12.2901
▁풍족하지	-12.2901
리면	-12.2902
▁실수에	-12.291
▁드시는	-12.2911
▁잠깐이	-12.2916
▁돌아가셨다	-12.2919
▁써보	-12.2925
하겠다는	-12.2926
▁심사에	-12.2928
▁올라오는	-12.2933
▁쉬었	-12.2937
▁꼬	-12.2941
▁현명	-12.2943
▁악화됐	-12.2944
놨	-12.2953
▁않았을지	-12.2954
▁참여해	-12.2955
▁잘못될까	-12.2955
▁버티지	-12.2957
▁도와줘야겠	-12.2958
▁해결돼	-12.2959
▁살까지	-12.2959
▁찾아봐야겠	-12.2961
▁소개해준	-12.2962
▁주말이	-12.2965
▁중반	-12.2967
▁걸어보	-12.2968
▁따라오	-12.2969
▁자랑해	-12.2971
▁나눠볼	-12.2972
▁망해	-12.2972
▁듣다	-12.2973
▁들어주시	-12.2973
▁아시	-12.2974
분	-12.2978
▁정해지	-12.2978
오를	-12.298
▁이혼이라	-12.2988
박	-12.2988
▁시작하려	-12.2995
▁부질없다	-12.2995
▁걸지도	-12.2996
▁연애하기	-12.2996
▁조언해	-12.2998
▁경쟁사	-12.3
▁하소연하	-12.3001
▁친구들만	-12.3001
▁빌려달라	-12.3002
쪽으로	-12.3004
해본	-12.3009
▁찾아왔	-12.3011
▁최악	-12.3017
▁반면	-12.3024
▁닦달	-12.3026
▁헤어질까	-12.303
▁깨야	-12.3031
드네	-12.3034
▁출산하면	-12.3036
▁짜증내	-12.3039
▁느낀다	-12.3042
▁무능하다	-12.3042
▁걸어야	-12.3043
▁형식적	-12.3043
▁주임	-12.3046
였으니	-12.3048
▁과목에	-12.3049
▁충격적이었	-12.305
▁자기관리	-12.3056
▁늦는다	-12.3057
중인데	-12.3059
▁부모님하고	-12.307
▁배우면	-12.3072
▁시청	-12.308
▁사람이니	-12.3081
▁시부모님이	-12.3081
싶지	-12.309
태	-12.3094
▁밀	-12.3095
▁안전	-12.3098
▁타기	-12.3099
▁알아듣	-12.3102
▁지연	-12.3104
▁걸음	-12.3106
▁취소되었	-12.3106
▁오셨	-12.3106
버렸는데	-12.3111
놔서	-12.3112
▁요실금이	-12.3113
▁든든	-12.3118
리베이터	-12.3123
▁양쪽	-12.3124
▁맞이하	-12.3129
끔	-12.313
▁빵집	-12.313
▁비추	-12.3134
▁맛있어	-12.3135
들께	-12.3135
▁나왔지	-12.3137
▁보여드려	-12.3142
▁이혼하실	-12.3143
시험	-12.3144
▁편안해지	-12.3145
▁알아봐야겠	-12.3157
▁시대라	-12.316
▁차별해	-12.3162
▁절실	-12.3163
▁고생하시는	-12.3165
▁붙어있	-12.3168
▁넘어가니	-12.3172
▁볼일	-12.3178
▁저혈압	-12.3182
▁예민해지	-12.3185
▁일으키	-12.3186
▁회원	-12.3188
▁구박하는	-12.3192
▁높아지	-12.3193
▁익숙해지	-12.3198
졌	-12.3201
▁진단이	-12.3206
▁높지	-12.3206
▁마련한	-12.321
▁때문일	-12.3211
▁따듯	-12.3212
셨대	-12.3213
▁치우는	-12.3215
▁증명	-12.3216
▁등산에	-12.3216
때가	-12.3219
▁행동들	-12.3227
▁필요한지	-12.3229
▁드려봐야	-12.3229
▁어려워질	-12.3229
▁두었	-12.323
테	-12.3231
▁직장생활이	-12.3239
짓	-12.3239
▁높았	-12.3242
▁사귀자	-12.3242
▁때문인가	-12.3244
▁불쌍하	-12.3248
▁죽는다는	-12.3253
▁생긴다	-12.3255
▁장기자랑	-12.3257
▁양반이	-12.3262
관리	-12.3264
▁보양식	-12.3269
▁조심스럽고	-12.3269
▁횡령	-12.3271
▁접근하	-12.3275
▁생길지	-12.328
을텐데	-12.3282
되네	-12.329
지기	-12.3291
▁칭찬해주	-12.3293
여간	-12.3293
▁피하더라	-12.3294
▁치열	-12.3295
▁설득해야	-12.3297
▁속일	-12.3301
▁이직해야	-12.3306
▁적적해	-12.3312
사항이	-12.3315
▁안주	-12.3323
▁복학	-12.3324
▁탄	-12.3327
▁탐내는	-12.333
▁구박하	-12.3336
잘	-12.3336
▁수군거리	-12.3339
▁제공하	-12.334
계획	-12.3344
▁넣었	-12.3345
▁학원이라	-12.3346
▁정도라	-12.3349
▁쓰자	-12.3351
▁넓어	-12.3354
겠는데	-12.3356
▁예정일이	-12.3356
처리	-12.336
▁이혼하니	-12.3361
▁내려야	-12.3361
▁막힌	-12.3362
엉	-12.3365
더욱	-12.3368
▁비하	-12.3369
▁눌러	-12.337
▁내놓	-12.3373
▁투	-12.3381
▁양이	-12.3385
▁저지르	-12.339
▁종목	-12.3392
▁자기소개	-12.3394
▁골절	-12.3398
▁보완	-12.3399
▁사람이니까	-12.34
▁몸에서	-12.3401
▁용	-12.3401
▁측에	-12.3411
▁철	-12.3412
▁영순	-12.3412
▁외우	-12.3412
겨서	-12.3413
▁섭섭하다	-12.3414
▁생겼다는	-12.3416
렀	-12.3419
▁무뚝뚝하	-12.3419
▁치려	-12.3422
▁즐거웠	-12.3424
▁반찬이	-12.3427
▁기초	-12.3428
▁잘된	-12.3429
▁망쳐버렸	-12.3429
▁낙방	-12.343
▁겹	-12.3432
찰	-12.3433
▁말하자	-12.3437
▁숙	-12.3437
▁꾸짖	-12.3438
▁주목	-12.3438
▁진로상담	-12.3439
▁아니냐	-12.3441
▁사주기	-12.3447
▁들여다보	-12.3448
▁잃어버리	-12.3449
▁최소	-12.345
▁성적으	-12.3451
▁처벌이	-12.3451
▁생색	-12.3451
대신	-12.3452
▁사람일	-12.3452
▁독서실에	-12.3452
▁출전	-12.3456
픈	-12.3456
▁새아버지	-12.3456
▁편집	-12.3457
▁안쓰러운	-12.3457
▁익숙한	-12.3458
▁자원봉사	-12.3459
▁임용고시	-12.346
링	-12.346
▁지저분	-12.346
▁아이라	-12.3461
▁산후조리	-12.3462
▁불효	-12.3462
▁탈출	-12.3463
롯	-12.3463
▁외제	-12.3464
▁되돌려	-12.3464
▁접촉	-12.3464
▁뒷받침	-12.3464
▁선글라스	-12.3464
▁워크	-12.3464
▁감정기복	-12.3464
▁꿈꿨	-12.3464
▁나누기	-12.3464
▁날카롭	-12.3464
▁대외활동	-12.3464
▁뒤치다꺼리	-12.3464
▁떨린다	-12.3464
▁떨치	-12.3464
▁뚜렷한	-12.3464
▁많으셔	-12.3464
▁매뉴얼	-12.3464
▁멀다	-12.3464
▁몸뚱이	-12.3464
▁무너질	-12.3464
▁밀가루	-12.3464
▁삼자대면	-12.3464
▁실업급여	-12.3464
▁악영향	-12.3464
▁안좋다	-12.3464
▁엎질러	-12.3464
▁오냐오냐	-12.3464
▁웨딩드레스	-12.3464
▁위내시경	-12.3464
▁줍는	-12.3464
▁초콜릿	-12.3464
▁환상	-12.3464
▁흉이	-12.3464
▁게으른	-12.3464
▁목걸이	-12.3464
▁부끄러울	-12.3464
▁부러우면서	-12.3464
▁채널	-12.3464
▁멘토	-12.3464
▁팔다리	-12.3464
▁올바르	-12.3464
▁약물치료	-12.3464
▁유언	-12.3464
▁불만족이	-12.3464
▁간경화	-12.3464
▁빈손	-12.3464
▁축구선수	-12.3464
▁비밀번호	-12.3464
▁드레스	-12.3464
▁호강	-12.3464
▁연배	-12.3464
▁얹혀살	-12.3464
▁나아지려나	-12.3464
▁앉혀	-12.3464
▁화끈거려	-12.3464
▁독단적	-12.3465
▁수리비	-12.3465
▁예전같지	-12.3465
▁어학	-12.3465
▁연금보험	-12.3465
▁뒤처리	-12.3465
▁밥벌이	-12.3465
▁신용등급	-12.3465
▁낮잠	-12.3465
▁인형	-12.3465
▁잘해나갈	-12.3465
▁사용법	-12.3465
▁고파	-12.3465
▁맞출	-12.3465
▁피임	-12.3466
▁노력중이야	-12.3466
▁처남	-12.3466
▁단절되고	-12.3466
▁유산소	-12.3466
▁만년	-12.3466
▁보람차	-12.3467
▁무엇인가	-12.3467
▁남녀	-12.3467
▁김씨	-12.3468
▁대형	-12.3468
▁치아	-12.3468
▁별문제	-12.3468
▁회계	-12.3468
▁휘둘리	-12.3468
▁탓하겠어	-12.3468
▁않더니	-12.3468
▁선물이	-12.3468
▁도전해볼까	-12.3469
▁이혼하신대	-12.3469
▁시국	-12.3469
▁천만다행이	-12.3469
▁고비	-12.3469
▁무기력함	-12.3469
▁모르잖아	-12.3469
▁기반	-12.3469
▁우울증약	-12.3469
▁잠그	-12.347
▁사채	-12.347
▁박사	-12.347
▁업무처리	-12.347
▁세세	-12.347
▁좋았었는데	-12.347
▁불행할까	-12.347
▁놀아주는	-12.3471
▁가져볼까	-12.3471
▁예단	-12.3471
▁이어폰	-12.3471
▁버럭	-12.3471
▁무책임한	-12.3471
▁신호	-12.3471
▁고민되네	-12.3471
▁자율학습	-12.3471
▁운용	-12.3471
▁아버지로서	-12.3471
▁잊히지	-12.3472
▁말씀하신	-12.3472
▁벗들에게	-12.3472
▁가난함	-12.3473
▁합격했대	-12.3473
▁건물주	-12.3473
▁일손	-12.3473
▁일상생활조차	-12.3473
▁뽑았	-12.3473
▁걱정했었거든	-12.3473
▁신용불량자	-12.3474
▁음식점에	-12.3474
▁근로	-12.3474
▁완치될	-12.3474
▁알아본	-12.3475
▁고민거리	-12.3475
▁키웠다	-12.3475
▁내색하지	-12.3475
▁탓일까	-12.3475
▁건축	-12.3475
▁보시고	-12.3475
▁설득해봐야지	-12.3475
▁수능시험	-12.3475
▁한글	-12.3475
▁기다려져	-12.3476
▁어처구니없	-12.3476
▁자산관리사	-12.3476
▁여길	-12.3476
▁지인들한테	-12.3476
▁부여	-12.3476
▁절망스럽	-12.3477
▁결론이	-12.3477
▁쪼개서	-12.3477
▁먹어가는데	-12.3477
▁모양인지	-12.3478
▁빼앗아	-12.3478
▁최선일	-12.3478
▁불가능하다고	-12.3478
▁결정하기	-12.3479
▁납골당에	-12.3479
▁양로원에	-12.3479
▁시련	-12.348
▁목욕탕에	-12.348
▁생각했지	-12.3481
▁괴로운데	-12.3481
▁간호사한테	-12.3481
▁재판	-12.3481
▁나락	-12.3481
▁걱정스러운	-12.3481
▁이달	-12.3481
▁표현하려고	-12.3482
▁단기간	-12.3482
▁가입하려고	-12.3482
▁상부에	-12.3482
▁도전해보려고	-12.3483
▁있느라	-12.3483
▁글씨	-12.3483
▁일당	-12.3483
▁바쁘니까	-12.3484
▁당번	-12.3484
▁안되겠어	-12.3484
▁당첨됐어	-12.3484
▁적막	-12.3484
▁상담해볼까	-12.3485
▁바꾸려고	-12.3485
▁나타났	-12.3486
▁남편이야	-12.3486
▁고른	-12.3486
▁감사하며	-12.3487
▁부당해고	-12.3488
▁뽑히	-12.3488
▁성화야	-12.3488
▁받다니	-12.3489
▁무식한	-12.3489
▁사랑하니까	-12.3489
▁용어	-12.349
▁수도권	-12.349
▁잘해주려고	-12.349
▁운동화	-12.349
▁수고했다고	-12.3491
▁실망스럽다	-12.3491
▁키워놨	-12.3492
▁연락해보려고	-12.3492
▁보여주려고	-12.3492
▁결정하려고	-12.3492
▁부러지	-12.3493
▁감당하지	-12.3493
▁운동하기	-12.3493
▁부고	-12.3493
▁벌리지	-12.3494
▁폰	-12.3494
▁따위	-12.3494
▁데려오	-12.3494
▁시대인데	-12.3495
▁그래야겠지	-12.3495
▁서러웠	-12.3495
▁보낸다고	-12.3495
▁코드	-12.3495
▁법적으로	-12.3496
▁배정	-12.3496
▁대리에게	-12.3497
▁시원찮은	-12.3497
▁이겼어	-12.3497
▁넘길	-12.3497
▁챙겨줬어	-12.3497
▁녀석이랑	-12.3498
▁긴장된다	-12.3498
▁애매하	-12.3498
▁변함없	-12.3498
▁신고할까	-12.3498
▁진학하	-12.3498
▁가봐야겠다	-12.3499
▁심하다고	-12.3499
▁학생인데	-12.3499
▁와이프한테	-12.3499
▁이동이	-12.3499
▁화났	-12.3499
돈을	-12.35
▁상대적으로	-12.35
▁꾸려나가	-12.3501
▁같더니	-12.3501
▁빈혈이	-12.3501
▁자동	-12.3501
▁주간	-12.3501
▁일절	-12.3502
▁어떡하겠어	-12.3503
▁있음에	-12.3503
▁이혼한대	-12.3505
▁탓이네	-12.3506
▁꼬여	-12.3506
▁편찮으신	-12.3507
▁나이인	-12.3507
▁피하기만	-12.3507
▁차린	-12.3508
등으로	-12.3509
▁직원들한테	-12.3511
▁싫어하셔	-12.3512
▁잘났다고	-12.3512
▁미혼	-12.3513
▁무인도	-12.3514
▁편한데	-12.3515
▁친우	-12.3515
▁발길	-12.3516
▁깨달아	-12.3516
▁오르는데	-12.3518
▁흡연자들	-12.3519
▁좋아진다고	-12.3519
▁재혼하신	-12.352
▁출	-12.352
▁축하해주지	-12.3521
▁끊어야지	-12.3521
▁방송에서	-12.3521
▁감상	-12.3521
▁산소에	-12.3522
▁살피고	-12.3523
▁취한	-12.3523
▁감사하다	-12.3524
▁쇼핑이	-12.3524
▁일등이	-12.3524
▁여쭤보	-12.3526
▁가야하는데	-12.3526
▁찾아다니	-12.3527
▁닥치는	-12.3529
▁게을러서	-12.3529
▁떠나보내고	-12.3529
▁사진이라	-12.353
▁집중해야지	-12.3531
식품	-12.3531
조	-12.3533
▁익숙해져	-12.3534
▁수준으로	-12.3534
▁생겼네	-12.3535
▁소용인	-12.3536
▁텔레비전에서	-12.3536
▁무식하다	-12.3536
▁숙이	-12.3537
▁놀이터에	-12.3537
▁안마	-12.3537
▁거부감	-12.3537
▁나이들	-12.3537
▁죄인	-12.3538
▁등이	-12.3538
▁외워	-12.3538
▁가야겠지	-12.3539
▁사춘기인지	-12.3539
▁상대에게	-12.354
▁측에서	-12.354
▁봤거든	-12.3543
▁처리하지	-12.3543
▁모았어	-12.3544
자리	-12.3544
▁된다니까	-12.3544
▁갔는지	-12.3544
▁갚으면	-12.3545
▁엄만	-12.3545
▁정정하	-12.3546
성적으로	-12.3547
▁생신	-12.3548
▁툴툴대는	-12.3551
▁시국이	-12.3553
▁추운	-12.3553
▁좋아지니까	-12.3556
▁그랬다	-12.3556
▁먹고살지	-12.3557
▁당황스럽기	-12.3557
▁채식	-12.3558
▁우리반에	-12.3563
지도록	-12.3563
▁받아줄지	-12.3564
▁분들께	-12.3564
▁결혼시키	-12.3565
▁과잉보호하셔	-12.3565
▁의심스럽기	-12.3566
▁하시면서	-12.3566
▁놓칠	-12.3567
▁의심된다	-12.3568
▁애매	-12.3569
▁환경에	-12.3569
▁복직	-12.357
▁메모하	-12.3571
▁손길	-12.3571
▁안마기	-12.3572
▁선임이	-12.3572
칠까	-12.3573
▁수치스럽	-12.3573
▁줄어들지	-12.3574
▁처벌받	-12.3574
▁창고에	-12.3576
▁그곳	-12.3577
▁대체할	-12.3579
▁최저	-12.358
▁부장으로	-12.3581
▁시달리는	-12.3582
▁어딘가에	-12.3582
▁알아들어	-12.3583
▁되어가는	-12.3584
▁악화되기	-12.3584
▁독립하기	-12.3593
▁부어	-12.3594
▁타일러	-12.3594
▁가르치려	-12.3596
▁허약해	-12.3596
▁터질	-12.3596
▁존재인	-12.3597
▁가다니	-12.3597
▁결정한	-12.3601
▁시원해	-12.3601
▁차분해지	-12.3602
해놓고	-12.3603
▁못났	-12.3607
가셨어	-12.3608
▁뭐냐고	-12.3608
▁신기하	-12.3609
▁귀찮을	-12.3609
▁안타깝다	-12.3611
▁친구에	-12.3615
▁여자로	-12.3615
▁공로	-12.3615
▁호의	-12.3617
▁돌본다	-12.3617
▁속인	-12.3619
▁신뢰하지	-12.3621
▁뻔한	-12.3621
▁처방받아	-12.3622
▁잔소리에	-12.3625
▁부모님조차	-12.3625
▁즐겁	-12.3627
▁화해하지	-12.3627
▁지워	-12.3627
▁어겨	-12.363
▁일일까	-12.3636
▁써버렸	-12.3636
▁보고싶어	-12.3638
▁준대	-12.3639
▁조마조마	-12.364
▁주머니에	-12.364
▁당사자	-12.3645
▁중요하다	-12.3646
▁떠나기	-12.3647
▁작성해야	-12.3649
▁나가니	-12.365
▁우기	-12.365
▁완주	-12.3652
▁운동하려고	-12.3653
러운	-12.3655
▁기다려보	-12.3656
▁친구끼리	-12.3657
짜리	-12.3658
▁총	-12.366
▁앉아있기	-12.3661
▁야근이라	-12.3661
▁황혼이혼이	-12.3663
▁다투지	-12.3664
▁남자애들이	-12.3666
▁혼내지	-12.3667
▁고쳐지	-12.3667
▁심장질환	-12.367
▁겨울이	-12.3673
▁무의미해	-12.3673
▁피했어	-12.3674
▁글로	-12.3675
▁일하	-12.3676
▁불투명해	-12.3679
▁남보다	-12.3679
▁외부에	-12.368
▁불편해져	-12.368
▁구해야지	-12.368
▁바쁜지	-12.3683
▁상담실에	-12.3683
▁줄였어	-12.3685
▁줄줄	-12.3688
▁그러신	-12.3691
▁이주	-12.3693
▁도움은	-12.3694
▁남성	-12.3695
▁이야기하다가	-12.3695
함에	-12.3697
▁좋았고	-12.3698
▁생각하려	-12.37
▁걱정된다고	-12.3703
▁덜고	-12.3709
▁외국인	-12.3712
▁이용할	-12.3714
▁연애와	-12.3719
▁해결해주	-12.372
▁맺는	-12.3723
▁옮겨서	-12.3724
▁성취	-12.3726
▁곳인데	-12.3727
▁회사생활에	-12.373
▁대답이	-12.373
▁범인이	-12.3731
▁내야겠지	-12.3734
▁질병으로	-12.3734
▁그런건	-12.3734
▁사오라	-12.3736
▁싸우실	-12.374
▁악화되면	-12.3743
▁맛없다	-12.3744
▁홀가분해	-12.3745
▁매달려	-12.3745
▁방어적이	-12.3746
▁걸릴지	-12.3747
▁앞당겨	-12.3747
▁처량하	-12.3748
▁장난치	-12.3749
▁당첨되	-12.375
▁받던	-12.3751
▁올려달라	-12.3752
▁알아보려	-12.3752
▁싶다는데	-12.3752
▁눈빛이	-12.3762
버리니까	-12.3765
▁안될까	-12.377
해줘	-12.377
리네	-12.3771
▁서른이	-12.3771
▁교대	-12.3774
▁웃지	-12.3775
▁부담스러웠	-12.3776
▁움직이면	-12.3778
▁공원이	-12.378
▁모시지	-12.3782
냐면	-12.3783
으신	-12.3786
▁주방에	-12.379
▁지키려	-12.3792
▁힘들어해서	-12.3797
▁따르는	-12.3797
▁헤어지자	-12.3799
▁나들이	-12.3805
▁의지로	-12.3806
▁행동하면	-12.3811
해보겠다고	-12.3814
▁연로하	-12.3816
버렸으니	-12.3817
간다는데	-12.3817
▁지향	-12.3818
▁요구할	-12.3819
▁놨어	-12.3821
▁접어드니	-12.3823
▁커플이	-12.3826
냈는데	-12.3827
▁따라가는	-12.3827
▁하시지	-12.3828
▁허탈하기	-12.383
분들께	-12.383
▁부서원들	-12.3831
▁올라갈	-12.3833
▁풀리고	-12.3834
▁정장	-12.3836
▁똑같을	-12.3836
▁싸우는지	-12.3836
▁형편없어	-12.384
▁대답하	-12.3848
▁믿어주시	-12.3848
▁주어지	-12.3848
▁퇴사할	-12.3852
범	-12.3853
▁되었고	-12.3855
▁추천하	-12.3856
▁잘못해	-12.386
치를	-12.3862
▁기어	-12.3863
▁쓸쓸할	-12.3866
▁사랑에	-12.3868
▁되었을	-12.3871
▁경영이	-12.3878
▁목욕	-12.388
▁망치는	-12.3881
▁주우	-12.3885
▁끊어지	-12.389
▁안주하	-12.3891
▁끊이	-12.3892
▁단짝이	-12.3892
▁베풀면	-12.3894
▁쓸쓸하다	-12.3894
▁혈당이	-12.3895
려는	-12.3896
▁쓰리	-12.3896
▁입원하셔	-12.3898
▁느려지	-12.3899
▁출산한	-12.3899
▁등록했	-12.3905
▁높다는	-12.3906
▁딸인데	-12.3907
▁써야겠	-12.391
▁진단받	-12.3913
▁어려워지니	-12.3916
▁버림받았	-12.3916
▁경기도	-12.392
▁넘는	-12.3924
▁도우면	-12.3925
▁따라야	-12.3928
▁때렸다는	-12.3928
테니	-12.3929
▁올리려	-12.393
▁상환	-12.3933
▁빌어야겠	-12.3933
하는걸	-12.3942
▁겪어보	-12.3943
▁느낌이고	-12.3949
▁줄이면	-12.3954
▁독립한	-12.3955
▁거짓말이라	-12.3959
▁벌인	-12.3966
▁시어머님이	-12.3968
었을까	-12.3968
▁선택하	-12.3969
▁벌리	-12.3969
▁채팅방에	-12.397
▁잠수	-12.3972
▁엄마인	-12.3973
▁걸리더라	-12.3974
▁응대	-12.3976
▁죽는다	-12.3976
▁못하던	-12.3982
▁오락가락해	-12.3982
▁울적하	-12.3985
▁고등학교에서	-12.3985
▁저조해	-12.3987
▁모습과	-12.399
▁쳐도	-12.3994
▁주었	-12.3995
▁모아놓지	-12.4001
▁유도	-12.4005
▁도착하	-12.401
▁털어놓으	-12.401
▁바꾸어	-12.4011
▁설명해야	-12.4012
▁혼란스러워서	-12.4013
▁치료하면	-12.4015
▁예민했	-12.4017
▁몇인데	-12.4021
▁우울하지	-12.4022
▁생활고	-12.4034
▁어색하지	-12.4035
▁방심하	-12.4035
▁돈독	-12.404
▁근	-12.4042
▁수준에	-12.4043
▁뿐만	-12.4045
자라서	-12.4051
▁주변인들에	-12.4052
석	-12.4052
▁진행하	-12.4057
금이	-12.406
봐야	-12.4062
▁이웃이	-12.4066
▁넘겨주	-12.4069
▁폐렴이	-12.4072
▁엄마하고	-12.4073
▁진정시키	-12.4074
▁계셨	-12.4076
▁착용	-12.4081
▁임원이	-12.4084
▁수급자	-12.4086
▁가래	-12.4087
▁김장	-12.4088
▁날이라	-12.4089
▁분만	-12.4092
▁허락해주	-12.4095
▁말해주니	-12.4098
▁하던가	-12.4098
별로	-12.4101
▁비참하다	-12.4102
갈수	-12.4103
▁고맙더라	-12.4112
▁노려	-12.4113
▁진단받아	-12.4116
렸으면	-12.4118
▁미루는	-12.412
▁용서받	-12.4127
▁이상하다	-12.4128
▁닿	-12.4128
▁출근이	-12.4129
▁못났다	-12.413
▁유지되	-12.4131
▁십억	-12.4131
▁많이들	-12.4134
▁상사로	-12.4138
▁골라야	-12.4139
▁따른	-12.4139
▁잘못했어	-12.4143
▁만져	-12.4146
▁부모들	-12.4153
▁취준생	-12.4159
▁벗어나려	-12.4164
▁잘하던	-12.4167
▁입학하	-12.4169
▁고민할	-12.4169
▁취약하	-12.4169
▁잦아지	-12.417
▁결석	-12.4174
▁그만두려	-12.4181
▁사인	-12.4181
▁양보해	-12.4192
▁조심스러워서	-12.4193
해주셔서	-12.4194
▁훔쳐가	-12.4195
▁꿈인	-12.4197
▁이래라저래라	-12.4198
▁읽으	-12.421
▁괜찮았	-12.4211
▁곳이야	-12.4216
▁극복한	-12.4217
▁사라지니	-12.4219
▁호텔	-12.4219
▁발견됐	-12.4219
▁실내	-12.4222
▁뛰어가	-12.4224
▁걱정됐	-12.4224
▁신장이	-12.4228
▁다가온	-12.4231
족	-12.4231
감을	-12.4243
▁빌려줘	-12.4247
▁유튜브에	-12.4249
▁쫓아	-12.4258
▁지금까	-12.426
라셔	-12.4267
두는	-12.4269
▁도와주신	-12.4273
▁도착	-12.4273
신데	-12.4274
▁한단	-12.4275
▁시급	-12.4276
▁풀이	-12.4277
▁두려	-12.4278
▁노인네들	-12.4282
▁출가	-12.4284
▁벽이	-12.4287
▁내려온	-12.4295
▁고생해	-12.4296
▁힘들었나	-12.4299
▁가겠지	-12.43
▁위염이	-12.4304
시키고	-12.4306
▁전학가	-12.4307
▁공식	-12.431
▁버텨봐야	-12.4313
배	-12.4316
▁강사	-12.4317
▁있는거	-12.4318
▁받기는	-12.4319
▁받았다는	-12.4322
▁열려	-12.4323
▁고립	-12.433
▁많아지	-12.4331
▁건강해지려	-12.4338
▁해고되었	-12.4338
▁실험	-12.4339
▁모았다	-12.4343
▁맡기지	-12.4347
▁깜깜하	-12.4351
▁우리한테	-12.4354
▁아랫사람	-12.4355
▁약속하고	-12.4356
▁힘내라	-12.4361
하듯	-12.4361
갈거야	-12.4369
▁황혼이혼이라	-12.4369
▁먹었다	-12.4369
▁방어	-12.4371
▁왕따당하는	-12.4375
사항	-12.4376
겠군	-12.4377
스럽고	-12.4377
▁예전으로	-12.4385
▁끼쳐	-12.4386
▁재력	-12.4386
▁비슷	-12.4387
집에	-12.4388
▁짧아	-12.439
▁부잣집	-12.439
▁선택하는	-12.439
▁잘해줘야	-12.4397
속에	-12.4399
▁암울	-12.4399
▁낫는다	-12.4404
역	-12.4412
▁작다	-12.4413
▁구성원	-12.4413
▁소변	-12.4416
▁절교하	-12.4418
▁오디션	-12.4418
▁평가에	-12.442
적이야	-12.4421
▁죽고싶	-12.4422
▁알았으니	-12.4422
▁초조해지	-12.4425
▁도둑질	-12.4425
▁도우	-12.4427
▁불려	-12.4428
▁지각하는	-12.4431
으실	-12.4433
▁먹는지	-12.4435
▁대출이라	-12.4435
▁소개하는	-12.4436
▁괜찮아져	-12.4439
시겠지	-12.4449
없어	-12.4458
▁헤어	-12.446
▁바라봐	-12.4461
▁지적장애	-12.4463
▁지각한	-12.447
▁구석	-12.447
▁지경	-12.4471
▁싱숭생숭해	-12.4472
▁축소	-12.448
▁고소할	-12.4486
▁견디	-12.449
까지만	-12.449
▁자취방	-12.449
양	-12.449
▁이득	-12.4492
▁후반	-12.4492
▁건강하	-12.4492
▁한결같	-12.4493
▁높아져	-12.4495
▁살아가면	-12.4498
▁먼저인	-12.4498
▁마련하는	-12.4506
밀	-12.4507
▁받았는	-12.4509
▁외식이	-12.451
▁숨기지	-12.451
▁적응해야	-12.451
▁가방이	-12.4516
사람	-12.4519
▁적극	-12.4521
▁보냈지	-12.4524
▁잘못이니	-12.4527
▁실수하는	-12.4528
▁취해야	-12.4529
관계	-12.4531
▁지금에서	-12.4531
대한	-12.4537
▁신용	-12.4539
▁주방	-12.4539
▁얻어먹	-12.454
▁곤란	-12.454
▁상상이	-12.454
놔	-12.4541
▁권태기	-12.4543
▁가르치는	-12.4547
▁집중하면	-12.4547
▁도전하는	-12.4549
▁눕	-12.455
▁버텨야	-12.4552
▁사교	-12.4553
▁마지막이라	-12.4555
▁소개시켜	-12.4556
▁잡아주	-12.4557
벌	-12.4558
▁애매해	-12.4562
▁나날	-12.4562
보험	-12.4564
▁폐암이	-12.4564
넣었어	-12.4568
▁숨기려	-12.4569
보겠어	-12.457
▁들킬	-12.4574
▁성장하	-12.4575
▁대접해	-12.4575
▁등산이	-12.4576
▁생각하다	-12.4577
▁살리는	-12.4579
놈	-12.4588
▁휴대폰에	-12.4589
▁암이라	-12.4591
▁점에	-12.4591
▁치료받아야	-12.4596
▁보탬	-12.4597
▁눈치채	-12.4598
▁나가도	-12.4598
▁혜택이	-12.46
▁계모임	-12.4603
꾸	-12.4603
▁걸렸을	-12.4603
▁뒤처지	-12.4605
▁문제였	-12.4607
저녁	-12.4608
두지	-12.4608
▁준비하기	-12.4609
얘기	-12.461
행위	-12.461
▁동안에	-12.4615
시기	-12.4615
뜸	-12.4617
하겠대	-12.4618
리스트	-12.462
▁산지	-12.462
▁퇴직이라	-12.4623
▁검사해	-12.4624
▁늙어갈	-12.4624
▁근무한	-12.4626
▁기적	-12.4626
▁악화하여	-12.4627
▁수집	-12.4627
▁삶에서	-12.4628
▁무너지	-12.4632
▁닥치니	-12.4632
▁게을러	-12.4633
▁완쾌	-12.4635
상태야	-12.4639
▁떠나보내	-12.4641
되는데	-12.4641
▁챙겨주면	-12.4646
▁얘기해보려	-12.4646
▁싶기	-12.465
▁상담소	-12.4653
▁강해	-12.4655
▁괴로움	-12.4659
▁술주정	-12.4661
▁끝인	-12.4662
▁위로해줬	-12.4663
▁취업준비생	-12.4667
▁어색	-12.467
▁수험생이	-12.4672
▁시합	-12.4672
립성	-12.4673
▁요번	-12.4677
그래도	-12.4679
▁지적해	-12.468
▁저려	-12.4683
▁대비해야	-12.4685
▁드렸	-12.4685
족한	-12.4687
▁메일	-12.4687
▁고백한	-12.4688
흥이	-12.4688
▁지들	-12.4688
율	-12.469
▁연결	-12.4691
▁양보해야	-12.4692
▁낳았	-12.4693
▁코앞	-12.4697
▁얼어붙	-12.4697
▁결과에	-12.47
▁어처구니	-12.4701
▁궁	-12.4703
▁교환	-12.4704
▁채팅	-12.4709
▁저녁이	-12.4709
▁실습	-12.4709
즈	-12.4711
▁인격	-12.4712
▁공황	-12.4713
▁어지러	-12.4713
▁의무	-12.4714
▁혈액	-12.4714
▁겉돌	-12.4714
▁빠를	-12.4714
▁일으켜	-12.4714
▁졸랐	-12.4714
▁게이트볼	-12.4714
▁구급차	-12.4714
▁긁어	-12.4714
▁낯가림	-12.4714
▁덩치	-12.4714
▁돋보기	-12.4714
▁뛰지	-12.4714
▁멈춘	-12.4714
▁빌라	-12.4714
▁삼겹살	-12.4714
▁샀던	-12.4714
▁샌드위치	-12.4714
▁성전환	-12.4714
▁쉬엄쉬엄	-12.4714
▁시시콜콜	-12.4714
▁신세한탄	-12.4714
▁알츠하이머	-12.4714
▁애썼	-12.4714
▁에이디에이치디	-12.4714
▁이외에	-12.4714
▁인사발령	-12.4714
▁읽을	-12.4714
▁잦고	-12.4714
▁쟤들	-12.4714
▁정확해	-12.4714
▁종업원	-12.4714
▁층간소음	-12.4714
▁코로나일구	-12.4714
▁킬로그램	-12.4714
▁탐탁	-12.4714
▁태블릿	-12.4714
▁프랜차이즈	-12.4714
▁헤매	-12.4714
▁홈페이지	-12.4714
▁대사증후군	-12.4714
▁무급휴가	-12.4714
▁솔선수범	-12.4714
▁여쭈어	-12.4714
▁영수증	-12.4714
▁일방적인	-12.4714
▁베끼	-12.4714
▁행패	-12.4714
▁염색	-12.4714
▁책임지기	-12.4714
▁막걸리	-12.4714
▁무덤	-12.4714
▁자소서	-12.4714
▁잔심부름	-12.4714
▁앞뒤	-12.4714
▁한부모가정	-12.4714
▁노여워	-12.4714
▁근근	-12.4714
▁요사이	-12.4714
▁주치의	-12.4714
▁삼학년	-12.4714
▁나타날	-12.4714
▁단풍	-12.4714
▁마감기한	-12.4714
▁실업계	-12.4714
▁사무직	-12.4714
▁태교	-12.4714
▁베이비	-12.4714
▁각별	-12.4714
▁배고프	-12.4714
▁감봉	-12.4714
▁물혹	-12.4714
▁역량	-12.4714
▁회포	-12.4714
▁공동	-12.4714
▁미숙	-12.4714
져야겠어	-12.4714
▁덧나	-12.4714
▁저질러	-12.4714
▁떨쳐낼	-12.4714
▁경매	-12.4714
▁상향	-12.4714
▁더불어	-12.4714
▁위로하는	-12.4714
▁실례	-12.4714
▁불만족스러워	-12.4714
▁장인어른	-12.4714
▁해결방법	-12.4715
▁재검사	-12.4715
▁석사	-12.4715
▁신약	-12.4715
▁투잡	-12.4715
▁격차	-12.4715
▁척추	-12.4715
▁명령	-12.4715
▁공짜	-12.4715
▁공책	-12.4715
▁간혹	-12.4715
▁무급	-12.4715
▁까다로운	-12.4715
▁연체	-12.4715
▁서툰	-12.4715
▁인복	-12.4715
▁까다롭	-12.4715
▁베꼈	-12.4715
▁재계약	-12.4716
▁죽겠다	-12.4716
▁가이드	-12.4716
▁덕이지	-12.4716
▁우산	-12.4716
▁이르렀	-12.4717
▁부족했	-12.4717
▁시부모	-12.4717
▁익	-12.4717
▁다행스럽게	-12.4717
▁모함	-12.4717
▁놀랐는지	-12.4717
▁차량	-12.4717
▁진통제	-12.4717
▁않았으니	-12.4717
▁과에	-12.4718
▁새아버지께	-12.4718
▁매정하	-12.4718
▁아님	-12.4718
▁갈아입	-12.4718
▁인지능력	-12.4718
▁연주	-12.4718
▁악감정	-12.4719
▁이틀이지	-12.4719
▁들었으니	-12.4719
▁지저분하	-12.4719
▁물질적으로	-12.4719
▁처해	-12.4719
▁나누려고	-12.472
▁다양하	-12.472
▁덮으려고	-12.472
▁즐기려고	-12.472
▁논리	-12.472
▁줄어들겠지	-12.472
▁노인성	-12.4721
▁십오	-12.4721
▁물어보시	-12.4721
▁야채	-12.4722
▁향수	-12.4722
▁기여	-12.4722
▁담담	-12.4722
▁법률	-12.4722
▁자유로운	-12.4722
▁정학	-12.4722
▁파스	-12.4723
▁국민	-12.4723
▁내려갔어	-12.4723
▁해둘걸	-12.4723
▁있으니깐	-12.4723
▁부위	-12.4723
▁걸렸는지	-12.4724
▁어때	-12.4724
▁치마	-12.4724
▁아기용품	-12.4725
▁떨어지다니	-12.4725
▁모금	-12.4725
▁돌보려니	-12.4725
▁깜박하고	-12.4725
▁조심하려고	-12.4725
▁작년까지	-12.4725
▁매형	-12.4726
▁사물함에	-12.4726
▁없구나	-12.4726
▁툴툴거려	-12.4726
▁않았겠지	-12.4726
받아야	-12.4726
▁명확히	-12.4726
▁일해왔는데	-12.4727
▁후배들한테	-12.4727
▁남매	-12.4728
▁일어날까	-12.4728
▁한심할	-12.4728
▁가만두	-12.4729
▁옳다고	-12.4729
▁헌신했는데	-12.4729
▁편안함	-12.473
▁이랬다	-12.473
▁송	-12.473
▁원한	-12.473
▁있었고	-12.473
▁미안하면서	-12.473
▁떠난다는	-12.473
▁해결됐어	-12.473
▁가봐야겠지	-12.4731
▁있었으니	-12.4731
▁사귀려고	-12.4732
▁어른들에게	-12.4732
▁짐작	-12.4732
▁군데에	-12.4733
▁찔리	-12.4733
▁코스	-12.4733
▁조카에게	-12.4734
▁돌리는	-12.4734
▁박람회	-12.4734
▁관념	-12.4735
▁하겠는데	-12.4735
▁재정상황	-12.4735
▁우수	-12.4736
▁드러나	-12.4736
▁친척들한테	-12.4736
▁좋아하겠지	-12.4736
▁기울이	-12.4737
▁예물	-12.4738
▁살피	-12.4738
▁실패할까	-12.4738
▁응급	-12.4739
▁타인과	-12.4739
▁격해져	-12.4739
▁시어머니께서	-12.474
▁적성과	-12.4741
▁맡기려고	-12.4741
▁헤어지려고	-12.4742
▁익혀	-12.4742
▁노력으로	-12.4743
▁온다네	-12.4743
▁크니	-12.4743
▁시키면	-12.4743
▁머릿속에	-12.4743
▁어쩌려고	-12.4744
▁결함	-12.4745
▁고맙기	-12.4745
▁지내보려고	-12.4746
▁목격했는데	-12.4747
▁이혼하신	-12.4747
▁설사	-12.4747
▁영감에게	-12.4747
▁낫겠다	-12.4747
▁쫓아내	-12.4747
▁무심한	-12.4748
▁물어보더라고	-12.4748
▁실천하지	-12.475
▁창피하지만	-12.475
▁그다음에	-12.4751
▁따려고	-12.4751
▁버려야지	-12.4752
▁심신	-12.4753
▁가셨는데	-12.4753
▁재미있었어	-12.4754
▁입사할	-12.4754
▁밀려오	-12.4754
▁잘못됐다고	-12.4755
▁달려와	-12.4757
▁있었을까	-12.4757
바탕	-12.4757
▁풀어주고	-12.4757
▁이혼하시고	-12.4758
▁웃음거리	-12.4758
▁후배한테	-12.4759
▁주차장	-12.4759
▁결혼하니	-12.476
▁누구인지	-12.476
▁미끄러져	-12.476
▁희	-12.4762
▁그러시는지	-12.4762
▁도시에서	-12.4763
▁대하려고	-12.4763
▁고민되고	-12.4763
▁부수	-12.4764
▁타야	-12.4764
▁선정	-12.4764
▁빌려봐야겠어	-12.4765
▁바빴어	-12.4765
▁테니스	-12.4766
▁애들하고	-12.4767
▁낙이야	-12.4768
▁치료해	-12.4768
▁딸아이와	-12.4768
▁울더라고	-12.4768
▁하루만	-12.4769
▁드물	-12.477
▁사귀었어	-12.477
이었던	-12.4771
▁장인	-12.4771
▁받아야겠지	-12.4771
▁바래	-12.4772
▁공유해	-12.4773
▁말해준	-12.4773
▁안쓰고	-12.4773
▁출근한	-12.4773
▁노인들에게	-12.4774
▁약한데	-12.4775
▁없다더니	-12.4775
▁밀려와	-12.4775
▁딸하고	-12.4776
▁죄송스럽	-12.4776
▁관여	-12.4777
▁잘릴까	-12.4777
▁선호하는	-12.4777
▁도와드리고	-12.4777
▁진학할지	-12.4777
▁부장님과	-12.4777
▁혼낼	-12.4777
▁어려울까	-12.4778
▁분들에게	-12.478
▁넘긴	-12.4781
▁친척들과	-12.4781
▁식탁에	-12.4781
▁친해졌	-12.4782
▁정년퇴직인데	-12.4783
▁모르면서	-12.4783
▁아팠을	-12.4784
▁싫더라고	-12.4785
▁현직에	-12.4786
관이	-12.4787
▁해나갈	-12.4787
▁무리인	-12.4788
▁스피	-12.4792
▁우니까	-12.4793
▁희생양이	-12.4793
▁오락가락하고	-12.4793
▁학대당하	-12.4794
▁유지하려고	-12.4795
▁댁에	-12.4795
▁퍼뜨렸	-12.4795
▁구매한	-12.4796
▁어수선해	-12.4797
▁두렵다	-12.48
▁극복하기	-12.48
▁금요일	-12.4801
▁받더라고	-12.4802
▁뽑지	-12.4802
▁친정집	-12.4802
▁증명할	-12.4804
▁가스	-12.4804
▁손수	-12.4804
▁들다니	-12.4804
▁기간이라	-12.4805
▁씩씩하	-12.4805
버려	-12.4805
▁해고될	-12.4808
▁보여주기	-12.4811
▁선택했는데	-12.4812
바닥이야	-12.4812
▁설정	-12.4813
▁동업	-12.4815
▁아낀	-12.4817
▁늘어날	-12.4817
▁없다니까	-12.4817
▁빠져있	-12.4818
▁열불	-12.4821
▁반영되	-12.4825
▁있어야겠지	-12.4826
▁쌓아야	-12.4827
▁상담소에	-12.4828
운데	-12.4828
▁걱정되어서	-12.4831
▁앞장서	-12.4832
▁직종이라	-12.4832
▁밝히는	-12.4832
▁쓸모없다	-12.4833
▁저것	-12.4833
▁중요하겠지	-12.4834
▁소홀해지	-12.4835
▁동료보다	-12.4836
▁마음가짐이	-12.4836
▁동의	-12.4838
▁거절하는	-12.4838
▁따라잡을	-12.4839
▁진정성	-12.4839
▁용돈이라	-12.4839
▁저축하는	-12.484
▁괜찮다는	-12.4841
▁기다리지	-12.4841
▁욕할	-12.4843
▁저축할	-12.4843
▁누나와	-12.4843
▁클리닉	-12.4845
▁화목하지	-12.4845
▁감추	-12.4847
▁나갈까	-12.4849
▁살아볼	-12.485
▁시작해야겠지	-12.4851
▁만만한가	-12.4852
▁달래야	-12.4852
▁잘해야겠지	-12.4852
▁친구들이라	-12.4853
▁지겹다	-12.4853
▁어째야	-12.4854
▁취업하라고	-12.4854
▁여기까지	-12.4856
▁뽑고	-12.4857
▁사적으로	-12.4859
▁희생해서	-12.486
▁만나야지	-12.4861
▁났나	-12.4863
▁해주셨는데	-12.4863
릴까봐	-12.4865
▁실력으로	-12.4868
▁치료하기	-12.4871
▁피로감	-12.4873
▁못했나	-12.4873
▁되어야지	-12.4874
음에	-12.4874
▁누락됐	-12.4875
▁심기	-12.4875
▁절약하고	-12.4877
▁해두	-12.4879
▁버리지	-12.4882
▁노력했지	-12.4882
▁가족들만	-12.4886
▁주선해	-12.4886
▁낙심	-12.4887
▁학교가기	-12.4887
▁버렸지	-12.4888
▁살걸	-12.489
▁업무능력이	-12.4891
▁찜질	-12.4891
▁생각하라고	-12.4891
▁투자하는	-12.4892
▁그곳에	-12.4892
났다고	-12.4895
▁알려줬어	-12.4895
▁찢어져	-12.4896
▁생에	-12.4896
▁말리고	-12.4896
▁약물	-12.4896
▁엄마라	-12.4897
▁백세시대라	-12.4899
▁정리하면	-12.4899
▁미팅이	-12.49
▁제시해	-12.4901
▁만나려	-12.4901
▁나아져야	-12.4902
▁설득하고	-12.4902
▁짜증난다	-12.4906
▁각서	-12.4907
▁헬스클럽에	-12.4907
▁안절부절못하는	-12.4909
▁비정상적	-12.4909
▁돌아가지	-12.4913
▁탕비실에	-12.4914
▁쪽에	-12.4915
▁깨닫고	-12.4919
▁상황으로	-12.4919
▁심심해서	-12.492
▁다녀야겠지	-12.4921
▁통화하다	-12.4921
▁정하	-12.4924
▁귀한	-12.4925
끝까지	-12.4928
▁했었어야	-12.4929
▁신입생	-12.493
중심으로	-12.4934
냈거든	-12.494
▁감소했	-12.494
▁해보라	-12.4941
▁발표날	-12.4942
▁해주신	-12.4943
▁딸인	-12.4943
▁따지는	-12.4944
▁출근길	-12.4945
▁신이나	-12.4945
▁버려야	-12.4945
▁해놔	-12.495
▁당해야	-12.495
▁저장	-12.4951
▁탓인데	-12.4956
하든	-12.4956
▁내릴	-12.4956
▁옛말이	-12.4956
▁재촉하는	-12.4957
▁이년	-12.496
▁사이로	-12.4962
▁벌이로	-12.4963
▁가깝고	-12.4964
▁넘었	-12.4964
▁쉬라	-12.4965
▁찾아갈	-12.4966
▁만나자는	-12.4968
▁죽어버릴	-12.4971
▁드리기	-12.4975
▁미루기	-12.4976
팀	-12.4977
정규직으로	-12.4977
▁얄미워서	-12.4978
▁고시	-12.4979
▁칭찬받아	-12.4983
▁울지	-12.4986
▁내려앉	-12.4989
▁존재하지	-12.4991
▁현실에서	-12.4992
▁들어주시지	-12.4997
▁퇴직하는	-12.4999
▁통이	-12.5
▁일주일이	-12.5004
▁꿈이었	-12.5004
▁떠나가고	-12.5005
▁책임자	-12.5006
▁돌아볼	-12.5008
▁돌보아	-12.5008
▁잘해주시	-12.5008
▁응원해줄	-12.5009
▁못했을	-12.5011
▁꼬였	-12.5019
▁상황이니	-12.502
▁조심해	-12.5021
▁놨는데	-12.5024
▁출근해야	-12.5024
뿐이니까	-12.5025
▁학우들	-12.5025
▁알아내	-12.5026
▁걱정이긴	-12.5028
▁나빠지면	-12.5028
▁안과에	-12.5028
▁연봉으로	-12.5031
▁입사해서	-12.5031
▁제주도에	-12.5031
▁언제부터	-12.5031
▁아까워서	-12.5033
▁만나던	-12.5034
▁드려보	-12.5035
▁감정조절	-12.5035
▁단절이	-12.5037
▁뒷전이	-12.5038
▁달려가	-12.5038
▁없애야	-12.5042
▁울려	-12.5042
▁졸업식에	-12.5043
▁알리지	-12.5045
▁말아야겠다	-12.5047
▁취급하고	-12.5049
▁샘이	-12.5049
▁멀리하	-12.505
▁피곤하기	-12.5051
한다네	-12.5051
▁연락해보	-12.5053
▁튼튼	-12.5053
▁시작된	-12.5053
▁퇴근해	-12.5054
▁드신	-12.5057
▁주려	-12.5057
▁우선이겠	-12.5057
▁이상해서	-12.5059
▁주말이라	-12.5059
▁약국에	-12.506
▁지불해	-12.506
▁부정적이	-12.506
▁살기에	-12.5064
▁잘하기	-12.5064
거려	-12.5064
무려	-12.5065
▁이용하기	-12.5068
▁건드려	-12.5076
▁괴로워하는	-12.5083
▁보살펴주	-12.5083
▁피곤할	-12.5086
▁가족이라고	-12.5087
▁핸드폰으로	-12.5087
▁중심	-12.5087
▁완화	-12.5088
▁일하려고	-12.5089
▁신경쓰이	-12.5091
▁싸우더라	-12.5094
충	-12.5098
▁나로서	-12.5098
주시겠대	-12.5099
▁신경질이	-12.51
▁효도하	-12.5101
편이	-12.5103
▁준비물	-12.5105
▁주셨	-12.5109
▁공정	-12.511
▁말씀이	-12.511
▁강박증이	-12.5112
▁자신들	-12.5114
▁정해져	-12.5119
▁만나보	-12.512
내는	-12.5121
▁다독여	-12.5122
▁이혼해야	-12.5122
▁불이	-12.5122
▁끝났으니	-12.5125
▁죽이	-12.5126
▁집착이	-12.5132
▁이야기로	-12.5138
▁유쾌	-12.5143
▁키워놓	-12.5144
▁상세	-12.5145
▁간호사들	-12.5146
▁창피하기	-12.5149
▁절단	-12.5152
학원	-12.5155
▁뇌종양	-12.5157
▁익숙해	-12.5158
▁부친이	-12.5161
▁운동하는데	-12.5162
▁보이셔	-12.5163
▁세상과	-12.5163
▁여기지	-12.5163
▁가나	-12.5167
▁기분전환이	-12.5167
냐는	-12.5167
겠다는데	-12.5168
▁믿거든	-12.5171
▁순간적	-12.5174
▁맡기면	-12.5175
▁임신하고	-12.5176
▁극도	-12.5176
▁잘해줬	-12.5178
▁입금	-12.5179
품을	-12.518
▁요령	-12.5183
▁털어놔야	-12.5183
▁졸업이	-12.5184
▁사주겠다	-12.519
▁시작되	-12.5192
다거나	-12.5201
▁회복에	-12.5201
▁어울리려	-12.5201
리라고	-12.5205
▁잘못했다	-12.5205
▁감소해	-12.5206
▁에스엔에스에	-12.5207
▁동물을	-12.5207
▁오락가락하	-12.5208
▁섭취	-12.5211
▁직원으로	-12.5212
오면	-12.5214
▁출근하라	-12.5218
▁매달리	-12.5218
▁나아지기	-12.5219
▁합격해야	-12.5219
▁인간들	-12.5226
▁있었겠지	-12.5229
▁바다에	-12.523
▁잔소리하고	-12.5231
▁돼야	-12.5233
▁무시당한	-12.5236
▁부족한가	-12.5237
▁고독사	-12.5239
▁출산일	-12.5246
▁고마웠다	-12.5248
▁이웃에	-12.5248
▁무게	-12.525
▁고백하	-12.5251
▁비혼주의	-12.5253
▁키우지	-12.5253
▁별로라	-12.5254
▁느껴졌	-12.5255
▁붙어야	-12.5255
▁불규칙	-12.5255
▁운전하	-12.5259
▁버려질까	-12.5262
국	-12.5264
▁의식해	-12.5264
▁좋으	-12.5265
▁참다가	-12.5265
▁까먹는	-12.5266
▁소개팅에	-12.5267
▁알리면	-12.5268
▁열어주	-12.5273
▁화기애애	-12.5276
에서도	-12.5279
▁답답하기	-12.5283
▁부른	-12.5284
▁이혼하실까	-12.5285
▁자질	-12.5295
▁공개적	-12.5295
난다고	-12.5299
▁달래주	-12.53
▁결혼하기에	-12.53
다는군	-12.53
▁탈락해	-12.5301
▁일한다고	-12.5304
▁고민하다	-12.5307
▁어려우	-12.5309
▁아니더라고	-12.5309
▁설레는	-12.5314
▁연금에	-12.5316
▁부분만	-12.5317
▁현재에	-12.5319
▁감량	-12.5322
▁증오하	-12.5325
▁죄송했	-12.5327
방에서	-12.5329
▁사기꾼	-12.5335
▁그만두기	-12.5335
▁여행은	-12.5335
▁떠나버렸	-12.5337
▁숨을	-12.5338
▁사돈	-12.5341
▁애야	-12.5342
▁놀려고	-12.5343
▁받았을	-12.5346
▁조심했	-12.5349
▁변할	-12.535
모	-12.5352
▁고삼	-12.5353
소리	-12.5357
▁비어	-12.5358
▁급하다	-12.5361
▁잘했다면	-12.5366
▁마는	-12.5367
▁한집에	-12.5371
▁비웃었	-12.5381
▁자금에	-12.5386
▁내실	-12.5388
하시니	-12.539
▁찾으려	-12.539
▁퇴임	-12.5391
했기	-12.5392
▁열중하	-12.5393
▁계절	-12.5393
▁숨겨왔	-12.5393
▁소개해준다	-12.5395
▁불고	-12.5396
▁주까지	-12.54
▁대야	-12.5403
▁확장	-12.5403
▁먹어가면	-12.5404
▁없어진다	-12.5409
▁정답이	-12.5409
▁노망	-12.5417
▁벌었다	-12.542
▁자라면	-12.5422
▁동기만	-12.5423
▁빌어야	-12.5423
▁탓할	-12.5424
▁공격	-12.5426
▁돌아온	-12.5427
▁죄인이	-12.5434
▁낮다	-12.5437
▁깨어	-12.5441
▁그만해야	-12.5446
▁가져왔	-12.5446
버리면	-12.5452
▁할일	-12.5465
▁바쁘기	-12.5466
▁참아왔	-12.5466
▁감싸	-12.5475
▁부린다	-12.5479
▁지내는지	-12.5486
▁도와야	-12.5487
▁반려	-12.5491
오는	-12.5494
▁충실해야	-12.5495
▁부모님만	-12.5497
▁평안	-12.5499
▁잘되어	-12.55
▁데려다주	-12.5501
리려고	-12.5501
천이	-12.5502
▁폐경	-12.5502
▁지금과	-12.5503
▁책임져	-12.5507
▁부담스러워서	-12.5507
▁피웠다	-12.5509
▁친구만큼	-12.5512
팀이	-12.5512
▁모으려	-12.5514
▁시어머님	-12.5514
▁마시기	-12.5515
▁거부해	-12.5522
▁좌절할	-12.5524
▁결정되	-12.5532
▁교회에	-12.5538
▁보살펴야	-12.5549
▁비전	-12.5556
▁가해자에	-12.5557
보여서	-12.5561
▁불행해지	-12.5564
▁힘내야	-12.5567
▁조에	-12.5568
▁멍청	-12.5569
▁청해볼까	-12.5575
▁어울리면	-12.558
용으로	-12.558
▁꾸지	-12.5581
▁아쉽지	-12.5583
▁격려해줘	-12.5583
▁때에도	-12.5588
▁쉬워	-12.5592
생겨서	-12.56
▁뺏었	-12.5602
▁취직했	-12.5603
▁늘었	-12.5606
스크	-12.5606
▁평온	-12.5607
▁둘러	-12.5607
있었어	-12.5608
▁대학생인	-12.561
▁대접하	-12.5615
거라	-12.5615
▁강요하시는	-12.5617
림	-12.5618
▁간호해주	-12.5621
▁속상하더라	-12.5622
▁저만	-12.5623
▁돌아간	-12.5623
줄래	-12.5624
▁시기라	-12.5628
▁물려	-12.563
▁일진들	-12.5631
▁당첨됐	-12.5633
▁데려	-12.5634
▁하락했	-12.5635
▁앉아있는	-12.5635
▁사려	-12.5637
▁처자식	-12.5643
실에	-12.5644
▁처지는	-12.5649
▁지원해야	-12.5651
▁탈락이	-12.5654
▁침침하	-12.5656
▁치를	-12.5659
▁컸다	-12.5661
▁이해해주시	-12.5668
▁돌려줘	-12.567
▁상관없	-12.567
▁낳는다	-12.5674
▁대기업이	-12.5674
▁참는	-12.568
왔기	-12.5683
▁받았으니	-12.5685
▁부려먹	-12.5689
▁발생했	-12.5698
▁피해자들	-12.5699
▁야외	-12.57
▁전자	-12.5708
는군	-12.5708
▁주저하	-12.5709
▁정산	-12.5713
▁제출할	-12.5714
달래	-12.5716
▁미혼이	-12.5722
▁소개받	-12.5722
▁가운데	-12.5723
하시지	-12.5724
▁무시하니	-12.5727
▁외출하	-12.5733
으셔	-12.5744
▁셋이	-12.5745
▁생겼을	-12.5746
▁버텨보	-12.5749
▁거절한	-12.575
▁못하겠더라	-12.5751
졌거든	-12.5751
강	-12.5751
▁동참해	-12.5752
제야	-12.576
▁물이	-12.5762
▁다잡아야겠	-12.5765
▁증오스럽	-12.5766
▁현금이	-12.5771
▁까봐	-12.5772
▁길거리	-12.5772
▁나이라	-12.5773
▁포기할까	-12.5774
▁삭감	-12.5782
으니깐	-12.5783
▁엄마만	-12.5784
▁놀이공원	-12.5789
▁까먹었	-12.5794
▁돈이야	-12.5796
▁이혼하려	-12.5798
▁살림이	-12.5798
▁아래층	-12.5798
▁냈다	-12.58
▁힘든가	-12.5802
▁마저	-12.5804
▁뭐하고	-12.5805
▁활용해	-12.5806
▁전공에	-12.5808
▁사람들이라	-12.5809
▁받겠지	-12.5812
▁어릴때	-12.5819
▁거짓말이었	-12.5821
▁어려워지는	-12.5827
▁끝났으	-12.5831
▁도와주어야	-12.5832
▁낮다는	-12.5843
▁쓰일	-12.5848
▁말까지	-12.585
해주었어	-12.585
▁똑똑하	-12.5854
▁먹으려	-12.5857
사람들에게	-12.5859
▁단톡방	-12.586
▁놓이	-12.586
▁어렵기	-12.5865
▁교장	-12.5866
▁알아보니	-12.5869
▁쳐다	-12.587
▁사직	-12.5871
▁마련하려	-12.5872
▁만난다는	-12.5878
▁신경써	-12.5878
있게	-12.5878
▁멀리해	-12.5879
▁허탈하다	-12.5879
▁마셔야	-12.588
▁타격	-12.5881
자리에	-12.5886
더라니까	-12.5887
▁대는	-12.5888
유	-12.5891
▁혈	-12.5892
▁내일이라	-12.5895
▁익숙하	-12.5904
▁예민해지는	-12.5906
받아야겠어	-12.5907
▁끌려	-12.5907
상이야	-12.5909
색	-12.5912
▁업무만	-12.5912
▁경우에	-12.5913
▁급해지	-12.5914
▁선임	-12.5914
▁태	-12.5915
▁착용하	-12.5916
▁구해줬	-12.5919
▁떨어야	-12.592
▁권유받았	-12.592
▁고백할	-12.5921
▁청해야	-12.5924
이자	-12.5927
▁친엄마	-12.5928
션	-12.5929
▁요양원이	-12.5932
▁추워	-12.594
▁위층	-12.5947
분께	-12.5947
▁차는	-12.5949
어지는	-12.5951
▁실천할	-12.5952
▁세탁	-12.5954
▁결혼한다	-12.5954
해주면	-12.5959
▁확인할	-12.5965
▁현상	-12.5967
▁비우는	-12.5977
▁협조	-12.598
▁챙겨주니	-12.5982
▁해야해	-12.5982
▁인정해주	-12.5984
▁화내면	-12.5984
▁근심	-12.5987
▁무언	-12.5988
▁감동이었	-12.5988
▁따라줘	-12.599
잔	-12.5992
▁합격했다는	-12.5994
▁곡	-12.5997
▁취직하는	-12.5999
▁안되니	-12.6014
▁끔찍	-12.6014
▁여행가는	-12.6016
▁미루다	-12.6018
▁갈라서	-12.6018
▁참담	-12.6021
▁매점	-12.6021
▁말씀드려볼	-12.6021
▁보신	-12.6021
▁해대	-12.6022
승	-12.6022
나니	-12.6023
▁조절해야	-12.6023
▁잘나갔	-12.6027
지거든	-12.6027
▁명확	-12.6027
▁본적	-12.6028
플	-12.6029
▁처가에	-12.603
료	-12.6033
▁주민센터	-12.6033
▁게임중독	-12.6033
▁모르더라	-12.6035
부럽지	-12.6037
보낸	-12.6038
꿀	-12.6039
▁들을까	-12.604
여행	-12.6041
▁커뮤니티	-12.6043
육	-12.6043
▁보살피는	-12.6046
▁진행해야	-12.6047
▁배제	-12.6048
▁시간인데	-12.6049
▁약점이	-12.6051
알	-12.6051
▁무난	-12.6054
▁노출	-12.6055
▁기다려봐야	-12.6055
▁일했	-12.6056
▁가려니	-12.6058
▁교무실	-12.6061
▁자습	-12.6062
▁부르셔	-12.6064
▁두근거려	-12.6068
▁나무라	-12.6068
▁지체	-12.6069
녀	-12.6069
▁안타까	-12.607
▁홀가분하	-12.607
▁불치병	-12.6071
▁지낼까	-12.6075
▁해결되었	-12.6076
라니까	-12.6079
▁생각했을	-12.608
봐야겠지	-12.6083
었다가	-12.6083
▁기름	-12.6083
▁이야기하다	-12.6084
습	-12.6085
내기	-12.6087
▁떠오	-12.6087
▁상담센터	-12.6087
을지도	-12.6087
르지	-12.6087
▁멋	-12.6093
▁오백만	-12.6096
▁걸기	-12.6098
▁전문직	-12.61
▁돌아다녀	-12.6101
해왔는데	-12.6101
▁저러니	-12.6102
▁들어주셔	-12.6103
▁패션	-12.6104
▁항	-12.6107
▁취소해	-12.6108
▁고마	-12.611
▁위해주	-12.611
▁전이	-12.6113
▁불렀	-12.6113
신지	-12.6115
독하게	-12.6118
▁확인하는	-12.6118
▁늙기	-12.6119
전한	-12.6121
▁청소부	-12.6122
▁뒤떨어지	-12.6123
▁비정규직	-12.6124
▁종식되	-12.6124
▁확진	-12.6125
▁까칠	-12.6125
▁좋아하	-12.6125
▁정신건강	-12.6126
▁서두	-12.6126
▁효자	-12.6127
▁얘기하니	-12.6128
▁원수	-12.613
▁이십년	-12.6133
▁태워	-12.6134
▁내일모레	-12.6135
▁헤쳐	-12.6135
▁버거운	-12.6137
랄	-12.6137
▁꺼내면	-12.6137
▁가부장적	-12.6138
▁서류전형	-12.6139
▁교수	-12.614
랍	-12.6141
▁갑상선	-12.6142
▁카	-12.6142
▁같이하는	-12.6142
브	-12.6142
▁징그러	-12.6142
칭	-12.6142
▁혈관	-12.6142
▁환영	-12.6143
▁과민	-12.6143
▁인스턴트	-12.6143
▁가급적	-12.6143
▁갈비찜	-12.6143
▁갖춰	-12.6143
▁갚게	-12.6143
▁겪을	-12.6143
▁경각심	-12.6143
▁공공근로	-12.6143
▁교외	-12.6143
▁노령연금	-12.6143
▁댓글	-12.6143
▁뒷산	-12.6143
▁뒷이야기	-12.6143
▁띄지	-12.6143
▁라디오	-12.6143
▁맞춤법	-12.6143
▁맡을	-12.6143
▁멀게	-12.6143
▁메세지	-12.6143
▁모바일	-12.6143
▁묻혀	-12.6143
▁바둑	-12.6143
▁블로그	-12.6143
▁빌미	-12.6143
▁손재주	-12.6143
▁스테이크	-12.6143
▁슬럼프	-12.6143
▁싱겁	-12.6143
▁씻는	-12.6143
▁않느냐	-12.6143
▁얘긴	-12.6143
▁얘랑	-12.6143
▁어딘지	-12.6143
▁업무수행	-12.6143
▁위약금	-12.6143
▁이메일	-12.6143
▁임산부	-12.6143
▁재롱	-12.6143
▁전립선	-12.6143
▁좁히	-12.6143
▁촉박해	-12.6143
▁캠페인	-12.6143
▁크리스마스	-12.6143
▁태권도	-12.6143
▁트로트	-12.6143
▁틈에	-12.6143
▁피아니스트	-12.6143
▁환절기	-12.6143
▁훈수	-12.6143
▁흔한	-12.6143
뿌린	-12.6143
▁가까웠	-12.6143
▁골랐	-12.6143
▁뀌었	-12.6143
▁닫는	-12.6143
▁달랐	-12.6143
▁뒤처져	-12.6143
▁떨렸	-12.6143
▁많나	-12.6143
▁못지않	-12.6143
▁방광염	-12.6143
▁배고파	-12.6143
▁번거롭	-12.6143
▁붙는	-12.6143
▁붙들	-12.6143
▁소리쳤	-12.6143
▁썩였	-12.6143
▁앓았	-12.6143
[...]
